a 49426
. 27642
in 15099
the 10959
on 8306
man 7880
is 7581
and 7395
of 6867
with 6179
woman 3976
, 3963
two 3877
are 3782
to 3135
people 3121
an 3094
at 3023
wearing 2623
young 2280
white 2223
shirt 2132
black 2003
his 1969
while 1947
blue 1871
men 1800
red 1774
sitting 1743
girl 1733
dog 1691
boy 1689
standing 1614
playing 1594
group 1552
street 1445
down 1407
walking 1378
front 1306
her 1264
holding 1237
one 1097
water 1084
by 1080
three 1055
women 988
up 974
as 925
green 924
little 915
for 906
looking 895
child 894
outside 871
large 841
through 813
yellow 781
children 768
brown 766
s 763
person 753
ball 735
hat 728
from 728
their 725
into 711
small 671
next 664
out 663
other 660
dressed 642
e@@ 626
some 625
over 623
building 603
riding 584
running 581
a@@ 576
near 571
-@@ 567
jacket 566
around 562
another 562
es 553
g@@ 552
field 536
sidewalk 534
table 534
e 525
orange 524
crowd 521
beach 520
ed 510
er 501
stands 498
sits 493
pink 493
jumping 491
behind 489
t 478
stand 468
grass 468
ing 467
bike 465
y 462
background 460
snow 459
city 446
&apos;s 444
asian 443
girls 441
air 439
i@@ 438
top 437
s@@ 436
p@@ 430
player 429
f@@ 426
looks 423
ers 421
wall 417
dogs 413
ts 410
in@@ 409
dress 406
several 404
that 404
d 402
older 401
four 400
c@@ 400
off 393
camera 393
park 389
w@@ 384
talking 382
ding 382
lady 380
something 380
boys 376
soccer 375
walks 371
along 370
it 368
guitar 367
re@@ 367
working 365
food 364
hair 364
t@@ 363
play 363
together 361
y@@ 361
smiling 353
ting 353
side 352
ds 350
gray 343
plays 341
game 340
picture 340
d@@ 339
has 339
road 339
o@@ 339
car 329
b@@ 327
hand 327
st 323
holds 322
walk 322
p 318
glasses 317
head 316
se@@ 315
pants 315
bench 314
ri@@ 313
him 312
k 312
ti@@ 311
sit 311
con@@ 309
old 304
shorts 304
stage 303
suit 301
carrying 300
st@@ 299
couple 299
baby 299
mo@@ 299
pa@@ 298
room 297
la@@ 294
them 290
bicycle 287
ar@@ 287
ra@@ 287
race 286
li@@ 284
face 281
&quot; 280
male 279
tree 279
pool 278
ca@@ 278
back 277
taking 275
ro@@ 273
rock 273
each 272
ly 269
th@@ 269
day 269
m@@ 267
doing 267
de@@ 267
boat 266
do@@ 264
po@@ 261
watching 261
across 261
guy 260
its 260
jeans 259
dirt 259
there 259
area 258
sh@@ 257
ground 254
lo@@ 254
blond 252
jumps 250
me@@ 250
al 249
band 248
hands 248
en@@ 246
or 246
female 245
bu@@ 243
ma@@ 243
coat 242
performing 241
to@@ 239
baseball 238
who 237
eating 236
si@@ 236
di@@ 235
co@@ 234
being 233
striped 232
at@@ 231
l 229
using 229
football 229
ch 228
sign 228
ps 227
be 225
kids 225
watch 225
board 224
under 224
many 223
store 222
horse 222
mouth 221
purple 221
he 221
ge 220
long 218
tra@@ 217
this 216
l@@ 216
o 215
ted 214
look 214
sand 213
work 213
chair 213
it@@ 213
ta@@ 212
runs 212
tennis 212
reading 210
players 209
sunglasses 208
all 208
construction 208
g 208
ex@@ 208
h@@ 207
car@@ 205
sh 204
clothing 203
light 202
microphone 202
ls 201
mountain 200
covered 199
toy 198
ocean 198
dark 198
basketball 198
during 197
ck 197
workers 197
n 197
le@@ 196
n@@ 195
middle 194
watches 194
climbing 193
t-shirt 193
line 193
dancing 192
uniform 192
past 191
be@@ 191
elderly 190
les 190
u@@ 190
restaurant 188
un@@ 188
m 187
sa@@ 187
helmet 187
against 187
shirts 185
train 185
team 185
window 183
an@@ 183
sto@@ 182
ho@@ 182
rides 181
qu@@ 180
k@@ 180
sha@@ 180
r@@ 180
ne@@ 178
they 178
posing 178
way 177
about 177
se 176
ice 176
sp@@ 176
cks 175
so@@ 174
r 174
ch@@ 174
trees 174
wooden 173
five 173
having 173
waiting 173
outdoor 173
pe@@ 173
ter@@ 173
bag 172
ve 171
very 170
swimming 169
getting 168
go@@ 168
mu@@ 166
floor 166
trying 165
ce 165
truck 165
led 165
skateboard 163
colorful 163
lea@@ 163
te 163
cu@@ 161
hill 161
ba@@ 161
che@@ 161
busy 160
singing 159
fence 159
book 159
pi@@ 158
wa@@ 158
jump 157
track 157
market 156
cart 154
par@@ 154
le 154
ws 154
ride 151
laying 150
inside 150
hats 149
ru@@ 149
ving 149
high 148
tan 147
bright 147
ling 145
others 145
kitchen 145
cap 145
cellphone 144
body 144
path 144
grassy 144
big 143
someone 143
mar@@ 142
making 142
bus 141
c 141
clothes 141
ches 140
phone 140
takes 140
motorcycle 140
ic@@ 139
umbrella 139
night 138
towards 138
full 138
outfit 138
shop 138
am@@ 137
ching 137
enjoying 137
brick 137
colored 135
metal 135
river 134
swing 134
er@@ 134
ying 133
piece 133
paper 133
il@@ 133
na@@ 133
ready 133
sta@@ 133
stone 132
ter 131
she 131
arm 129
tank 129
set 129
gs 128
ning 128
ent 128
house 127
flo@@ 127
vi@@ 127
open 126
can@@ 126
der 126
worker 126
sweater 126
du@@ 125
trick 125
mi@@ 125
ns 125
painting 124
above 124
stick 124
king 123
lake 123
sk@@ 123
gra@@ 123
su@@ 122
de 122
adults 122
american 122
going 122
ck@@ 122
music 121
like 121
sho@@ 121
bar@@ 121
ci@@ 121
hard 120
vest 120
snowy 120
gu@@ 120
b 120
run 120
bo@@ 120
dance 120
surrounded 119
te@@ 119
wave 119
lot 119
for@@ 119
shopping 119
f 119
ned 118
sing 118
uniforms 118
onto 118
ar 117
outdoors 117
el@@ 117
crowded 117
fire 116
photo 116
ss 116
fa@@ 116
backpack 115
beside 115
smiles 115
gear 115
kid 114
cur@@ 114
en 114
ce@@ 113
ble 113
pole 113
hockey 112
subway 112
african 112
ll 112
drinking 112
sc@@ 111
family 111
bro@@ 110
bridge 110
flowers 110
tur@@ 110
w 109
toddler 109
tro@@ 109
pre@@ 109
cra@@ 109
ge@@ 109
guys 108
rope 108
wing 108
arms 108
snow@@ 108
tu@@ 108
gathered 108
event 108
police 107
shoes 107
hanging 107
ser@@ 107
al@@ 106
ju@@ 106
catch 106
ler 106
away 106
ped 106
v@@ 106
tou@@ 106
preparing 105
we@@ 105
beautiful 105
wn 105
cam@@ 105
spe@@ 105
ating 104
dra@@ 104
ry 104
ces 104
z@@ 104
tion 104
object 103
tri@@ 103
steps 103
sleeping 103
costume 103
ded 103
leaning 103
after 102
fishing 102
racing 102
shes 101
ad@@ 101
han@@ 101
ses 101
machine 101
ou@@ 100
ans 100
wi@@ 100
fountain 100
plaid 100
bar 100
ks 99
ine 99
shirtless 99
he@@ 99
jo@@ 99
ni@@ 99
stairs 99
wood 98
take 98
age 98
ders 98
chairs 98
pu@@ 97
op@@ 97
um@@ 97
adult 97
ings 96
rocks 96
gre@@ 96
pes 95
back@@ 94
selling 94
cross 94
sunny 94
ban@@ 94
graffiti 94
or@@ 94
does 93
glass 93
ke@@ 93
forest 93
ves 92
setting 92
cre@@ 92
pic@@ 92
pose 92
ja@@ 92
ons 92
ys 92
parade 92
cro@@ 91
els 91
tall 91
time 91
i 90
pla@@ 90
ea@@ 90
putting 90
mer 90
get 90
both 90
corner 90
volleyball 90
pushing 89
throwing 89
frisbee 89
et 89
scarf 89
2 89
view 89
art 88
have 88
com@@ 88
slide 88
sed 88
ladies 88
drink 88
between 88
fe@@ 88
no@@ 88
cking 87
ping 87
public 87
ats 87
ins 87
bed 87
laughing 87
star@@ 87
cor@@ 87
short 87
computer 87
instruments 86
flag 86
ure 86
ters 86
lan@@ 86
equipment 86
ched 86
cing 86
ac@@ 86
fish 85
bri@@ 85
pping 85
couch 85
where 85
pictures 85
bikes 85
ment 85
over@@ 85
pro@@ 84
plastic 84
ke 84
cowboy 84
ramp 84
water@@ 84
yard 84
party 84
which 83
playground 83
works 83
bat@@ 83
hi@@ 83
sweatshirt 83
res 83
poses 83
trail 83
woods 83
reads 83
on@@ 83
ir@@ 83
sun 82
skirt 82
concrete 82
ten@@ 82
ger 82
statue 82
beard 82
air@@ 82
fi@@ 82
fo@@ 81
win@@ 81
cla@@ 81
dock 81
gi@@ 81
ani@@ 81
midair 81
dle 81
stri@@ 81
winter 81
ard 80
ining 80
fla@@ 80
number 80
suits 80
just 80
j@@ 79
ste@@ 79
seated 79
inter@@ 79
row 79
x@@ 79
ved 79
sting 79
ction 78
ran@@ 78
distance 78
low 78
ion 78
lined 78
sky 77
attire 77
ap@@ 77
toward 77
hu@@ 77
x 77
what 77
bags 77
rain 77
beer 76
dri@@ 76
ben@@ 76
six 76
den@@ 76
gg@@ 76
cooking 76
har@@ 76
place 76
school 76
da@@ 76
kne@@ 75
right 75
vests 75
me 75
swim@@ 75
head@@ 75
cutting 75
blond-hair 75
filled 75
rider 75
br@@ 75
ery 74
pan@@ 74
gar@@ 74
buildings 74
shore 74
left 74
squ@@ 74
ssi@@ 74
ring 74
pulling 74
tent 74
lu@@ 74
mother 73
cream 73
middle-aged 73
up@@ 73
station 72
skateboarder 72
el 72
fen@@ 72
crossing 72
cliff 72
friends 72
net 72
lin@@ 72
appears 72
um 72
edge 71
showing 71
instrument 71
od@@ 71
ha@@ 71
spectators 71
stra@@ 71
mountains 71
few 71
bearded 70
horses 70
bathing 70
wel@@ 70
jersey 70
go 70
show 70
cars 70
ve@@ 69
nearby 69
per@@ 69
ms 69
performs 69
ff@@ 69
dresses 69
make 69
court 69
driving 68
ctor 68
grill 68
concert 68
bowling 68
ant 68
ny 68
carries 68
apron 68
can 68
perform 68
ol 68
cal@@ 68
box 68
snowboarder 68
pat@@ 67
fruit 67
ver@@ 67
hand@@ 67
arts 67
leaves 67
uses 67
painted 66
structure 66
coffee 66
wh@@ 66
ple 66
bb@@ 66
son 66
parked 66
vendor 66
flower 66
min@@ 66
various 66
cigarette 66
boots 66
students 66
cake 65
cup 65
vehicle 65
gentleman 65
no 65
ga@@ 65
goggles 65
cha@@ 65
younger 65
id 65
ir 65
smile 65
shot 65
med 65
surfer 65
bal@@ 64
ars 64
balan@@ 64
ity 64
bottle 64
fire@@ 64
flying 64
door 64
ick@@ 64
lit 64
martial 64
drums 64
bor@@ 64
talks 64
hal@@ 64
smoking 64
new 63
kicking 63
flags 63
dire@@ 63
wal@@ 63
home 63
eyes 63
rai@@ 63
hit 63
pin@@ 63
ally 63
lying 63
roller@@ 63
waves 62
safety 62
she@@ 62
rocky 62
ges 62
mb@@ 62
paint 62
swinging 62
ered 62
ies 62
coming 62
newspaper 62
alley 62
jackets 62
but@@ 62
rodeo 62
prepares 62
ne 62
conversation 61
gather 61
different 61
je@@ 61
parking 61
bucket 61
tin@@ 61
practicing 61
costumes 61
gloves 61
au@@ 61
ster 61
skating 61
indian 61
ladder 60
cleaning 60
bunch 60
scene 60
competition 60
roof 60
ates 60
listening 60
hold 60
cement 60
spra@@ 60
pe 60
bull 60
wait 59
tie 59
wet 59
blanket 59
wor@@ 59
fli@@ 59
skier 59
cle@@ 59
et@@ 59
il 59
sun@@ 59
rou@@ 59
items 59
ct 59
cau@@ 59
onlookers 59
skateboarding 59
her@@ 59
staring 59
spo@@ 58
balloon 58
do 58
meal 58
t-@@ 58
ely 58
pile 58
vel@@ 58
bikini 58
boar@@ 58
lawn 58
railing 58
audience 58
bicycles 58
zed 58
giving 58
ther 58
empty 58
-haired 58
3 58
desk 58
leaps 57
coo@@ 57
sit@@ 57
happy 57
ight 57
; 57
drinks 57
military 57
prote@@ 57
mer@@ 57
gets 57
hot 57
obser@@ 56
ak@@ 56
sliding 56
bur@@ 56
gathering 56
bird 56
display 56
ral 56
ked 56
cat@@ 56
man@@ 56
pon@@ 56
motorcyc@@ 56
sports 56
vegetables 56
pointing 56
signs 56
class 55
lar@@ 55
gh 55
wedding 55
made 55
bowl 55
facing 55
stop 55
ob@@ 55
sur@@ 55
pet 55
tes 55
lar 55
cut 55
feet 55
streets 55
chasing 55
sort 55
biker 55
before 55
competing 55
bi@@ 54
crou@@ 54
hole 54
ines 54
platform 54
sion 54
ated 54
huge 54
ad 54
cked 54
ft 54
helmets 54
stret@@ 54
va@@ 54
des 54
uni@@ 54
speaking 54
mask 54
basket 54
silver 53
bride 53
smo@@ 53
din@@ 53
tries 53
lights 53
ght 53
pass 53
cou@@ 53
match 53
surfing 53
classroom 53
teams 53
purse 52
climbs 52
gri@@ 52
father 52
tly 52
tre@@ 52
seen 52
ced 52
ile 52
iling 52
sticks 52
bot@@ 52
oun@@ 52
traditional 52
same 52
ski 52
waits 52
ep 52
sings 52
surfboard 52
marathon 52
fighting 51
stu@@ 51
plane 51
ty@@ 51
rail 51
blo@@ 51
kissing 51
tor@@ 51
counter 51
screen 51
shed 51
gold 51
animal 51
musicians 51
dy 50
stroller 50
dis@@ 50
ki@@ 50
break 50
ele@@ 50
decora@@ 50
shing 50
mon@@ 50
hor@@ 50
wer 50
town 50
females 50
walkway 49
site 49
shoulder 49
country 49
lap 49
hou@@ 49
kneeling 49
less 49
diving 49
ging 49
sunset 49
ite 49
throw 49
runner 49
writing 49
sin@@ 49
por@@ 49
skiing 49
dles 48
talk 48
scen@@ 48
ily 48
waving 48
ound 48
sil@@ 48
eng@@ 48
blowing 48
scooter 48
coa@@ 48
bald 48
pain@@ 48
christmas 48
nat@@ 48
ton 48
pea@@ 48
str@@ 48
business 48
attempting 48
ops 48
violin 48
photograph@@ 48
der@@ 47
tables 47
per 47
ary 47
overlooking 47
erman 47
lies 47
course 47
under@@ 47
sli@@ 47
wear 47
wheel@@ 47
outfits 47
gle 47
end 47
exam@@ 47
cher 47
oper@@ 46
ence 46
ur@@ 46
adverti@@ 46
blond-haired 46
urban 46
bubbles 46
says 46
stro@@ 46
mal@@ 46
artist 46
officer 46
mirror 46
ty 46
cyc@@ 46
ill 46
rs 46
giant 45
van 45
leans 45
sement 45
balloons 45
stic 45
fixing 45
prin@@ 45
fre@@ 45
bel@@ 45
chinese 45
celebra@@ 45
ous 45
fol@@ 45
fully 45
base 45
kes 45
life 45
the@@ 45
sel@@ 45
close 45
alone 44
ation 44
swim 44
faces 44
teenage 44
ven@@ 44
ming 44
repa@@ 44
brunette 44
helping 44
presen@@ 44
wheel 44
cafe 44
cy 44
plate 44
leg 44
bra@@ 44
collar 44
loo@@ 44
scu@@ 44
atten@@ 44
foreground 44
gym 44
leather 44
aring 44
cts 44
umbrellas 44
skate 44
para@@ 44
mod@@ 44
lling 43
rail@@ 43
electric 43
e-@@ 43
mud 43
asleep 43
pad@@ 43
enjoy 43
comple@@ 43
clown 43
legs 43
brightly 43
meat 43
guit@@ 43
ton@@ 43
dancers 43
headphones 43
sses 43
play@@ 42
tr@@ 42
washing 42
folding 42
sandals 42
hood 42
golf 42
among 42
ear@@ 42
swings 42
balls 42
makes 42
officers 42
sts 42
office 42
tea@@ 42
moto@@ 42
falling 42
stadium 42
d-@@ 42
bat 42
passing 42
post@@ 42
wears 42
multicolored 41
goal 41
dark-haired 41
phones 41
bs 41
held 41
cting 41
dirty 41
nu@@ 41
church 41
sea@@ 41
friend 41
pl@@ 41
toys 41
barefoot 41
ese 41
flu@@ 41
hiking 41
musical 41
heads 41
participat@@ 41
py 41
photographer 41
doorway 41
ward 41
lif@@ 41
males 40
let 40
mach@@ 40
za 40
bea@@ 40
singer 40
reaching 40
xing 40
wea@@ 40
drawing 40
sca@@ 40
video 40
flip 40
leash 40
laptop 40
accordion 40
sna@@ 40
throws 40
canoe 40
picking 40
ing@@ 40
traffic 40
cloth 40
fini@@ 40
see@@ 39
v 39
below 39
hose 39
war@@ 39
fra@@ 39
work@@ 39
tops 39
move 39
high@@ 39
vie@@ 39
rea@@ 39
shallow 39
members 39
out@@ 39
check@@ 39
pati@@ 39
relaxing 39
lad@@ 39
ate 39
daughter 39
ged 39
performance 39
follo@@ 39
digging 39
lon@@ 39
well 39
read 38
ill@@ 38
catching 38
wo@@ 38
key 38
tain@@ 38
tunnel 38
moving 38
hugging 38
atop 38
shovel 38
suspen@@ 38
catches 38
tw@@ 38
slee@@ 38
pup@@ 38
vel 38
gives 38
cat 38
microscope 38
square 38
dro@@ 38
passes 38
stic@@ 38
foot 38
lid@@ 38
ern 38
bicyclist 38
enter@@ 38
spor@@ 38
hair@@ 38
ens 38
gate 37
tattoo 37
sweeping 37
resting 37
prepare 37
ils 37
sleeps 37
turn 37
fil@@ 37
carri@@ 37
kick 37
pped 37
mat@@ 37
hel@@ 37
pass@@ 37
tment 37
shows 37
sled 37
garden 37
close@@ 37
climb 37
long@@ 37
wed 37
lone 37
paved 37
fun 37
deep 37
chef 37
dun@@ 37
drum 37
len@@ 37
wrest@@ 37
cho@@ 37
leaping 37
ima@@ 37
pil@@ 37
stunt 37
flies 37
here 37
tack@@ 37
bun@@ 36
bow 36
wards 36
pond 36
sculpture 36
individuals 36
inten@@ 36
rolling 36
vol@@ 36
scaf@@ 36
hea@@ 36
chal@@ 36
trunks 36
sco@@ 36
desert 36
karate 36
hur@@ 36
h 36
dre@@ 36
cri@@ 36
colle@@ 36
lots 36
ney 36
&apos; 36
beige 36
hoodie 36
gue 36
doors 36
splashing 36
upside 36
cold 36
conversing 36
ner 36
im@@ 36
ire 36
teeth 36
new@@ 36
boun@@ 36
tire 36
us 36
tattoo@@ 36
coats 36
photograph 36
bla@@ 36
lists 36
ance 35
jogging 35
discus@@ 35
how 35
wrestling 35
bru@@ 35
tran@@ 35
customers 35
these 35
pier 35
sw@@ 35
ump@@ 35
port 35
telescope 35
stan@@ 35
closed 35
round 35
formal 35
gun 35
points 35
underneath 35
tation 35
block 35
ried 35
fu@@ 35
plants 35
ler@@ 35
sup@@ 34
hap@@ 34
local 34
mat 34
magaz@@ 34
cane 34
land 34
cyclist 34
im 34
opposing 34
themselves 34
pen@@ 34
try 34
project 34
roller 34
without 34
shoulders 34
loa@@ 34
carnival 34
ggling 34
ering 34
dances 34
gh@@ 34
hiker 34
my 34
cit@@ 34
waters 34
eat 34
ag@@ 34
scape 34
ic 34
including 34
stre@@ 34
na 34
bath@@ 34
shoe 34
circle 33
refle@@ 33
tory 33
ker 33
lab 33
crosswalk 33
seat 33
col@@ 33
straw 33
crying 33
pulled 33
hammer 33
cted 33
infant 33
mers 33
wooded 33
mural 33
boo@@ 33
far@@ 33
ness 33
igh@@ 33
dinner 33
fight 33
tricks 33
trampoline 33
makeup 33
ite@@ 33
matching 33
skin@@ 33
cup@@ 33
racket 33
em 33
bow@@ 33
ly@@ 33
nic 33
rece@@ 33
ssing 33
taken 33
inspec@@ 33
produce 33
runners 33
stuffed 32
so 32
driver 32
picnic 32
gymnast 32
booth 32
rest 32
infla@@ 32
loun@@ 32
firefigh@@ 32
sewing 32
ols 32
io@@ 32
books 32
nose 32
ot 32
bly 32
re 32
bicyclists 32
ver 32
athlete 32
ze 32
trash 32
opening 32
gymna@@ 32
hoop 32
list 32
snowboar@@ 32
long-slee@@ 32
4 32
fe 32
ist 32
attempts 32
performer 32
surface 32
rist@@ 32
list@@ 32
professi@@ 32
ods 32
lays 31
saw 31
ctive 31
boxes 31
blouse 31
himself 31
skis 31
hikers 31
sandy 31
approa@@ 31
softball 31
down@@ 31
lit@@ 31
chases 31
dark@@ 31
cow 31
tor 31
ham@@ 31
case 31
kni@@ 31
bou@@ 31
sum@@ 31
lift 31
ents 31
goes 31
center 31
od 31
bever@@ 31
compan@@ 31
slope 31
balcony 31
dr@@ 31
teenagers 31
th 31
pushes 31
fur@@ 31
eding 31
lunch 31
help 31
pedestrians 31
ss@@ 31
thro@@ 31
clo@@ 31
style 31
ber@@ 31
third 31
sig@@ 31
oriental 31
cheerleaders 31
cti@@ 31
ssed 31
pitcher 31
not 30
staircase 30
ets 30
puts 30
log 30
seven 30
climb@@ 30
covering 30
fro@@ 30
fore@@ 30
tub 30
indoor 30
motor@@ 30
device 30
brush 30
bent 30
key@@ 30
club 30
tting 30
coun@@ 30
pulls 30
eu@@ 30
tle 30
neck 30
appe@@ 30
skat@@ 30
nam@@ 30
deck 30
chi@@ 30
land@@ 30
mate 30
pit@@ 30
ee 30
thers 30
speaks 30
tic 30
blu@@ 30
mas 30
kind 30
sprink@@ 29
overalls 29
son@@ 29
evening 29
boats 29
ol@@ 29
wetsuit 29
spar@@ 29
onal 29
tic@@ 29
whee@@ 29
cheer@@ 29
heavy 29
bran@@ 29
pit 29
multi@@ 29
gentlemen 29
ycle 29
tan@@ 29
enjoys 29
stat@@ 29
barre@@ 29
sci@@ 29
see 29
gun@@ 29
swims 29
nes 29
ddy 29
cen@@ 29
drives 29
shaking 29
pur@@ 29
1@@ 29
festival 29
windo@@ 29
fly 29
robe 29
grocery 29
fallen 29
marching 29
use 29
dancer 29
cer@@ 29
rain@@ 28
sheet 28
fac@@ 28
barbecu@@ 28
pouring 28
kayak 28
cour@@ 28
nice 28
jean 28
kicks 28
red@@ 28
section 28
ship 28
red-haired 28
porch 28
lers 28
brown-haired 28
puddle 28
pot 28
let@@ 28
protective 28
fish@@ 28
gen@@ 28
cial 28
type 28
stream 28
ei@@ 28
grou@@ 28
tracks 28
khaki 28
garb 28
fingers 28
headed 28
musta@@ 28
waterfall 28
wrapped 28
cloudy 28
police@@ 28
zing 28
fair 28
ble@@ 28
sso@@ 28
hangs 28
ght@@ 28
golden 28
shaving 28
robes 28
grin@@ 28
vement 28
dit@@ 28
lie 28
fer@@ 28
refer@@ 28
cket 28
foreign 28
steep 28
native 28
clear 28
laundry 28
teenager 28
poles 27
sale 27
alie 27
ledge 27
ligh@@ 27
tal@@ 27
paddling 27
shoveling 27
wag@@ 27
reaches 27
fash@@ 27
camer@@ 27
ital 27
apar@@ 27
bread 27
luggage 27
moves 27
eye 27
blocks 27
jump@@ 27
red-hair 27
fan@@ 27
emer@@ 27
chan@@ 27
ctions 27
spla@@ 27
ful 27
ear 27
saxophone 27
birds 27
chase 27
checking 27
opposite 27
attached 27
tex@@ 27
palm 27
backyard 27
sea 27
put 27
arena 27
pol@@ 27
shooting 27
podium 27
soldiers 27
skirts 27
piano 27
colors 27
men@@ 27
papers 27
cer 27
sla@@ 26
wil@@ 26
nic@@ 26
bik@@ 26
ist@@ 26
ven 26
pers 26
sk 26
fun@@ 26
wr@@ 26
medi@@ 26
hood@@ 26
pri@@ 26
tar@@ 26
dru@@ 26
sand@@ 26
umb@@ 26
spa@@ 26
dly 26
backpa@@ 26
soldi@@ 26
laugh@@ 26
skateboar@@ 26
char@@ 26
kiss 26
poin@@ 26
fin@@ 26
color@@ 26
bandan@@ 26
ie 26
chu@@ 26
polo 26
craf@@ 26
pipe 26
hula 26
rugby 26
ou 25
shi@@ 25
black@@ 25
ek 25
5 25
bub@@ 25
fall 25
vic@@ 25
student 25
off@@ 25
musici@@ 25
compe@@ 25
rin@@ 25
plo@@ 25
scre@@ 25
york 25
tow@@ 25
raft 25
iny 25
nit@@ 25
tom 25
studi@@ 25
sport 25
live 24
of@@ 24
sse@@ 24
ski@@ 24
mob@@ 24
cle 24
stru@@ 24
surf 24
ka@@ 24
fru@@ 24
tail 24
whe@@ 24
cir@@ 24
ff 24
rest@@ 24
asi@@ 24
fig@@ 24
ba 24
wra@@ 24
market@@ 24
ren@@ 24
vy 24
ka 24
iting 24
pun@@ 24
ards 24
haw@@ 24
ckets 24
plan@@ 24
top@@ 24
rela@@ 24
santa 24
jerse@@ 24
micro@@ 24
1 24
stov@@ 23
sky@@ 23
most 23
mid@@ 23
la 23
team@@ 23
sl@@ 23
chop@@ 23
flow@@ 23
als 23
nar@@ 23
bir@@ 23
scar@@ 23
dry 23
dou@@ 23
spi@@ 23
kaya@@ 23
surf@@ 23
ors 23
teri@@ 23
athle@@ 23
love 23
kno@@ 22
tru@@ 22
0 22
vehic@@ 22
gging 22
sty 22
amp@@ 22
trum@@ 22
ind 22
attemp@@ 22
stop@@ 22
individu@@ 22
ame 22
outh 22
uring 22
! 22
orche@@ 22
stra 22
pos@@ 22
dic@@ 22
mes 22
prac@@ 22
emo@@ 22
mov@@ 22
muz@@ 22
bmx 22
conver@@ 21
brea@@ 21
some@@ 21
ath 21
sweat@@ 21
zer 21
irs 21
clu@@ 21
bask@@ 21
( 21
ments 21
pot@@ 21
cell@@ 21
plat@@ 21
mini@@ 21
lon 21
pra@@ 21
mp 21
pen 21
san@@ 21
ture 21
laun@@ 21
shor@@ 21
ech 21
0@@ 21
surroun@@ 21
fet@@ 21
ken 20
colo@@ 20
mou@@ 20
mbo@@ 20
memb@@ 20
mas@@ 20
sle@@ 20
dge 20
emp@@ 20
) 20
ich 20
run@@ 20
pho@@ 20
ma 20
rough 20
alle@@ 20
stair@@ 20
vo@@ 20
bul@@ 20
ik@@ 20
jum@@ 20
sy@@ 19
gaz@@ 19
us@@ 19
vil@@ 19
spon@@ 19
sen@@ 19
kil@@ 19
ov@@ 19
clou@@ 19
af@@ 19
tax@@ 19
mounta@@ 19
arti@@ 19
ot@@ 19
ali@@ 19
elec@@ 19
ina 19
sof@@ 19
om 19
vendo@@ 19
des@@ 19
ab@@ 19
produ@@ 19
ther@@ 18
mall 18
dig@@ 18
ky 18
cli@@ 18
monit@@ 18
vil 18
peri@@ 18
sou@@ 18
ghtly 18
piz@@ 18
pie@@ 18
fal@@ 18
co 18
raf@@ 18
cow@@ 18
bag@@ 18
lean@@ 18
side@@ 18
swe@@ 18
dding 18
lly 18
tem@@ 18
am 17
hot@@ 17
gro@@ 17
tures 17
dor@@ 17
derby 17
lap@@ 17
ssy 17
buil@@ 17
demon@@ 17
amon@@ 17
forma@@ 17
afri@@ 17
break@@ 17
hy@@ 17
vege@@ 17
is@@ 17
ree 17
sculp@@ 17
sol@@ 17
gest@@ 17
crow@@ 17
gal@@ 17
by@@ 17
sle 17
bles 17
ue 17
del@@ 17
ckey 17
slo@@ 16
lou@@ 16
cop@@ 16
ten 16
sm@@ 16
zo@@ 16
&@@ 16
labora@@ 16
mil@@ 16
ori@@ 16
tel 16
compu@@ 16
eling 16
mix@@ 16
blan@@ 16
chin@@ 16
ive 16
televi@@ 16
nel 16
instru@@ 16
are@@ 16
ggles 16
box@@ 16
obje@@ 16
&apos;@@ 16
pou@@ 16
sty@@ 16
dl@@ 15
super@@ 15
zen 15
shovel@@ 15
3@@ 15
ey@@ 15
wood@@ 15
strol@@ 15
roun@@ 15
ath@@ 15
yel@@ 15
sub@@ 15
dal 15
proje@@ 15
pod 15
cheerlea@@ 15
americ@@ 15
rol@@ 15
ban 15
.@@ 15
haired 15
tele@@ 15
offic@@ 15
eri@@ 15
indi@@ 15
ami@@ 15
os@@ 15
perform@@ 15
20@@ 15
fiel@@ 15
fou@@ 14
custo@@ 14
12 14
trun@@ 14
sno@@ 14
cture 14
hik@@ 14
wat@@ 14
news@@ 14
hud@@ 14
dan@@ 14
mp@@ 14
shir@@ 14
mir@@ 14
nal@@ 13
foot@@ 13
op 13
hy 13
mo 13
bit@@ 13
stance 13
tech@@ 13
stran@@ 13
competit@@ 13
aut@@ 13
form 13
adv@@ 13
gla@@ 13
base@@ 13
ti 13
oran@@ 13
grocer@@ 13
swee@@ 13
floo@@ 13
2@@ 13
8 13
numb@@ 13
val 12
ere 12
form@@ 12
bicyc@@ 12
cers 12
ate@@ 12
ym@@ 12
dy@@ 12
ry@@ 12
teen@@ 12
dling 12
cloth@@ 12
vin@@ 12
u 12
aged 12
ya@@ 12
lov@@ 12
bod@@ 12
hol@@ 12
olym@@ 12
atta@@ 12
6 12
tun@@ 12
5@@ 12
tren@@ 11
tod@@ 11
constru@@ 11
ok@@ 11
cov@@ 11
chat@@ 11
j 11
dar@@ 11
roma@@ 11
tat@@ 11
spea@@ 11
sam@@ 11
khak@@ 11
vat@@ 11
raz@@ 11
cano@@ 11
practic@@ 11
cal 11
note@@ 11
graffit@@ 11
kers 11
olympi@@ 11
prepar@@ 11
bare@@ 10
thing 10
pr@@ 10
zen@@ 10
rying 10
bre@@ 10
vice 10
ners 10
vari@@ 10
o-@@ 10
cel@@ 10
sti@@ 10
gy@@ 10
wn@@ 10
vest@@ 10
mul@@ 10
9@@ 10
viol@@ 10
py@@ 10
# 10
apro@@ 9
da 9
ip@@ 9
vide@@ 9
fri@@ 9
ple@@ 9
relax@@ 9
ata 9
hind 9
scho@@ 9
z 9
stum@@ 9
tato 9
bli@@ 9
sal@@ 9
4@@ 9
stem 8
pitch@@ 8
kar@@ 8
stun@@ 8
ker@@ 8
ket 8
zy 8
ounta@@ 8
ional 8
tal 8
za@@ 8
shou@@ 8
ut@@ 8
sprin@@ 8
- 8
deser@@ 8
cke@@ 8
ko@@ 8
cover@@ 8
fing@@ 8
ig@@ 7
golf@@ 7
with@@ 7
9 7
rav@@ 7
div@@ 7
slu@@ 7
dir@@ 7
mic@@ 7
gir@@ 7
mati@@ 7
zi@@ 7
busine@@ 7
cigaret@@ 7
electri@@ 7
lat@@ 7
dal@@ 7
tu 7
shoo@@ 7
get@@ 7
? 7
equ@@ 7
chil@@ 7
fron@@ 7
festi@@ 7
mi 7
bikin@@ 7
poli@@ 7
7 7
8@@ 7
den 7
6@@ 7
ze@@ 7
pul@@ 6
spec@@ 6
auto@@ 6
walk@@ 6
vy@@ 6
fam@@ 6
ku@@ 6
red-@@ 6
gol@@ 6
lp@@ 6
inging 6
partici@@ 6
profe@@ 6
chut@@ 6
ps@@ 6
appro@@ 6
ffe@@ 6
sleep 6
ling@@ 6
dle@@ 6
ha 6
scope 6
inclu@@ 6
nik@@ 6
fit 6
nal 6
ami 6
prou@@ 6
wet@@ 6
wit@@ 6
figh@@ 6
near@@ 6
metr@@ 5
oth 5
make@@ 5
multicolo@@ 5
youn@@ 5
sat@@ 5
mirro@@ 5
spectat@@ 5
dole@@ 5
ref@@ 5
xt 5
bee 5
pedestri@@ 5
disc@@ 5
basket@@ 5
saxopho@@ 5
kla@@ 5
uli@@ 5
sy 5
lo 5
pro 5
frien@@ 5
ket@@ 5
les@@ 5
middle-@@ 5
tit@@ 5
var@@ 5
ird 4
ske@@ 4
q 4
kitch@@ 4
bear@@ 4
dals 4
di 4
photograp@@ 4
restaur@@ 4
peop@@ 4
long-@@ 4
jaz@@ 4
equip@@ 4
mr@@ 4
gage 4
fic 4
cky 4
daugh@@ 4
lun@@ 4
dings 4
enjo@@ 4
auti@@ 4
bic@@ 4
las 4
spen@@ 4
ta 4
dler 3
tiv@@ 3
kle@@ 3
inf@@ 3
olo@@ 3
kel@@ 3
adul@@ 3
sta 3
ign 3
mik@@ 3
tle@@ 3
ggage 3
onloo@@ 3
vou@@ 3
cy@@ 3
labo@@ 3
sed@@ 3
mb 3
ired 3
: 3
chy 3
door@@ 3
set@@ 3
du 3
obli@@ 3
sv@@ 3
bm@@ 3
aga@@ 3
lem 3
mets 3
itch@@ 3
va 3
nov@@ 3
erti@@ 3
nan@@ 3
val@@ 3
smi@@ 3
beauti@@ 3
cross@@ 3
tial 3
blon@@ 3
dob@@ 2
van@@ 2
class@@ 2
fris@@ 2
dul@@ 2
psy 2
ply@@ 2
dle-@@ 2
hle@@ 2
mal 2
tici@@ 2
stuff@@ 2
irts 2
pud@@ 2
bei@@ 2
,@@ 2
shoul@@ 2
li 2
vo 2
lavi@@ 2
even@@ 2
tin 2
volle@@ 2
oce@@ 2
blond-@@ 2
my@@ 2
chu 2
chur@@ 2
allow 2
% 2
podi@@ 2
neu@@ 2
si 2
mpo@@ 2
slun@@ 2
yc@@ 2
cele@@ 2
vr@@ 2
tech 2
slou@@ 2
hoke@@ 2
rod@@ 2
uniform@@ 1
irt 1
ci 1
oter 1
zat@@ 1
ening 1
conversat@@ 1
polo@@ 1
dem 1
ugh@@ 1
lou 1
accor@@ 1
publi@@ 1
shro@@ 1
spou@@ 1
teet@@ 1
kou@@ 1
sax@@ 1
plast@@ 1
mu 1
turi@@ 1
deo 1
kor@@ 1
outf@@ 1
nu 1
twe@@ 1
kan@@ 1
ena 1
cigar@@ 1
rov@@ 1
baru 1
again@@ 1
prep@@ 1
ong@@ 1
skate@@ 1
auto 1
zd@@ 1
rou 1
eli 1
dresse@@ 1
q@@ 1
kra@@ 1
milit@@ 1
ec 1
ista 1
ind@@ 1
7@@ 1
tem 1
brown@@ 1
concre@@ 1
$ 1
brun@@ 1
mobil@@ 1
ji 1
ffee 1
ho 1
ffer@@ 1
ji@@ 1
tradit@@ 1
hla@@ 1
hr@@ 1
nis 1
jer@@ 1
dv@@ 1
musi@@ 1
stup@@ 1
fon@@ 1
hic@@ 1
zu 1
pal@@ 1
fia@@ 1
differ@@ 1
kaz@@ 1
ruce 1
yor@@ 1
tograp@@ 1
= 1
