a 49421
. 27642
in 15037
the 10959
on 8188
man 7878
is 7566
and 7381
of 6867
with 6179
woman 3976
, 3963
two 3877
are 3782
to 3130
people 3121
an 3073
at 3013
wearing 2623
young 2280
white 2223
shirt 2132
black 2003
his 1969
while 1947
blue 1871
men 1790
red 1778
sitting 1743
girl 1733
dog 1691
boy 1689
standing 1614
playing 1594
group 1552
street 1445
down 1407
walking 1378
front 1306
her 1263
holding 1237
one 1129
by 1081
water 1061
three 1055
women 988
up 951
green 924
as 921
little 915
for 906
looking 895
child 894
outside 871
large 841
through 813
yellow 781
children 768
brown 766
person 753
ball 732
hat 728
from 728
their 725
into 711
small 671
next 664
other 660
ed 657
out 652
dressed 642
some 624
over 611
building 603
riding 584
running 581
near 571
jacket 566
around 562
another 562
y 560
field 536
sidewalk 534
orange 524
crowd 521
beach 520
table 502
stands 498
pink 493
sits 492
jumping 491
behind 489
e@@ 470
stand 468
grass 468
bike 465
ing 461
background 460
snow 459
city 446
air 446
&apos;s 444
girls 441
top 437
player 429
looks 423
asian 421
wall 417
dogs 413
s@@ 406
dress 406
several 404
that 404
older 402
four 400
off 394
camera 393
park 389
-@@ 388
talking 382
lady 380
something 380
es 378
boys 376
d 375
soccer 375
w@@ 373
d@@ 373
walks 371
along 370
guitar 367
working 365
food 364
hair 364
play 363
together 361
ding 354
smiling 353
in@@ 353
side 352
it 347
gray 343
st@@ 343
b@@ 341
plays 341
s 340
game 340
picture 340
has 339
er 334
car 332
a@@ 329
hand 327
holds 322
walk 322
glasses 317
old 317
head 316
pants 315
bench 314
road 314
him 312
sit 311
k@@ 309
t@@ 308
shorts 304
stage 303
y@@ 302
carrying 300
couple 299
baby 299
ers 297
l 295
o@@ 294
re@@ 293
them 290
bicycle 287
ds 286
i@@ 281
face 281
ts 281
de@@ 281
&quot; 280
pool 279
male 279
tree 279
race 279
back 277
suit 276
taking 275
rock 273
room 273
day 272
each 272
f@@ 269
doing 267
boat 266
ting 264
p@@ 261
watching 261
across 261
guy 260
or 260
jeans 259
dirt 259
there 259
area 258
ground 254
blond 252
jumps 250
band 248
hands 248
g@@ 247
p 246
t 245
female 245
m@@ 245
sh@@ 243
coat 242
its 242
performing 241
baseball 238
who 237
eating 236
k 233
being 233
striped 232
ly 230
c@@ 229
using 229
football 229
sign 228
kids 225
watch 225
under 224
lo@@ 224
many 223
store 222
horse 222
ps 221
mouth 221
purple 221
he 220
po@@ 219
l@@ 217
long 217
this 216
look 214
sand 213
runs 212
tennis 212
reading 210
players 209
sunglasses 208
construction 208
all 206
un@@ 206
clothing 203
work 202
microphone 202
se@@ 201
st 201
li@@ 200
la@@ 200
mountain 200
car@@ 200
n@@ 199
line 199
toy 198
ocean 198
dark 198
basketball 198
during 197
g 197
workers 197
u@@ 196
ti@@ 195
ch 195
middle 194
watches 194
climbing 193
be 193
t-shirt 193
dancing 192
uniform 192
en@@ 192
past 191
con@@ 191
elderly 190
restaurant 188
chair 187
helmet 187
against 187
ar@@ 185
train 185
team 185
h@@ 184
co@@ 184
window 183
o 181
rides 181
board 179
it@@ 179
they 178
posing 178
way 177
e 177
about 177
mo@@ 177
al@@ 176
ice 176
covered 175
trees 174
wooden 173
five 173
having 173
waiting 173
outdoor 173
le 173
light 172
bag 172
at@@ 171
very 169
swimming 169
getting 168
pe@@ 168
ro@@ 167
ra@@ 167
floor 166
am@@ 166
trying 165
truck 165
ca@@ 165
m 164
shirts 164
ch@@ 164
skateboard 163
colorful 163
ve 161
busy 160
an@@ 160
bu@@ 159
singing 159
ri@@ 159
fence 159
book 159
th@@ 159
hill 158
jump 157
di@@ 157
market 156
cart 154
ic@@ 153
le@@ 152
ride 151
laying 150
v@@ 150
inside 150
on@@ 150
hats 149
ck 149
high 148
cu@@ 147
tan 147
bright 147
body 145
others 145
kitchen 145
cap 145
cellphone 144
path 144
grassy 144
n 144
big 143
someone 143
making 142
night 141
king 141
bus 141
clothes 141
ling 140
phone 140
takes 140
motorcycle 140
umbrella 139
towards 138
full 138
outfit 138
ls 138
shop 138
track 137
enjoying 137
brick 137
colored 135
metal 135
ted 134
river 134
der 134
r@@ 134
si@@ 134
swing 134
piece 133
paper 133
en 133
ready 133
er@@ 133
stone 132
or@@ 132
ba@@ 131
she 131
w 129
arm 129
tank 129
ea@@ 129
set 129
to@@ 128
ws 128
house 127
open 126
worker 126
sweater 126
ta@@ 125
il@@ 125
ches 125
trick 125
painting 124
les 124
el@@ 124
above 124
ation 124
stick 124
lake 123
adults 122
american 122
going 122
music 121
hard 120
vest 120
snowy 120
z@@ 120
dance 120
surrounded 119
pre@@ 119
wave 119
run 119
gs 119
lea@@ 119
shopping 119
onto 119
ad@@ 118
ter 118
ma@@ 118
uniforms 118
ying 117
like 117
hand@@ 117
outdoors 117
crowded 117
mu@@ 117
fire 116
photo 116
backpack 115
beside 115
smiles 115
gear 115
bar@@ 115
al 114
kid 114
ces 114
ching 113
pole 113
ks 112
mar@@ 112
hockey 112
be@@ 112
subway 112
african 112
drinking 112
do@@ 111
ke 111
family 111
ate 111
bridge 110
flowers 110
ac@@ 109
art 109
toddler 109
pa@@ 109
guys 108
rope 108
arms 108
wa@@ 108
gathered 108
event 108
tra@@ 107
police 107
shoes 107
hanging 107
lot 107
catch 106
sk@@ 106
away 106
te@@ 106
preparing 105
beautiful 105
du@@ 105
sc@@ 105
um@@ 105
led 105
object 103
steps 103
sleeping 103
costume 103
leaning 103
mi@@ 102
after 102
fishing 102
shes 101
me@@ 101
se 101
c 101
op@@ 101
machine 101
che@@ 101
fountain 100
plaid 100
te 100
bar 100
shirtless 99
stairs 99
wood 98
take 98
et@@ 98
chairs 98
adult 97
no@@ 96
ex@@ 96
fire@@ 96
rocks 96
ning 96
f 96
sa@@ 95
gre@@ 95
bro@@ 94
hu@@ 94
selling 94
pi@@ 94
sunny 94
graffiti 94
does 93
glass 93
forest 93
setting 92
cre@@ 92
pose 92
parade 92
go@@ 92
racing 92
tall 91
time 91
des 91
ves 90
ery 90
we@@ 90
bo@@ 90
ons 90
b 90
putting 90
get 90
both 90
corner 90
volleyball 90
pushing 89
snow@@ 89
throwing 89
frisbee 89
scarf 89
2 89
dra@@ 89
view 89
have 88
slide 88
ladies 88
drink 88
between 88
pro@@ 87
wh@@ 87
els 87
public 87
wing 87
laughing 87
el 87
ir@@ 87
short 87
computer 87
r 86
instruments 86
flag 86
i 86
cks 86
ating 86
cal 86
equipment 86
bl@@ 86
sting 86
fish 85
bed 85
couch 85
where 85
sh 85
pictures 85
bikes 85
su@@ 84
plastic 84
cowboy 84
ramp 84
water@@ 84
yard 84
party 84
which 83
playground 83
works 83
sp@@ 83
sweatshirt 83
poses 83
trail 83
woods 83
reads 83
ked 83
sun 82
concrete 82
ine 82
statue 82
beard 82
gu@@ 82
ck@@ 82
ded 82
pan@@ 81
dock 81
ger 81
pu@@ 81
gra@@ 81
ors 81
midair 81
winter 81
ins 80
ses 80
ped 80
number 80
suits 80
cra@@ 80
just 80
skirt 79
e-@@ 79
pping 79
seated 79
ping 79
over@@ 79
dis@@ 78
ings 78
fa@@ 78
ju@@ 78
distance 78
he@@ 78
sky 77
attire 77
wi@@ 77
can@@ 77
ten@@ 77
toward 77
for@@ 77
pla@@ 77
what 77
bags 77
beer 76
sha@@ 76
tri@@ 76
flo@@ 76
bat@@ 76
six 76
cooking 76
school 76
stri@@ 76
sing 76
vests 75
head@@ 75
et 75
cutting 75
blond-hair 75
ally 75
vi@@ 75
filled 75
lined 75
rider 75
ce 74
buildings 74
cross 74
shore 74
ru@@ 74
left 74
ens 74
motor@@ 74
pulling 74
tent 74
so@@ 73
mother 73
cream 73
middle-aged 73
arts 73
is@@ 73
fi@@ 73
ss 73
station 72
skateboarder 72
crossing 72
ster 72
cliff 72
friends 72
x 72
appears 72
go 72
har@@ 72
edge 71
showing 71
instrument 71
spectators 71
mountains 71
few 71
cal@@ 71
bearded 70
horses 70
cla@@ 70
bathing 70
ack 70
ved 70
net 70
jersey 70
ry 70
show 70
cars 70
ur@@ 69
nearby 69
right 69
performs 69
dresses 69
make 69
court 69
driving 68
grill 68
concert 68
bowling 68
carries 68
apron 68
de 68
can 68
perform 68
ho@@ 68
box 68
snowboarder 68
kes 67
fruit 67
ish 67
h 67
cing 67
age 67
leaves 67
painted 66
structure 66
coffee 66
parked 66
vendor 66
tu@@ 66
ched 66
flower 66
sli@@ 66
various 66
cigarette 66
boots 66
students 66
cake 65
cup 65
leans 65
vehicle 65
gentleman 65
ker 65
dr@@ 65
goggles 65
younger 65
smile 65
shot 65
om@@ 65
ss@@ 65
surfer 65
bottle 64
flying 64
door 64
lit 64
martial 64
drums 64
talks 64
tur@@ 64
smoking 64
rain 64
new 63
kicking 63
flags 63
home 63
eyes 63
per@@ 63
mat@@ 63
no 63
hit 63
ates 63
ai@@ 63
lying 63
ic 63
ving 63
br@@ 63
waves 62
safety 62
rocky 62
paint 62
ous 62
swinging 62
coming 62
newspaper 62
alley 62
jackets 62
ter@@ 62
bel@@ 62
but@@ 62
low 62
rodeo 62
prepares 62
uses 62
conversation 61
rail 61
cur@@ 61
fol@@ 61
gather 61
different 61
ated 61
parking 61
bucket 61
practicing 61
ble 61
costumes 61
inter@@ 61
gloves 61
skating 61
indian 61
em@@ 61
ladder 60
cleaning 60
bunch 60
scene 60
ber 60
competition 60
son 60
pic@@ 60
ining 60
roof 60
jo@@ 60
listening 60
hold 60
cement 60
bull 60
wait 59
tie 59
tw@@ 59
wn 59
wet 59
blanket 59
tre@@ 59
fli@@ 59
skier 59
ned 59
sun@@ 59
cam@@ 59
ight 59
items 59
com@@ 59
onlookers 59
ge 59
skateboarding 59
staring 59
da@@ 59
es@@ 58
j@@ 58
balloon 58
bri@@ 58
meal 58
ely 58
pile 58
bikini 58
lawn 58
railing 58
audience 58
bicycles 58
giving 58
ser@@ 58
empty 58
3 58
ge@@ 58
desk 58
ga@@ 57
leaps 57
dri@@ 57
happy 57
hi@@ 57
ke@@ 57
ial 57
drinks 57
military 57
str@@ 57
gets 57
hot 57
ste@@ 56
bi@@ 56
ans 56
sliding 56
country 56
gathering 56
bird 56
gi@@ 56
display 56
tes 56
ni@@ 56
ats 56
end 56
par@@ 56
ent 56
ach 56
sports 56
vegetables 56
pointing 56
signs 56
class 55
do 55
win@@ 55
wedding 55
bowl 55
facing 55
stop 55
bs 55
ap@@ 55
ele@@ 55
pil@@ 55
pet 55
lar 55
cut 55
sn@@ 55
feet 55
streets 55
chasing 55
sort 55
biker 55
before 55
competing 55
um 54
crou@@ 54
ity 54
fla@@ 54
platform 54
blo@@ 54
cyclist 54
huge 54
pes 54
helmets 54
id 54
ear 54
me 54
speaking 54
mask 54
basket 54
silver 53
bride 53
ol@@ 53
row 53
tries 53
lights 53
back@@ 53
pass 53
match 53
surfing 53
na@@ 53
classroom 53
ns 53
teams 53
purse 52
climbs 52
father 52
ver@@ 52
seen 52
bur@@ 52
sticks 52
sts 52
ci@@ 52
traditional 52
ski 52
waits 52
sings 52
surfboard 52
place 52
marathon 52
qu@@ 51
fighting 51
lar@@ 51
ars 51
pat@@ 51
urban 51
kissing 51
counter 51
ad 51
ring 51
screen 51
shed 51
fe@@ 51
gold 51
animal 51
fin@@ 51
musicians 51
ler 50
stroller 50
per 50
sm@@ 50
break 50
wheel@@ 50
sea@@ 50
ce@@ 50
ill 50
spe@@ 50
same 50
fo@@ 50
wer 50
town 50
ops 50
sel@@ 50
females 50
spo@@ 49
fac@@ 49
walkway 49
site 49
hole 49
shoulder 49
lap 49
kneeling 49
stor@@ 49
diving 49
ne@@ 49
sunset 49
sta@@ 49
ite 49
ban@@ 49
throw 49
runner 49
writing 49
skiing 49
ence 48
talk 48
waving 48
hel@@ 48
blowing 48
scooter 48
je@@ 48
bald 48
sho@@ 48
christmas 48
sed 48
ters 48
bor@@ 48
business 48
attempting 48
violin 48
tables 47
cro@@ 47
ary 47
overlooking 47
made 47
dd@@ 47
ie 47
ges 47
ben@@ 47
pon@@ 47
course 47
wear 47
outfits 47
stra@@ 47
ff@@ 47
mer@@ 47
eat 47
tran@@ 46
blond-haired 46
bubbles 46
gg@@ 46
smo@@ 46
wel@@ 46
says 46
artist 46
celebr@@ 46
officer 46
mirror 46
ist 46
ve@@ 46
all@@ 46
pl@@ 46
giant 45
rain@@ 45
bea@@ 45
balloons 45
fixing 45
fen@@ 45
cafe 45
chinese 45
ging 45
mon@@ 45
ft 45
man@@ 45
fully 45
base 45
life 45
us 45
close 45
der@@ 44
alone 44
swim 44
rolling 44
faces 44
teenage 44
brunette 44
helping 44
ton 44
wheel 44
plate 44
leg 44
collar 44
foreground 44
gym 44
py 44
leather 44
x@@ 44
umbrellas 44
skate 44
van 43
electric 43
mud 43
asleep 43
col@@ 43
ctor 43
enjoy 43
comple@@ 43
sur@@ 43
ess 43
clown 43
legs 43
brightly 43
meat 43
gh@@ 43
bra@@ 43
dancers 43
arm@@ 43
d-@@ 43
ny 43
cts 43
ment 43
oc@@ 43
headphones 43
play@@ 42
washing 42
lan@@ 42
squ@@ 42
sandals 42
hood 42
golf 42
ph@@ 42
cr@@ 42
coo@@ 42
among 42
swings 42
makes 42
officers 42
office 42
ders 42
ver 42
falling 42
stadium 42
passing 42
star@@ 42
ty 42
wears 42
multicolored 41
goal 41
dark-haired 41
phones 41
pped 41
held 41
dirty 41
church 41
cha@@ 41
friend 41
toys 41
ven@@ 41
; 41
balls 41
cy 41
up@@ 41
barefoot 41
av@@ 41
hiking 41
musical 41
heads 41
y-@@ 41
photographer 41
doorway 41
est 41
ward 41
sses 41
males 40
singer 40
reaching 40
ber@@ 40
key 40
land 40
drawing 40
video 40
spee@@ 40
flip 40
leash 40
laptop 40
accordion 40
aving 40
throws 40
canoe 40
picking 40
traffic 40
cloth 40
lif@@ 40
stu@@ 39
shi@@ 39
below 39
she@@ 39
t-@@ 39
ven 39
cting 39
work@@ 39
tro@@ 39
ent@@ 39
tops 39
move 39
high@@ 39
vie@@ 39
flu@@ 39
pair 39
shallow 39
members 39
mes 39
relaxing 39
daughter 39
performance 39
follo@@ 39
digging 39
well 39
read 38
ou@@ 38
catching 38
tunnel 38
moving 38
hugging 38
atop 38
shovel 38
pit@@ 38
ies 38
catches 38
lin@@ 38
slee@@ 38
ssing 38
wal@@ 38
gives 38
cat 38
microscope 38
square 38
passes 38
hal@@ 38
prote@@ 38
ise 38
foot 38
ct 38
pos@@ 38
bicyclist 38
hair@@ 38
bath@@ 38
her@@ 38
tack@@ 38
obser@@ 37
tattoo 37
sweeping 37
resting 37
pond 37
prepare 37
lab 37
sleeps 37
turn 37
kick 37
medi@@ 37
shows 37
sled 37
pup@@ 37
garden 37
oun@@ 37
climb 37
lone 37
cat@@ 37
paved 37
sw@@ 37
asi@@ 37
fun 37
deep 37
bat 37
chef 37
out@@ 37
drum 37
clo@@ 37
wrest@@ 37
robe 37
sin@@ 37
leaping 37
stunt 37
flies 37
bun@@ 36
bow 36
hose 36
part 36
sculpture 36
individuals 36
cor@@ 36
boar@@ 36
trunks 36
desert 36
karate 36
gr@@ 36
colle@@ 36
pot 36
ered 36
lots 36
bly 36
&apos; 36
bow@@ 36
beige 36
hoodie 36
doors 36
splashing 36
upside 36
cold 36
ar 36
conversing 36
pin@@ 36
ner 36
ang@@ 36
ire 36
ard 36
teeth 36
boun@@ 36
tatto@@ 36
coats 36
photograph 36
here 36
cyclists 36
ght 36
tr@@ 35
lers 35
jogging 35
ill@@ 35
ming 35
how 35
wrestling 35
il 35
customers 35
these 35
ness 35
pier 35
telescope 35
closed 35
round 35
formal 35
new@@ 35
gun 35
points 35
underneath 35
tire 35
ing@@ 35
block 35
plants 35
gate 34
local 34
oo@@ 34
sol@@ 34
mat 34
cane 34
ills 34
opposing 34
tor@@ 34
themselves 34
project 34
roller 34
without 34
shoulders 34
swimm@@ 34
pri@@ 34
ear@@ 34
carnival 34
cking 34
eless 34
als 34
ther 34
dances 34
hiker 34
dro@@ 34
ump@@ 34
excit@@ 34
waters 34
chi@@ 34
including 34
stre@@ 34
ering 34
shoe 34
kers 34
circle 33
refle@@ 33
hot@@ 33
scen@@ 33
crosswalk 33
inten@@ 33
dark@@ 33
straw 33
eng@@ 33
sk 33
crying 33
sco@@ 33
wr@@ 33
pulled 33
hammer 33
loa@@ 33
infant 33
wooded 33
mural 33
wor@@ 33
dinner 33
fight 33
tricks 33
trampoline 33
makeup 33
matching 33
rela@@ 33
racket 33
em 33
roller@@ 33
pe 33
the@@ 33
taken 33
produce 33
runners 33
stuffed 32
so 32
ken 32
driver 32
picnic 32
gymnast 32
covering 32
booth 32
trave@@ 32
rest 32
seat 32
ure 32
loun@@ 32
ski@@ 32
padd@@ 32
sewing 32
ures 32
books 32
cted 32
nose 32
dol@@ 32
boo@@ 32
ents 32
ction 32
tea@@ 32
bicyclists 32
athlete 32
form@@ 32
trash 32
opening 32
hoop 32
snowboar@@ 32
long-slee@@ 32
iti@@ 32
4 32
attempts 32
iz@@ 32
iting 32
os 32
performer 32
surface 32
lays 31
boxes 31
blouse 31
himself 31
skis 31
hikers 31
sandy 31
softball 31
down@@ 31
chases 31
cow 31
ham@@ 31
case 31
lift 31
hom@@ 31
goes 31
center 31
coun@@ 31
bever@@ 31
slope 31
mor@@ 31
tin@@ 31
ines 31
balcony 31
itting 31
teenagers 31
pushes 31
ized 31
fur@@ 31
lunch 31
help 31
pedestrians 31
test 31
fe 31
kaya@@ 31
style 31
om 31
third 31
oriental 31
cheerleaders 31
sem@@ 31
air@@ 31
ger@@ 31
photograph@@ 31
pitcher 31
not 30
staircase 30
puts 30
log 30
seven 30
fro@@ 30
ct@@ 30
tub 30
tly 30
indoor 30
sen@@ 30
device 30
pen@@ 30
brush 30
partment 30
bent 30
ires 30
club 30
wed 30
pulls 30
stret@@ 30
ati@@ 30
tle 30
th 30
neck 30
skat@@ 30
tele@@ 30
deck 30
ol 30
mate 30
gest@@ 30
thers 30
speaks 30
rollerbla@@ 30
inspec@@ 30
-haired 30
kind 30
tted 29
sprink@@ 29
ctive 29
gaz@@ 29
ined 29
overalls 29
rub@@ 29
evening 29
boats 29
wetsuit 29
oned 29
coa@@ 29
kn@@ 29
decor@@ 29
heavy 29
num@@ 29
pit 29
han@@ 29
gentlemen 29
farm@@ 29
min@@ 29
enjoys 29
vers 29
gar@@ 29
see 29
eu@@ 29
swims 29
drives 29
fil@@ 29
shaking 29
1@@ 29
festival 29
nap 29
tion 29
ep 29
por@@ 29
char@@ 29
fly 29
grocery 29
fallen 29
ils 29
sig@@ 29
marching 29
im@@ 29
dancer 29
ki@@ 29
sheet 28
pouring 28
approa@@ 28
kayak 28
nice 28
jean 28
wea@@ 28
kicks 28
arr@@ 28
chal@@ 28
pers 28
iling 28
ship 28
red-haired 28
porch 28
repa@@ 28
brown-haired 28
puddle 28
protective 28
vis@@ 28
acks 28
lies 28
type 28
stream 28
spla@@ 28
grou@@ 28
tracks 28
khaki 28
garb 28
fingers 28
headed 28
waterfall 28
wrapped 28
cloudy 28
tow@@ 28
pur@@ 28
ble@@ 28
hangs 28
golden 28
shaving 28
robes 28
grin@@ 28
fer@@ 28
list@@ 28
foreign 28
steep 28
shing 28
ue 28
cer@@ 28
native 28
clear 28
laundry 28
teenager 28
poles 27
cand@@ 27
sale 27
son@@ 27
ledge 27
paddling 27
spar@@ 27
shoveling 27
scar@@ 27
fr@@ 27
reaches 27
camer@@ 27
try 27
ital 27
bread 27
luggage 27
moves 27
stle 27
eye 27
blocks 27
red-hair 27
shop@@ 27
ag@@ 27
ful 27
loo@@ 27
saxophone 27
birds 27
policem@@ 27
chase 27
ul@@ 27
checking 27
opposite 27
attached 27
uring 27
palm 27
spi@@ 27
backyard 27
sea 27
tou@@ 27
put 27
arena 27
pol@@ 27
fair 27
ckets 27
shooting 27
podium 27
soldiers 27
piano 27
colors 27
side@@ 27
ily 27
glo@@ 27
papers 27
airplane 27
wil@@ 26
goalie 26
black@@ 26
inflatable 26
swor@@ 26
ligh@@ 26
mound 26
clean 26
denim 26
od@@ 26
fun@@ 26
curb 26
strol@@ 26
saw 26
din@@ 26
bot@@ 26
drum@@ 26
discu@@ 26
jump@@ 26
tter@@ 26
emer@@ 26
wine 26
off@@ 26
ong@@ 26
tongue 26
squat@@ 26
string 26
wheelchair 26
arrow 26
ant 26
spra@@ 26
soldier 26
laugh 26
ages 26
rack 26
balancing 26
windows 26
cones 26
kiss 26
camouflage 26
poster 26
neck@@ 26
pavement 26
skirts 26
image 26
color@@ 26
recor@@ 26
fu@@ 26
use 26
polo 26
craf@@ 26
pipe 26
hula 26
hol@@ 26
rugby 26
tractor 25
tory 25
happily 25
courtyard 25
eats 25
dire@@ 25
mem@@ 25
our 25
shade 25
bikers 25
don@@ 25
frame 25
pli@@ 25
swimsuit 25
la 25
fre@@ 25
rib@@ 25
ance 25
tools 25
ek 25
pain@@ 25
railroad 25
ot 25
5 25
tar@@ 25
fall 25
walls 25
vic@@ 25
keyboard 25
student 25
juggling 25
bal@@ 25
gen@@ 25
stool 25
floating 25
musician 25
compe@@ 25
ion 25
pr@@ 25
ange 25
buying 25
vac@@ 25
hor@@ 25
step 25
shado@@ 25
pet@@ 25
scre@@ 25
york 25
orn@@ 25
curly 25
lam@@ 25
cher 25
laughs 25
fresh 25
fast 25
fabric 25
raft 25
skinned 25
stern 25
fans 25
cho@@ 25
motorcycles 25
married 25
spea@@ 25
recei@@ 25
bottom 25
enterta@@ 25
flight 25
u 25
professional 25
riders 25
sport 25
dle 25
sell 25
skates 25
ail 25
mode@@ 25
you 24
backwards 24
sup@@ 24
gh 24
plane 24
ths 24
color 24
guard 24
-covered 24
oper@@ 24
scaffolding 24
carriage 24
hou@@ 24
surf 24
cheering 24
prin@@ 24
sized 24
p-@@ 24
plant 24
multiple 24
bubble 24
lu@@ 24
red@@ 24
tail 24
floral 24
ms 24
closeup 24
ind 24
shel@@ 24
under@@ 24
ced 24
living 24
either 24
acoustic 24
garbage 24
bucking 24
wra@@ 24
marketplace 24
tube 24
and@@ 24
sters 24
casu@@ 24
groom 24
fee@@ 24
stretched 24
appear 24
hurdle 24
socks 24
touching 24
hill@@ 24
spray 24
suspended 24
sof@@ 24
knee 24
ka 24
pun@@ 24
lines 24
ards 24
shown 24
bandanna 24
plan@@ 24
ys 24
goods 24
top@@ 24
santa 24
pajamas 24
jerseys 24
lon@@ 24
cl@@ 24
bla@@ 24
micro@@ 24
1 24
stove 23
plaza 23
ple 23
of@@ 23
super@@ 23
advertisement 23
kneels 23
most 23
magazine 23
fenced 23
dining 23
raised 23
underwater 23
direction 23
thum@@ 23
escalator 23
team@@ 23
climber 23
kne@@ 23
ations 23
chop@@ 23
animals 23
bank 23
flow@@ 23
hooded 23
welding 23
caught 23
sty 23
check@@ 23
fan@@ 23
long-haired 23
barre@@ 23
bit 23
bir@@ 23
ff 23
japanese 23
dy 23
backpacks 23
serving 23
acting 23
airport 23
dry 23
patter@@ 23
aring 23
sheep 23
german 23
pher@@ 23
dou@@ 23
rac@@ 23
war@@ 23
surf@@ 23
paints 23
hay 23
landscape 23
towel 23
invol@@ 23
au@@ 23
pack@@ 23
vely 23
ave 23
fir@@ 23
ears 23
adverti@@ 23
self 23
lit@@ 23
fini@@ 23
chain 23
assi@@ 23
sporting 23
horse@@ 23
operating 22
neon 22
conver@@ 22
grilling 22
0 22
things 22
fighters 22
hea@@ 22
obstacle 22
vehicles 22
ig@@ 22
summer 22
mom 22
brushing 22
gging 22
money 22
candy 22
gravel 22
trum@@ 22
fisher@@ 22
seems 22
ises 22
ffy 22
boards 22
attemp@@ 22
contro@@ 22
stop@@ 22
participating 22
amusement 22
bending 22
stic@@ 22
action 22
eg@@ 22
individual 22
ssion 22
outh 22
bling 22
post 22
shaped 22
checkered 22
thrown 22
! 22
chers 22
night@@ 22
orchestra 22
teacher 22
mer 22
ot@@ 22
beg@@ 22
referee 22
caucasian 22
decorated 22
oed 22
athletic 22
desc@@ 22
sted 22
dding 22
examining 22
muzz@@ 22
sailing 22
store@@ 22
bmx 22
ropes 21
am 21
mach@@ 21
barbecue 21
foot@@ 21
atv 21
brea@@ 21
gro@@ 21
map 21
illing 21
some@@ 21
ath 21
sweat@@ 21
stic 21
bles 21
print 21
zer 21
irs 21
passengers 21
( 21
rowing 21
vision 21
peace 21
whe@@ 21
cell@@ 21
neigh@@ 21
ways 21
scuba 21
rin@@ 21
rests 21
turning 21
med 21
fore@@ 21
sub@@ 21
good 21
balan@@ 21
pen 21
hun@@ 21
muddy 21
only 21
possi@@ 21
laun@@ 21
practice 21
tourists 21
hawk 21
studio 21
presentation 21
photographs 21
shor@@ 21
sharing 21
sticking 21
t-shirts 21
wagon 21
bul@@ 21
sets 21
cross@@ 21
yh@@ 21
opponent 21
jum@@ 21
ump 21
0@@ 21
exerc@@ 21
surroun@@ 21
fet@@ 21
keys 21
racer 21
ino@@ 20
gers 20
bill@@ 20
tal@@ 20
xing 20
fl@@ 20
hall 20
gas 20
pull 20
snowboard 20
come 20
garage 20
but 20
clu@@ 20
bou@@ 20
sle@@ 20
dge 20
fruits 20
tom@@ 20
act 20
) 20
land@@ 20
pon 20
tile 20
sandwich 20
ound 20
motocross 20
chan@@ 20
stones 20
figure 20
jungle 20
stache 20
navy 20
we 20
eth@@ 20
patio 20
rol@@ 20
rough 20
skateboards 20
stair@@ 20
tex@@ 20
ina 20
guit@@ 20
boxing 20
corn 20
uniform@@ 19
tru@@ 19
woo@@ 19
intersection 19
discussion 19
stru@@ 19
baskets 19
routine 19
rier 19
gle 19
guitar@@ 19
exhi@@ 19
sci@@ 19
observe 19
compan@@ 19
ghtly 19
clou@@ 19
parti@@ 19
shoot 19
pra@@ 19
participat@@ 19
cape 19
dune 19
spin@@ 19
apple 19
eling 19
bon@@ 19
mounta@@ 19
ption 19
ctron@@ 19
cricket 19
ur 19
baller@@ 19
don 19
aqu@@ 19
haired 19
met@@ 19
vend@@ 19
mil@@ 19
ja@@ 19
produ@@ 19
para@@ 19
ram@@ 19
mea@@ 18
tails 18
spon@@ 18
ther@@ 18
conta@@ 18
dig@@ 18
bon 18
cri@@ 18
pins 18
container 18
monit@@ 18
mel@@ 18
nets 18
exam@@ 18
atten@@ 18
condu@@ 18
pie@@ 18
bran@@ 18
fal@@ 18
cow@@ 18
live 18
position 18
choir 18
ement 18
v 18
cket 18
lean@@ 18
dy@@ 18
ssi@@ 18
ants 18
tem@@ 18
wns 18
ley 17
ets 17
balance 17
bam@@ 17
nu@@ 17
derby 17
dreadlocks 17
lap@@ 17
fle@@ 17
ha@@ 17
ane 17
ssy 17
buil@@ 17
employ@@ 17
da 17
til@@ 17
monstr@@ 17
space 17
mini@@ 17
ze 17
mobile 17
afri@@ 17
break@@ 17
rural 17
legg@@ 17
vege@@ 17
tan@@ 17
wash@@ 17
plu@@ 17
ree 17
cloth@@ 17
sculp@@ 17
cel@@ 17
lace 17
nic 17
moment 17
dom@@ 17
tat@@ 17
cau@@ 17
crow@@ 17
kic@@ 17
stand@@ 17
touri@@ 17
circu@@ 17
embra@@ 17
jockey 17
ese 17
sand@@ 17
iture 17
uni@@ 17
end@@ 16
slo@@ 16
comm@@ 16
chefs 16
ey@@ 16
sto@@ 16
ands 16
cli@@ 16
parents 16
icyc@@ 16
&amp; 16
stat@@ 16
cle@@ 16
rou@@ 16
cru@@ 16
exper@@ 16
ature 16
sou@@ 16
heav@@ 16
gymna@@ 16
compu@@ 16
pizza 16
cas@@ 16
aid 16
mix@@ 16
blan@@ 16
chin@@ 16
instru@@ 16
swim@@ 16
qui@@ 16
zz@@ 16
ess@@ 16
stom@@ 16
gym@@ 16
moder@@ 16
ty@@ 16
box@@ 16
pigeons 16
swe@@ 16
obje@@ 16
news@@ 16
passer@@ 16
&apos;@@ 16
ites 16
sty@@ 16
thou@@ 15
shov@@ 15
3@@ 15
ob@@ 15
phant 15
stea@@ 15
athle@@ 15
directions 15
ties 15
yel@@ 15
figh@@ 15
ee 15
ray@@ 15
gri@@ 15
sal@@ 15
taxi 15
ative 15
rais@@ 15
terrain 15
sor@@ 15
ture 15
proje@@ 15
aved 15
aut@@ 15
arti@@ 15
engag@@ 15
spor@@ 15
aller 15
cheerlea@@ 15
americ@@ 15
aged 15
photos 15
cit@@ 15
as@@ 15
patient 15
cyc@@ 15
ggles 15
borne 15
sent 15
.@@ 15
village 15
offic@@ 15
able 15
indi@@ 15
band@@ 15
perform@@ 15
gli@@ 14
nap@@ 14
part@@ 14
vol@@ 14
sau@@ 14
custom@@ 14
hap@@ 14
mit@@ 14
cher@@ 14
gol@@ 14
sion 14
tiv@@ 14
cade 14
bru@@ 14
ple@@ 14
trun@@ 14
kets 14
uns 14
machines 14
colli@@ 14
expre@@ 14
acti@@ 14
soc@@ 14
cture 14
wat@@ 14
cray@@ 14
enter@@ 14
cool 14
passen@@ 14
men@@ 14
vie 14
id@@ 14
kit@@ 14
point 14
grand@@ 14
admir@@ 14
mou@@ 13
arri@@ 13
enti@@ 13
tropi@@ 13
four@@ 13
val 13
mex@@ 13
mo 13
nature 13
joh@@ 13
iner 13
bris 13
hoo@@ 13
attra@@ 13
let 13
ca 13
less 13
stance 13
tech@@ 13
cs 13
attention 13
que@@ 13
compet@@ 13
form 13
ator 13
af@@ 13
carri@@ 13
ti 13
run@@ 13
grocer@@ 13
tage 13
lanter@@ 13
swee@@ 13
ade 13
2@@ 13
g-@@ 13
simi@@ 13
ut@@ 13
8 13
accom@@ 13
ack@@ 13
shir@@ 13
navig@@ 13
lacrosse 13
ballet 12
mcdonal@@ 12
rail@@ 12
wards 12
scoot@@ 12
onal 12
hur@@ 12
ere 12
iment 12
bicyc@@ 12
haw@@ 12
cers 12
barri@@ 12
ym@@ 12
fri@@ 12
ron@@ 12
un 12
texas 12
poin@@ 12
organ@@ 12
port 12
den 12
bloc@@ 12
umin@@ 12
parachu@@ 12
en-@@ 12
practi@@ 12
let@@ 12
sar@@ 12
visible 12
bron@@ 12
olym@@ 12
atta@@ 12
ral 12
monument 12
tape 12
6 12
ton@@ 12
yoga 12
5@@ 12
ork 11
camping 11
magazines 11
classi@@ 11
assem@@ 11
regi@@ 11
ile 11
mid@@ 11
constru@@ 11
ka@@ 11
suspend@@ 11
banjo 11
rapi@@ 11
jet 11
graph@@ 11
dj 11
syn@@ 11
ass@@ 11
quarter@@ 11
ren@@ 11
inc@@ 11
tricycle 11
audit@@ 11
orium 11
pass@@ 11
pir@@ 11
vit@@ 11
kha@@ 11
contra@@ 11
parachute 11
cano@@ 11
retrie@@ 11
foo@@ 11
turquoise 11
are@@ 11
ddle 11
scouts 11
salon 11
viol@@ 11
scu@@ 11
dor@@ 11
cage 11
bli@@ 11
roun@@ 11
tures 11
dress@@ 11
olympi@@ 11
bers 11
couples 11
cti@@ 11
prepar@@ 11
2012 11
todd@@ 10
thing 10
ong 10
bre@@ 10
branches 10
appar@@ 10
dent 10
sons 10
ners 10
vari@@ 10
ening 10
multi@@ 10
stac@@ 10
ples 10
ato@@ 10
jack@@ 10
silhouette 10
dar@@ 10
gue 10
lem@@ 10
past@@ 10
rafting 10
nel 10
pin 10
conc@@ 10
entr@@ 10
scaff@@ 10
portrait 10
va@@ 10
gy@@ 10
pier@@ 10
ried 10
le-@@ 10
igh@@ 10
cin@@ 10
mul@@ 10
dies 10
our@@ 10
laborat@@ 10
oranges 10
floo@@ 10
9@@ 10
ima@@ 10
bouquet 10
# 10
ili@@ 10
ari@@ 10
religi@@ 10
xy@@ 10
scienti@@ 10
fix@@ 10
sy@@ 9
climb@@ 9
bes 9
lou@@ 9
types 9
kilt 9
tel@@ 9
apr@@ 9
ori@@ 9
service 9
camp 9
section 9
cab@@ 9
ney 9
horizon 9
ddy 9
flan@@ 9
sure 9
fs 9
spir@@ 9
ctions 9
hind 9
wn@@ 9
tourn@@ 9
fort 9
ouse 9
diti@@ 9
z 9
mag@@ 9
mono@@ 9
dan@@ 9
turban 9
pain 9
moto@@ 9
i-@@ 9
sprin@@ 9
oth@@ 9
termin@@ 9
4@@ 9
tun@@ 9
ore@@ 9
gie 9
vo@@ 9
unique 9
ght@@ 9
fle 9
bare@@ 8
forest@@ 8
ave@@ 8
lin 8
positi@@ 8
gon 8
ues 8
hau@@ 8
kil@@ 8
stun@@ 8
mannequ@@ 8
skin@@ 8
dio 8
yer 8
inform@@ 8
dium 8
cul@@ 8
vel 8
ket 8
sti@@ 8
acci@@ 8
ounta@@ 8
gir@@ 8
identi@@ 8
ettes 8
sa 8
ide 8
rock@@ 8
sil@@ 8
mb@@ 8
pt 8
gla@@ 8
s-@@ 8
pel@@ 8
pour@@ 8
raf@@ 8
grand 8
dal@@ 8
silhou@@ 8
rece@@ 8
del@@ 8
shou@@ 8
non 8
commercial 8
figures 8
tal 8
acrobati@@ 8
stant 8
tour 8
tic 8
poli@@ 8
som@@ 8
py@@ 8
- 8
graff@@ 8
int 8
tro 7
main 7
tique 7
barbe@@ 7
ols 7
ones 7
trot@@ 7
rest@@ 7
ggling 7
ition 7
with@@ 7
9 7
pie 7
envir@@ 7
divers 7
zone 7
sit@@ 7
rollers 7
inging 7
dir@@ 7
ey 7
die 7
ends 7
pige@@ 7
busin@@ 7
gal@@ 7
cigar@@ 7
electri@@ 7
ments 7
ace 7
ste 7
sca@@ 7
quet 7
examine 7
nat@@ 7
shoo@@ 7
trans@@ 7
? 7
spect@@ 7
ser 7
exp@@ 7
occu@@ 7
chil@@ 7
fron@@ 7
festi@@ 7
sac@@ 7
ales 7
bikin@@ 7
pou@@ 7
dess@@ 7
xe 7
7 7
8@@ 7
dre@@ 7
sum@@ 7
itu@@ 7
dec@@ 7
6@@ 7
professi@@ 7
cover@@ 7
pul@@ 6
amu@@ 6
walk@@ 6
autom@@ 6
cop@@ 6
proba@@ 6
labor@@ 6
fer 6
fam@@ 6
stati@@ 6
red-@@ 6
inf@@ 6
tons 6
infla@@ 6
aiss@@ 6
gues 6
anti@@ 6
sy 6
cycles 6
personn@@ 6
f-@@ 6
ston 6
profess@@ 6
sno@@ 6
instal@@ 6
tor 6
rea@@ 6
ole 6
glaci@@ 6
cent@@ 6
tau@@ 6
scape 6
magni@@ 6
cer 6
appe@@ 6
sleep 6
dos 6
hip@@ 6
quad 6
fish@@ 6
bons 6
re-@@ 6
cou@@ 6
scope 6
inclu@@ 6
util@@ 6
lun@@ 6
skateboar@@ 6
cial 6
kio@@ 6
portable 6
fit 6
anci@@ 6
ami 6
atter@@ 6
refer@@ 6
cem@@ 6
wet@@ 6
wit@@ 6
fra@@ 6
cham@@ 6
chu@@ 6
near@@ 6
ach@@ 6
universit@@ 6
pom@@ 6
sage 5
oth 5
rem@@ 5
make@@ 5
cheer@@ 5
unes 5
tongs 5
cent 5
youn@@ 5
pau@@ 5
combat 5
mirro@@ 5
ici@@ 5
yo@@ 5
cav@@ 5
ffe@@ 5
key@@ 5
mail@@ 5
read@@ 5
chat 5
mic@@ 5
na 5
marches 5
pai@@ 5
bee 5
cir@@ 5
appro@@ 5
pedestri@@ 5
assor@@ 5
ron 5
basket@@ 5
iles 5
saxoph@@ 5
ball@@ 5
attentiv@@ 5
ado@@ 5
fran@@ 5
attendant 5
tend 5
strum@@ 5
rer 5
tamb@@ 5
pied 5
alls 5
rist@@ 5
acro@@ 5
ster@@ 5
gent 5
prom@@ 5
scou@@ 5
une 5
thro@@ 5
them@@ 5
jap@@ 5
im 5
ket@@ 5
emp@@ 5
grim@@ 5
trou@@ 5
va 5
chant 5
pagne 5
lasso 5
middle-@@ 5
bol 5
ird 4
gam@@ 4
kar@@ 4
q 4
plat@@ 4
trom@@ 4
iller 4
kitch@@ 4
fig@@ 4
pant 4
moti@@ 4
partici@@ 4
nique 4
bear@@ 4
nant 4
ements 4
jun@@ 4
sement 4
ental 4
restau@@ 4
pal@@ 4
peop@@ 4
guitari@@ 4
long-@@ 4
equip@@ 4
org@@ 4
pati@@ 4
goo@@ 4
gage 4
fic 4
den@@ 4
roses 4
descend 4
prof@@ 4
lation 4
dau@@ 4
ghters 4
ier 4
dings 4
enjo@@ 4
20@@ 4
file 4
lo 4
fru@@ 4
caf@@ 4
lass@@ 4
tax@@ 4
las 4
artif@@ 4
ki 4
dor 4
san@@ 4
sque 4
sent@@ 4
velo@@ 4
enf@@ 4
mani@@ 4
proxim@@ 4
sant 4
ign@@ 4
und 4
balcon@@ 4
ebr@@ 4
parasol 4
chem@@ 4
just@@ 3
yant 3
mob@@ 3
vent 3
re 3
12 3
anim@@ 3
ica@@ 3
route 3
situ@@ 3
chev@@ 3
flot@@ 3
tting 3
sai@@ 3
jo 3
ro 3
chor@@ 3
los 3
adul@@ 3
allow 3
oran@@ 3
mom@@ 3
aves 3
cles 3
adolescent 3
iff@@ 3
ggage 3
onloo@@ 3
attend 3
tant 3
zed 3
distri@@ 3
ette 3
graffit@@ 3
abo@@ 3
portra@@ 3
windo@@ 3
tiss@@ 3
specta@@ 3
mb 3
horiz@@ 3
audi@@ 3
vide 3
: 3
tout 3
backp@@ 3
quel@@ 3
tball 3
iser 3
eld 3
ambu@@ 3
lance 3
salu@@ 3
mas 3
appla@@ 3
spen@@ 3
door@@ 3
du 3
bit@@ 3
gages 3
bm@@ 3
aga@@ 3
mets 3
long@@ 3
vice 3
brown@@ 3
lad@@ 3
tend@@ 3
rap@@ 3
pause 3
tt 3
mari@@ 3
ba 3
bout 3
beauti@@ 3
ots 3
cycle 3
diver@@ 3
lev@@ 3
quar@@ 3
blonds 3
suspen@@ 3
regar@@ 2
iers 2
plan 2
circuit 2
align@@ 2
vin 2
orig@@ 2
bonnet 2
phon@@ 2
aff@@ 2
diff@@ 2
class@@ 2
fris@@ 2
lent 2
quat@@ 2
tre 2
dame 2
incen@@ 2
trav@@ 2
percu@@ 2
ux 2
erie 2
traverse 2
ques 2
jama 2
con 2
jam@@ 2
gon@@ 2
ga 2
teet@@ 2
ir 2
met 2
mal 2
ret 2
tte 2
vous 2
joy@@ 2
pris 2
portant 2
stuff@@ 2
ath@@ 2
scaffol@@ 2
pizz@@ 2
aux 2
que 2
pour 2
cle 2
pays 2
tabl@@ 2
journal 2
sweat 2
close@@ 2
,@@ 2
rine 2
participant 2
jou@@ 2
shoul@@ 2
rose 2
veral 2
even@@ 2
barb@@ 2
ena 2
oce@@ 2
iss@@ 2
age@@ 2
docum@@ 2
comb@@ 2
ph 2
ensemble 2
blond-@@ 2
isc@@ 2
lons 2
val@@ 2
chur@@ 2
mot@@ 2
dread@@ 2
entre@@ 2
% 2
violet 2
-po@@ 2
ell@@ 2
ordin@@ 2
ful@@ 2
locks 2
ai 2
ta 2
plaque 2
gent@@ 2
cad@@ 2
lac 2
ei@@ 2
photo@@ 2
bandan@@ 2
ouvre 2
cue 2
passer 2
plom@@ 2
ang 2
escal@@ 2
gant 2
aud@@ 2
ale 2
grat@@ 2
ign 2
spec@@ 1
lage 1
appr@@ 1
ticu@@ 1
courts 1
rying 1
combin@@ 1
isi@@ 1
mains 1
nav@@ 1
sous-@@ 1
fabri@@ 1
wel 1
erole 1
bas 1
etting 1
teen@@ 1
spectat@@ 1
adolesc@@ 1
ghter 1
imm@@ 1
ille 1
alie 1
hors 1
vres 1
grave@@ 1
ou 1
footbal@@ 1
che 1
ne 1
inst@@ 1
au 1
quo@@ 1
court@@ 1
accordi@@ 1
peu@@ 1
public@@ 1
stes 1
agri@@ 1
urs 1
toboggan 1
brand@@ 1
bik@@ 1
res 1
flor@@ 1
sax@@ 1
sous 1
univer@@ 1
laugh@@ 1
deo 1
sav@@ 1
casque 1
oire 1
ballons 1
outf@@ 1
nu 1
sson 1
twe@@ 1
rent 1
colo@@ 1
esp@@ 1
volley 1
gars 1
attractions 1
bass@@ 1
lau@@ 1
again@@ 1
ours 1
pian@@ 1
crav@@ 1
passage 1
carton 1
ferm@@ 1
kaki 1
skate@@ 1
centre 1
vir@@ 1
ffect@@ 1
ope 1
loy@@ 1
mout@@ 1
pho@@ 1
ix 1
bask@@ 1
q@@ 1
oking 1
eur 1
milit@@ 1
rand@@ 1
eurs 1
shirt@@ 1
performan@@ 1
comp@@ 1
roll@@ 1
visi@@ 1
pav@@ 1
ban 1
grav@@ 1
enou@@ 1
enta@@ 1
nage 1
chemise 1
pap@@ 1
fai@@ 1
coupe 1
7@@ 1
dure 1
bub@@ 1
concre@@ 1
te-@@ 1
$ 1
brun@@ 1
bras 1
traver@@ 1
vert 1
caucasi@@ 1
reli@@ 1
dit 1
orient 1
pay@@ 1
articles 1
oph@@ 1
marine 1
nis 1
esc@@ 1
volle@@ 1
sole@@ 1
loin 1
fou@@ 1
jer@@ 1
mc@@ 1
esse 1
musi@@ 1
mp@@ 1
ait 1
exer@@ 1
fon@@ 1
din 1
smil@@ 1
protection 1
fume 1
doc@@ 1
ument 1
sac 1
onne 1
gne 1
fum@@ 1
journ@@ 1
za 1
donal@@ 1
arro@@ 1
par 1
yc@@ 1
adolescents 1
quette 1
verse 1
sch@@ 1
differ@@ 1
coin 1
tram@@ 1
cour@@ 1
midd@@ 1
asse 1
obstac@@ 1
seu@@ 1
concer@@ 1
auto@@ 1
tron@@ 1
leur 1
cuisine 1
= 1
sembl@@ 1
