a 49710
. 27642
in 15099
the 10959
on 8397
man 7927
is 7612
and 7389
of 6867
with 6179
woman 3976
, 3963
two 3877
are 3857
at 3258
to 3130
people 3121
an 3117
wearing 2623
young 2280
white 2223
shirt 2132
black 2003
his 1969
while 1947
blue 1871
men 1833
red 1767
sitting 1743
girl 1733
dog 1691
boy 1689
standing 1614
playing 1584
group 1552
street 1445
down 1407
walking 1378
her 1329
front 1306
one 1244
holding 1237
c@@ 1223
by 1124
y 1110
water 1084
ing 1079
e@@ 1072
three 1055
up 1013
a@@ 991
women 988
as 977
ed 960
looking 942
es 938
green 924
little 915
for 906
child 894
outside 871
in@@ 850
large 841
d 819
s 816
through 813
yellow 781
p@@ 773
children 768
ball 766
brown 766
person 753
i@@ 751
e 743
hat 728
from 728
their 725
o@@ 713
into 711
small 671
t 667
next 664
other 660
dressed 642
g@@ 641
out 639
some 625
over 611
d@@ 610
building 603
se@@ 601
s@@ 600
ers 598
t@@ 592
re@@ 588
riding 584
running 581
near 571
b@@ 568
m@@ 567
jacket 566
around 562
another 562
ro@@ 558
-@@ 538
field 536
st@@ 535
sidewalk 534
table 534
orange 524
crowd 521
ts 521
beach 520
de@@ 513
p 510
ra@@ 504
le 500
stands 498
mo@@ 498
sits 493
pink 493
jumping 491
en@@ 489
behind 489
co@@ 488
ding 485
la@@ 484
ds 480
er 475
stand 468
grass 468
bike 465
lo@@ 465
l@@ 463
background 460
snow 459
se 450
st 448
li@@ 447
city 447
le@@ 446
ting 445
pa@@ 444
&apos;s 444
asian 443
girls 441
air 439
top 437
player 429
f@@ 428
y@@ 426
looks 423
ma@@ 418
wall 417
k 416
at@@ 415
dogs 413
po@@ 409
pi@@ 408
dress 406
several 404
that 404
older 403
ho@@ 401
ch@@ 401
four 400
off 396
u@@ 395
camera 393
ri@@ 392
ce 391
ar@@ 391
hair 391
park 388
side 388
di@@ 385
v@@ 383
talking 382
lady 380
something 380
al 380
w 378
to@@ 378
boys 376
soccer 375
walks 371
along 370
guitar 367
l 367
working 365
food 364
play 362
un@@ 362
ly 361
together 361
th@@ 361
sh@@ 360
walk 355
smiling 353
cks 352
n@@ 349
it 347
k@@ 345
con@@ 345
ch 343
gray 343
game 340
picture 340
vi@@ 340
has 339
road 339
ck 339
c 339
am@@ 332
op@@ 332
plays 331
suit 330
il@@ 330
car 329
ur@@ 327
hand 327
old 326
ta@@ 326
wa@@ 326
h@@ 325
or 325
ve 324
ti@@ 324
holds 322
glasses 317
it@@ 317
head 316
pants 315
bench 314
face 313
ving 313
him 312
sit 311
its 311
do@@ 310
sp@@ 309
fa@@ 308
sc@@ 308
room 306
ge 306
shorts 304
stage 303
bo@@ 302
o 302
carrying 300
couple 299
baby 299
m 299
ground 298
tra@@ 296
w@@ 295
n 295
sh 294
gs 292
them 290
che@@ 288
bicycle 287
al@@ 284
lea@@ 284
&quot; 280
b 279
male 279
tree 279
race 279
er@@ 279
an@@ 279
pool 278
sho@@ 278
on@@ 278
back 277
ching 277
fi@@ 277
taking 275
ne@@ 274
day 274
rock 273
ca@@ 272
each 272
or@@ 269
way 267
doing 267
hi@@ 266
boat 266
watching 261
across 261
me@@ 260
guy 260
ps 259
jeans 259
dirt 259
there 259
area 258
ex@@ 255
ss 255
be 254
blond 252
ck@@ 251
si@@ 251
jumps 250
bu@@ 249
ys 249
band 248
hands 248
female 245
ter 245
coat 242
mi@@ 242
go@@ 241
performing 241
baseball 238
who 237
eating 236
col@@ 235
car@@ 235
ans 233
using 233
being 233
wing 232
striped 232
we@@ 231
mu@@ 231
ws 231
clo@@ 230
ci@@ 230
te@@ 229
football 229
sta@@ 228
sign 228
ir@@ 227
ol@@ 226
all 226
kids 225
watch 225
sha@@ 224
ki@@ 224
under 224
many 223
store 222
horse 222
ves 221
blo@@ 221
mouth 221
purple 221
he 220
sa@@ 219
long 217
this 216
bi@@ 214
be@@ 214
look 214
sand 213
chair 213
runs 212
tennis 212
ar 211
posing 211
reading 210
f 209
players 209
sunglasses 208
construction 208
ment 208
ons 206
ches 205
board 204
ces 204
um@@ 204
clothing 203
work 202
microphone 202
g 200
ba@@ 200
mountain 200
covered 199
toy 198
ocean 198
pe@@ 198
dark 198
basketball 198
ping 197
during 197
workers 197
de 196
line 196
ter@@ 196
middle 194
bar@@ 194
watches 194
ling 194
climbing 193
t-shirt 193
dancing 192
uniform 192
past 191
elderly 190
ded 190
ging 189
su@@ 188
restaurant 188
helmet 187
against 187
ks 186
train 185
team 185
window 183
king 182
bri@@ 181
rides 181
gi@@ 180
sto@@ 179
der 179
they 178
sk@@ 178
set 178
about 177
colored 176
ice 175
pe 175
cking 174
trees 174
wooden 173
five 173
et 173
having 173
waiting 173
outdoor 173
les 172
led 172
bag 172
ad@@ 170
light 170
very 170
gu@@ 170
swimming 169
getting 168
ght 167
floor 166
pu@@ 166
trying 165
ni@@ 165
truck 165
qu@@ 164
shirts 164
cu@@ 164
mar@@ 164
can@@ 164
for@@ 164
skateboard 163
colorful 163
so@@ 162
ats 162
cal 161
fli@@ 161
busy 160
ted 159
singing 159
en 159
hel@@ 159
fe@@ 159
ani@@ 159
fence 159
book 159
jump 157
hill 157
track 157
market 156
h 156
flo@@ 156
slee@@ 156
i 155
wn 155
cart 154
ke@@ 153
sti@@ 153
em@@ 153
over@@ 152
ls 151
ride 151
laying 150
inside 150
hats 149
ure 149
par@@ 148
high 148
ce@@ 148
bright 147
pre@@ 147
ut 147
ders 147
tan 146
no@@ 145
body 145
others 145
kitchen 145
ine 145
cap 145
offi@@ 145
cellphone 144
path 144
gar@@ 144
grassy 144
rea@@ 143
big 143
someone 143
war@@ 142
ul@@ 142
tur@@ 142
making 142
thro@@ 142
night 141
el@@ 141
bus 141
clothes 141
gh@@ 141
ru@@ 140
sin@@ 140
phone 140
takes 140
motorcycle 140
bro@@ 139
ying 139
te 139
umbrella 139
ating 138
dri@@ 138
towards 138
full 138
outfit 138
shop 138
ors 138
ele@@ 137
enjoying 137
brick 137
ff@@ 136
ssing 136
metal 135
cra@@ 135
skat@@ 135
ate 134
tri@@ 134
river 134
hea@@ 134
swing 134
piece 133
paper 133
ready 133
ph@@ 133
mat@@ 133
shes 132
stone 132
she 131
dra@@ 131
ther 130
z@@ 129
per@@ 129
tank 129
ten@@ 129
pro@@ 128
shing 128
ss@@ 127
ha@@ 127
open 126
ars 126
worker 126
sweater 126
trick 125
spe@@ 125
mon@@ 125
painting 124
above 124
cat@@ 124
stick 124
kne@@ 124
xing 124
cor@@ 124
back@@ 123
cha@@ 123
x@@ 123
lake 123
ac@@ 123
-haired 122
adults 122
american 122
going 122
gra@@ 122
music 121
na@@ 121
wi@@ 121
ved 121
r 121
hard 120
house 120
bal@@ 120
vest 120
snowy 120
ation 120
run 120
dance 120
surrounded 119
wave 119
lot 119
ning 119
shopping 119
sel@@ 118
ut@@ 118
head@@ 118
uniforms 118
onto 118
ep 118
like 117
outdoors 117
crowded 117
ched 117
dan@@ 117
fo@@ 116
photo 116
stri@@ 116
brea@@ 115
gro@@ 115
ger 115
backpack 115
beside 115
smiles 115
gear 115
kid 114
ble 114
cur@@ 113
fin@@ 113
pole 113
hockey 112
subway 112
african 112
squ@@ 112
ssi@@ 112
drinking 112
tu@@ 111
ver@@ 111
ke 111
family 111
all@@ 110
bridge 110
als 110
ste@@ 110
ft 110
flowers 110
yard 110
ct@@ 109
kes 109
toddler 109
fla@@ 109
age 109
stu@@ 108
guys 108
rope 108
art 108
fire 108
ction 108
gathered 108
au@@ 108
event 108
police 107
du@@ 107
arms 107
shoes 107
hanging 107
sur@@ 107
bra@@ 107
catch 106
away 106
ben@@ 106
ses 106
stra@@ 106
et@@ 106
ent 106
sun@@ 106
preparing 105
beautiful 105
cam@@ 105
els 105
us@@ 104
sand@@ 104
low 104
object 103
steps 103
sleeping 103
costume 103
jo@@ 103
2 103
leaning 103
man@@ 103
after 102
fishing 102
rin@@ 102
cer 102
attemp@@ 102
hand@@ 101
eling 101
machine 101
wel@@ 101
ery 100
app@@ 100
fol@@ 100
fountain 100
plaid 100
bar 100
gers 99
shirtless 99
motor@@ 99
x 99
lar 99
sing 99
stairs 99
ge@@ 99
wood 98
wor@@ 98
take 98
ster 98
cing 98
chairs 98
and@@ 97
arm 97
pp@@ 97
tro@@ 97
adult 97
ops 97
cers 97
ati@@ 97
fire@@ 96
rocks 96
pon@@ 95
roll@@ 95
sed 95
gre@@ 95
ant 94
selling 94
haired 94
cross 94
sunny 94
door 94
water@@ 94
graffiti 94
up@@ 94
j@@ 93
ct 93
does 93
end 93
glass 93
ir 93
forest 93
pol@@ 92
setting 92
cre@@ 92
pose 92
cyclist 92
parade 92
racing 92
ven@@ 91
tall 91
ran@@ 91
time 91
des 91
she@@ 90
el 90
putting 90
ral 90
get 90
both 90
corner 90
volleyball 90
dy 89
pushing 89
win@@ 89
kers 89
throwing 89
frisbee 89
scarf 89
view 89
pul@@ 88
figh@@ 88
pes 88
have 88
slide 88
ladies 88
drink 88
ns 88
between 88
mal 88
public 87
laughing 87
cle@@ 87
short 87
bl@@ 87
computer 87
instruments 86
flag 86
pla@@ 86
ges 86
ped 86
equipment 86
ga@@ 86
sting 86
ber 85
ker 85
fish 85
ard 85
bed 85
und 85
couch 85
shoul@@ 85
ned 85
where 85
prote@@ 85
pictures 85
bikes 85
tion 85
plastic 84
pat@@ 84
roller 84
phones 84
pping 84
im 84
snow@@ 84
cowboy 84
din@@ 84
ramp 84
res 84
party 84
which 83
playground 83
works 83
op 83
od 83
sweatshirt 83
poses 83
plan@@ 83
trail 83
woods 83
reads 83
sun 82
skirt 82
concrete 82
under@@ 82
statue 82
beard 82
uses 82
runn@@ 82
air@@ 82
he@@ 82
pur@@ 81
dock 81
ser@@ 81
sses 81
dr@@ 81
midair 81
winter 81
bla@@ 80
ins 80
lan@@ 80
number 80
suits 80
just 80
seated 79
row 79
can 79
foot 79
scope 79
yo@@ 78
bel@@ 78
ty@@ 78
je@@ 78
ens 78
ms 78
distance 78
sts 78
lined 78
om 78
cher 78
sky 77
attire 77
dd@@ 77
toward 77
shi@@ 77
val 77
den@@ 77
min@@ 77
what 77
dium 77
bags 77
cket 77
fe 77
rain 77
photograp@@ 77
beer 76
ver 76
site 76
sca@@ 76
six 76
wheel@@ 76
enjo@@ 76
comp@@ 76
vel 76
cooking 76
scre@@ 76
clu@@ 76
musici@@ 76
str@@ 76
lying 76
place 76
school 76
multi@@ 75
cour@@ 75
right 75
vests 75
teena@@ 75
ski@@ 75
cutting 75
blond-hair 75
filled 75
rider 75
ve@@ 75
ug@@ 74
buildings 74
mem@@ 74
shore 74
left 74
cla@@ 74
swi@@ 74
ty 74
wr@@ 74
pulling 74
tent 74
ry 74
ers@@ 74
cro@@ 73
ings 73
mother 73
cream 73
middle-aged 73
iting 73
ely 73
station 72
skateboarder 72
fen@@ 72
crossing 72
cliff 72
friends 72
net 72
hoo@@ 72
wrest@@ 72
den 72
ally 72
appears 72
har@@ 72
rela@@ 72
edge 71
rest@@ 71
showing 71
ong 71
instrument 71
ent@@ 71
bub@@ 71
spectators 71
mountains 71
few 71
th 71
am 70
tal@@ 70
use 70
clim@@ 70
bearded 70
elect@@ 70
wn@@ 70
horses 70
bathing 70
gr@@ 70
jersey 70
ol 70
um 70
show 70
cars 70
wh@@ 69
nearby 69
pped 69
pit@@ 69
performs 69
ner 69
fu@@ 69
dresses 69
make 69
court 69
driving 68
ctor 68
swe@@ 68
grill 68
concert 68
bowling 68
carries 68
apron 68
perform 68
r@@ 68
ea@@ 68
whe@@ 68
cyclists 68
box 68
snowboarder 68
mal@@ 67
fruit 67
sw@@ 67
bles 67
arts 67
leaves 67
painted 66
structure 66
coffee 66
parked 66
e-@@ 66
vendor 66
me 66
flower 66
sli@@ 66
lin@@ 66
arti@@ 66
various 66
cigarette 66
spla@@ 66
wat@@ 66
fore@@ 66
parti@@ 66
boots 66
tele@@ 66
students 66
cake 65
cup 65
vehicle 65
gentleman 65
pan@@ 65
uni@@ 65
scoo@@ 65
por@@ 65
goggles 65
bru@@ 65
younger 65
ining 65
il 65
smile 65
shot 65
ger@@ 65
surfer 65
der@@ 64
irc@@ 64
nic 64
gymna@@ 64
balan@@ 64
son 64
bottle 64
flying 64
boo@@ 64
lit 64
martial 64
but@@ 64
drums 64
go 64
talks 64
wer 64
smoking 64
ju@@ 63
new 63
kicking 63
flags 63
dire@@ 63
ity 63
home 63
eyes 63
no 63
hit 63
dru@@ 63
stre@@ 63
bor@@ 63
da@@ 63
walk@@ 62
waves 62
safety 62
rocky 62
paint 62
swinging 62
coming 62
newspaper 62
alley 62
jackets 62
ghtly 62
cked 62
long@@ 62
micro@@ 62
rodeo 62
prepares 62
case 61
ban 61
conversation 61
rail 61
rai@@ 61
red-@@ 61
gather 61
different 61
cting 61
run@@ 61
ad 61
parking 61
bucket 61
the@@ 61
practicing 61
costumes 61
gloves 61
hor@@ 61
indian 61
ged 61
ladder 60
cleaning 60
bunch 60
scene 60
competition 60
ven 60
dark@@ 60
ters 60
roof 60
ous 60
fan@@ 60
listening 60
pin@@ 60
cti@@ 60
inter@@ 60
ban@@ 60
cal@@ 60
cement 60
spra@@ 60
poin@@ 60
bull 60
wait 59
ctive 59
tie 59
wet 59
kaya@@ 59
blanket 59
padd@@ 59
bat@@ 59
bb@@ 59
items 59
onlookers 59
skateboarding 59
staring 59
ets 58
balloon 58
do 58
individu@@ 58
meal 58
bs 58
pile 58
bikini 58
boar@@ 58
lawn 58
railing 58
hug@@ 58
audience 58
ette 58
bicycles 58
zed 58
giving 58
hold 58
empty 58
3 58
br@@ 58
ire 58
desk 58
leaps 57
bers 57
ll@@ 57
sit@@ 57
happy 57
ori@@ 57
scu@@ 57
; 57
drinks 57
military 57
hu@@ 57
gets 57
ales 57
hot 57
obser@@ 56
ot@@ 56
ath 56
wal@@ 56
sliding 56
country 56
gathering 56
bird 56
display 56
ring 56
gg@@ 56
fall@@ 56
zz@@ 56
sports 56
cts 56
vegetables 56
pointing 56
signs 56
class 55
wedding 55
verti@@ 55
bowl 55
facing 55
stop 55
ja@@ 55
ell@@ 55
rist@@ 55
fri@@ 55
com@@ 55
athle@@ 55
feet 55
streets 55
chasing 55
sort 55
han@@ 55
busine@@ 55
class@@ 55
biker 55
before 55
fer@@ 55
spea@@ 55
competing 55
u 54
crou@@ 54
cross@@ 54
ced 54
platform 54
sion 54
ated 54
huge 54
sle@@ 54
sen@@ 54
helmets 54
stret@@ 54
id 54
speaking 54
mask 54
us 54
basket 54
ken 53
tran@@ 53
climb@@ 53
gaz@@ 53
convers@@ 53
silver 53
mm@@ 53
skier 53
unter 53
tries 53
vy 53
mer 53
mas 53
lights 53
fall 53
pass 53
mir@@ 53
match 53
gy@@ 53
surfing 53
soldi@@ 53
teams 53
cover@@ 52
smo@@ 52
bur@@ 52
tradition@@ 52
same 52
wra@@ 52
ski 52
dle 52
eri@@ 52
photogra@@ 52
surfboard 52
produ@@ 52
marathon 52
plane 51
ei@@ 51
gold 51
fle@@ 50
trun@@ 50
far@@ 50
men@@ 50
bir@@ 50
out@@ 50
ist 50
fem@@ 50
slo@@ 49
chin@@ 49
ie 49
proje@@ 49
iling 49
ey 49
ere 49
ite 49
ll 49
kl@@ 48
tw@@ 48
blond-@@ 48
tre@@ 48
woo@@ 48
dig@@ 48
fre@@ 48
dir@@ 48
wit@@ 48
pain@@ 48
wer@@ 48
cs 48
iti@@ 48
tou@@ 48
olin 48
box@@ 47
tables 47
dge 47
jum@@ 47
outfits 47
ful@@ 47
star@@ 47
sty@@ 47
perform@@ 47
oper@@ 46
ence 46
ary 46
chi@@ 46
tt@@ 46
chine@@ 46
cheerlea@@ 46
em 45
van 45
ballo@@ 45
fil@@ 45
ute 45
stun@@ 45
base 45
lar@@ 44
ue 44
ale 44
ugh 44
kar@@ 44
swin@@ 44
cafe 44
plate 44
d-@@ 44
aring 44
umbre@@ 44
ils 43
tru@@ 43
part@@ 43
ert 43
coo@@ 43
clown 43
ey@@ 43
pea@@ 43
gol@@ 43
guit@@ 43
die 43
1@@ 43
ton@@ 43
hal@@ 43
ny 43
dau@@ 43
golf 42
vie@@ 42
musi@@ 42
y-@@ 42
ren@@ 41
per 41
ber@@ 41
deo 41
jug@@ 41
ple 41
tes 41
balls 41
ulpt@@ 40
tor@@ 40
ot 40
let@@ 40
laptop 40
form@@ 40
dion 40
sna@@ 40
loo@@ 40
shal@@ 40
v 39
vol@@ 39
fra@@ 39
ic@@ 39
kha@@ 39
cou@@ 39
pati@@ 39
tal 39
mp@@ 39
sprin@@ 38
don@@ 38
jog@@ 38
land 38
tunnel 38
stor@@ 38
bei@@ 38
stro@@ 38
new@@ 38
touri@@ 38
roller@@ 38
fts 38
tack@@ 38
tattoo 37
fro@@ 37
prep@@ 37
ur 37
carri@@ 37
mer@@ 37
dun@@ 37
bun@@ 36
ork 36
hose 36
wil@@ 36
&apos; 36
festi@@ 36
ton 36
tatto@@ 36
0@@ 36
put@@ 35
ade 35
wet@@ 35
passen@@ 35
hil@@ 35
pier 35
ort 35
ym@@ 35
poli@@ 35
wo@@ 34
rying 34
swimm@@ 34
tramp@@ 34
os 34
bil@@ 33
soft@@ 33
sm@@ 33
ones 33
ong@@ 33
lau@@ 33
bow@@ 33
arm@@ 33
pos@@ 33
practi@@ 33
wei@@ 33
play@@ 32
so 32
ler 32
happ@@ 32
boot@@ 32
t-@@ 32
ath@@ 32
cut@@ 32
ze 32
saxoph@@ 32
snowboar@@ 32
4 32
dio 32
cycles 32
band@@ 32
del@@ 32
ob@@ 31
hammer 31
ali@@ 31
mor@@ 31
mark@@ 31
gh 31
sig@@ 31
arbe@@ 30
key@@ 30
appe@@ 30
pal@@ 30
land@@ 30
ing@@ 30
kind 30
cheer@@ 29
dre@@ 29
num@@ 29
gentle@@ 29
cycle 29
sal@@ 29
nam@@ 29
ght@@ 29
windo@@ 29
displa@@ 29
ena 29
fallen 29
rei@@ 29
ach@@ 29
san@@ 29
grill@@ 28
kni@@ 28
fl@@ 28
shop@@ 28
gen@@ 28
see 28
glo@@ 28
2@@ 28
teenager 28
rug@@ 28
scar@@ 27
amer@@ 27
try 27
emp@@ 27
tting 27
ful 27
cyc@@ 27
ach 27
tex@@ 27
tr@@ 26
ligh@@ 26
off@@ 26
backpa@@ 26
sil@@ 26
laugh@@ 26
skateboar@@ 26
color@@ 26
hol@@ 26
sol@@ 25
5 25
tar@@ 25
beg@@ 25
studen@@ 25
spa@@ 25
cell@@ 25
compe@@ 25
stern 25
sport 25
ball@@ 25
spor@@ 25
of@@ 24
dar@@ 24
stru@@ 24
fru@@ 24
asi@@ 24
coun@@ 24
jun@@ 24
gri@@ 24
pun@@ 24
jers@@ 24
1 24
bin@@ 23
team@@ 23
bank 23
qui@@ 23
sk 23
flu@@ 23
pra@@ 23
uth 23
wir@@ 23
vege@@ 23
cker@@ 23
surf@@ 23
ne 23
pass@@ 23
0 22
mel@@ 22
spar@@ 22
ands 22
vehic@@ 22
stat@@ 22
ems 22
! 22
her@@ 22
dding 22
some@@ 21
sweat@@ 21
zer 21
irs 21
( 21
ff 21
ari@@ 21
che 21
ame 21
sub@@ 21
ie@@ 21
lu@@ 21
shor@@ 21
t-shirts 21
surroun@@ 21
del 21
train@@ 20
ters@@ 20
snowboard 20
bask@@ 20
) 20
plat@@ 20
pen 20
bott@@ 20
vo@@ 20
mmer 20
aged 20
fel@@ 20
sell@@ 20
ley 19
uniform@@ 19
foot@@ 19
spit@@ 19
ater 19
tag 19
stan@@ 19
mp 19
mounta@@ 19
elt 19
fr@@ 18
sau@@ 18
hang 18
pie@@ 18
tan@@ 18
cow@@ 18
tat@@ 18
lean@@ 18
side@@ 18
pho@@ 18
ko@@ 18
blu@@ 18
ft@@ 18
ab@@ 18
und@@ 17
pt@@ 17
ssy 17
buil@@ 17
da 17
ung 17
afri@@ 17
less 17
ree 17
cloth@@ 17
kn@@ 17
crow@@ 17
amm@@ 17
lage 16
ures 16
ham@@ 16
zo@@ 16
&@@ 16
kin@@ 16
gel 16
tel 16
att@@ 16
comput@@ 16
blan@@ 16
nel 16
instru@@ 16
lie 16
tos 16
sofa 16
obje@@ 16
&apos;@@ 16
zen 15
3@@ 15
ten 15
ap@@ 15
whi@@ 15
ause 15
ameri@@ 15
lit@@ 15
.@@ 15
hun@@ 15
tern 15
indi@@ 15
fiel@@ 15
sse 15
iel@@ 14
sam@@ 14
cken 14
ka@@ 14
cli@@ 14
mit@@ 14
cher@@ 14
kit@@ 14
len@@ 14
dern 14
cture 14
gla@@ 14
mask@@ 13
son@@ 13
ppi@@ 13
stance 13
sack 13
sport@@ 13
form 13
le-@@ 13
vers@@ 13
stum@@ 13
8 13
shir@@ 13
kat@@ 13
ken@@ 12
pers@@ 12
jack@@ 12
arr@@ 12
ley@@ 12
sten 12
zi@@ 12
oth@@ 12
newspa@@ 12
bli@@ 12
6 12
5@@ 12
constru@@ 11
hut 11
are@@ 11
iter 11
j 11
ev@@ 11
ell 11
gath@@ 11
sno@@ 11
oran@@ 11
itt@@ 11
tor 11
roun@@ 11
tun@@ 11
git@@ 11
dress@@ 11
prepar@@ 11
todd@@ 10
spect@@ 10
bre@@ 10
eing 10
hn 10
ends 10
ena@@ 10
conc@@ 10
ffe@@ 10
brin@@ 10
laden 10
base@@ 10
dies 10
9@@ 10
# 10
ser 10
ster@@ 10
thing 9
yel@@ 9
apro@@ 9
abo@@ 9
deo@@ 9
ulti@@ 9
hind 9
kel@@ 9
scho@@ 9
z 9
spr@@ 9
graff@@ 9
4@@ 9
mmer@@ 9
die@@ 9
hau@@ 8
pf@@ 8
angel@@ 8
ker@@ 8
ween 8
founta@@ 8
bear@@ 8
gn@@ 8
ya@@ 8
rock@@ 8
eho@@ 8
bikin@@ 8
uti@@ 8
- 8
starr@@ 7
unter@@ 7
end@@ 7
ung@@ 7
9 7
gir@@ 7
diti@@ 7
ste 7
s-@@ 7
ume 7
? 7
pict@@ 7
chil@@ 7
tiger 7
7 7
8@@ 7
competiti@@ 7
6@@ 7
ze@@ 7
auto@@ 6
vor@@ 6
fer 6
aus@@ 6
compet@@ 6
rad@@ 6
letter@@ 6
mitt@@ 6
ht 6
tau@@ 6
fit 6
lt 6
ggles 6
aus 6
dor 6
near@@ 6
bad@@ 6
rut@@ 5
ope 5
kel 5
stock 5
das 5
xt 5
rie@@ 5
hin@@ 5
basket@@ 5
ators 5
ender 5
za@@ 5
cy@@ 5
ros@@ 5
ein@@ 5
ired 5
span@@ 5
oba@@ 5
ored 5
lei@@ 5
arren 5
middle-@@ 5
vio@@ 5
swagen 4
q 4
gan@@ 4
dition@@ 4
ssen@@ 4
tz@@ 4
restauran@@ 4
park@@ 4
peop@@ 4
equip@@ 4
kla@@ 4
lap@@ 4
wan@@ 4
smi@@ 4
hn@@ 4
dings 4
aga@@ 4
gei@@ 4
gent@@ 4
fami@@ 4
fter 3
inn@@ 3
kli@@ 3
trin@@ 3
eil 3
adul@@ 3
rot 3
onloo@@ 3
football@@ 3
ak@@ 3
bet@@ 3
costum@@ 3
: 3
hell@@ 3
ssel 3
mets 3
lad@@ 3
beauti@@ 3
tha@@ 3
blon@@ 3
frei@@ 2
vari@@ 2
ein 2
ku@@ 2
hei@@ 2
frisbe@@ 2
dame 2
orange@@ 2
eh@@ 2
beau@@ 2
met 2
ander 2
wand 2
flag@@ 2
turn@@ 2
seh@@ 2
fest 2
aro@@ 2
,@@ 2
graffit@@ 2
pf 2
veral 2
outf@@ 2
oce@@ 2
schie@@ 2
ander@@ 2
sten@@ 2
spre@@ 2
mach@@ 2
mau@@ 2
rad 2
geh@@ 2
% 2
gen 2
alt@@ 2
pink@@ 2
ene 2
tial 2
ab 2
dur@@ 2
tet 2
schi@@ 2
sser 2
ling@@ 2
bus@@ 2
irt 1
sie 1
ket 1
stening 1
sch 1
hl 1
wen@@ 1
lil@@ 1
litt@@ 1
towar@@ 1
publi@@ 1
einer 1
versu@@ 1
sen 1
sax@@ 1
mitten 1
stange 1
eine 1
alter 1
kor@@ 1
vier 1
kan@@ 1
stad@@ 1
gel@@ 1
helm 1
eller 1
skate@@ 1
auto 1
lk@@ 1
ern 1
q@@ 1
kra@@ 1
brau@@ 1
milit@@ 1
tt 1
shirt@@ 1
essen 1
gras 1
boot 1
sei@@ 1
7@@ 1
chs 1
tem 1
zer@@ 1
concre@@ 1
$ 1
pullover 1
gru@@ 1
ffee 1
lie@@ 1
ffer@@ 1
ppen 1
bt 1
oph@@ 1
ben 1
gt 1
nis 1
sof@@ 1
mann@@ 1
fon@@ 1
regen@@ 1
zu 1
neh@@ 1
schwin@@ 1
differ@@ 1
cht 1
mut@@ 1
togra@@ 1
= 1
