a 49603
. 27642
in 15093
the 10959
on 8386
man 7927
is 7612
and 7389
of 6867
with 6179
woman 3976
, 3963
two 3877
are 3782
to 3130
people 3121
an 3117
at 3023
wearing 2623
young 2280
white 2223
shirt 2132
black 2003
his 1969
while 1947
blue 1871
men 1833
red 1767
sitting 1743
girl 1733
dog 1691
boy 1689
standing 1614
playing 1584
group 1552
street 1445
down 1407
walking 1378
front 1306
her 1288
holding 1237
one 1163
by 1124
water 1084
three 1055
women 988
up 980
as 964
green 924
little 915
for 906
looking 895
child 894
outside 871
y 851
large 841
through 813
yellow 781
ed 774
children 768
brown 766
person 753
ing 745
a@@ 741
ball 735
hat 728
from 728
their 725
into 711
c@@ 688
es 681
small 671
next 664
other 660
e@@ 657
s 649
dressed 642
out 639
some 625
over 611
building 603
riding 584
running 581
near 571
jacket 566
around 562
another 562
i@@ 542
field 536
sidewalk 534
table 534
p@@ 525
orange 524
crowd 521
beach 520
t 505
in@@ 505
d@@ 501
stands 498
sits 493
pink 493
jumping 491
behind 489
e 488
-@@ 472
grass 468
bike 465
background 460
snow 459
o@@ 456
ding 451
stand 451
city 447
&apos;s 444
asian 443
girls 441
air 439
top 437
player 429
g@@ 428
st@@ 425
d 425
looks 423
wall 417
ts 415
dogs 413
t@@ 408
ers 407
dress 406
several 404
that 404
older 403
re@@ 402
four 400
mo@@ 397
off 396
s@@ 394
er 393
camera 393
se@@ 392
hair 391
park 388
talking 382
lady 380
something 380
m@@ 379
boys 376
soccer 375
p 372
walks 371
ds 371
along 370
ro@@ 368
guitar 367
working 365
food 364
le 363
play 362
together 361
walk 355
smiling 353
side 352
b@@ 350
it 347
st 345
gray 343
li@@ 341
ra@@ 340
game 340
picture 340
has 339
road 339
y@@ 332
plays 331
po@@ 330
suit 330
car 329
hand 327
old 326
ar@@ 325
ti@@ 324
holds 322
l@@ 319
glasses 317
ly 316
head 316
pants 315
bench 314
face 313
him 312
ting 312
sit 311
con@@ 310
sh@@ 309
v@@ 306
la@@ 305
di@@ 305
shorts 304
co@@ 304
stage 303
o 302
lo@@ 302
ch 300
carrying 300
couple 299
baby 299
de@@ 296
k 293
l 293
them 290
or 289
bicycle 287
th@@ 287
ve 285
pa@@ 283
it@@ 282
w@@ 281
&quot; 280
male 279
tree 279
race 279
pool 278
back 277
ch@@ 277
n@@ 276
taking 275
day 274
rock 273
ca@@ 272
each 272
ri@@ 271
f@@ 270
doing 267
boat 266
en@@ 261
watching 261
across 261
guy 260
its 259
jeans 259
dirt 259
there 259
area 258
er@@ 258
tra@@ 255
to@@ 255
sh 254
ground 254
room 253
blond 252
si@@ 251
jumps 250
cks 248
band 248
hands 248
h@@ 247
female 245
coat 242
al 242
u@@ 242
performing 241
al@@ 240
le@@ 239
baseball 238
who 237
eating 236
ce 235
bu@@ 233
using 233
being 233
striped 232
sc@@ 230
che@@ 229
football 229
sign 228
un@@ 227
kids 225
an@@ 225
watch 225
be 224
sha@@ 224
under 224
many 223
all 223
ps 222
store 222
horse 222
mouth 221
purple 221
he 220
ck 218
mi@@ 217
m 217
long 217
this 216
look 214
sand 213
be@@ 213
chair 213
runs 212
tennis 212
k@@ 211
reading 210
sp@@ 209
on@@ 209
players 209
sunglasses 208
construction 208
ex@@ 208
c 207
ne@@ 206
clothing 203
work 202
microphone 202
car@@ 201
vi@@ 201
go@@ 200
mountain 200
at@@ 199
do@@ 199
covered 199
toy 198
ba@@ 198
ocean 198
dark 198
basketball 198
during 197
ta@@ 197
workers 197
line 196
middle 194
watches 194
ck@@ 194
bo@@ 194
climbing 193
t-shirt 193
dancing 192
uniform 192
ge 192
past 191
op@@ 191
elderly 190
am@@ 189
or@@ 188
restaurant 188
pi@@ 188
helmet 187
against 187
me@@ 186
se 186
w 185
train 185
n 185
team 185
wa@@ 184
window 183
ma@@ 182
il@@ 181
rides 181
board 179
they 178
ving 178
way 177
posing 177
about 177
bi@@ 176
ice 175
b 175
trees 174
wooden 173
five 173
et 173
sa@@ 173
having 173
waiting 173
outdoor 173
les 172
bag 172
light 170
very 170
swimming 169
getting 168
ches 167
ght 167
ho@@ 167
ching 166
floor 166
trying 165
truck 165
qu@@ 164
ar 164
shirts 164
mar@@ 164
fi@@ 164
skateboard 163
colorful 163
lea@@ 163
ment 163
so@@ 162
fa@@ 161
ons 161
busy 160
pe@@ 160
ted 159
singing 159
ling 159
fence 159
book 159
jump 157
hill 157
track 157
ded 157
g 156
market 156
flo@@ 156
gs 155
cart 154
ws 154
te@@ 153
hi@@ 152
ls 151
ride 151
laying 150
inside 150
hats 149
ves 149
high 148
ce@@ 148
bright 147
pu@@ 147
tan 146
no@@ 145
sk@@ 145
body 145
others 145
kitchen 145
cap 145
bar@@ 145
cellphone 144
path 144
wing 144
grassy 144
big 143
someone 143
making 142
night 141
el@@ 141
bus 141
king 141
clothes 141
ss 141
phone 140
takes 140
motorcycle 140
ter@@ 140
bro@@ 139
ying 139
ru@@ 139
led 139
umbrella 139
ating 138
dri@@ 138
blo@@ 138
towards 138
full 138
outfit 138
um@@ 138
te 138
ci@@ 138
shop 138
f 137
enjoying 137
brick 137
mu@@ 136
ki@@ 136
sta@@ 136
ir@@ 136
colored 135
metal 135
cra@@ 135
cking 134
river 134
swing 134
piece 133
paper 133
ready 133
shes 132
stone 132
ni@@ 131
she 131
ys 130
der 130
tank 129
set 129
sto@@ 127
z@@ 127
su@@ 127
ter 127
ss@@ 127
ha@@ 127
open 126
ats 126
worker 126
sweater 126
ces 126
trick 125
painting 124
above 124
stick 124
back@@ 123
cha@@ 123
lake 123
i 122
adults 122
american 122
going 122
gra@@ 122
music 121
na@@ 121
fe@@ 121
hard 120
house 120
vest 120
snowy 120
run 120
dance 120
surrounded 119
col@@ 119
wave 119
lot 119
ning 119
shopping 119
ut@@ 118
ks 118
uniforms 118
onto 118
like 117
outdoors 117
crowded 117
ched 117
ur@@ 116
fo@@ 116
photo 116
backpack 115
beside 115
smiles 115
gear 115
pe 115
kid 114
ble 114
cur@@ 113
ure 113
pole 113
cu@@ 112
hockey 112
ans 112
subway 112
african 112
ine 112
drinking 112
par@@ 112
tu@@ 111
ver@@ 111
ke 111
family 111
pre@@ 111
ul@@ 110
bridge 110
ste@@ 110
ft 110
flowers 110
yard 110
ct@@ 109
toddler 109
fla@@ 109
em@@ 109
age 109
guys 108
rope 108
art 108
fire 108
ction 108
gathered 108
mon@@ 108
event 108
police 107
du@@ 107
gar@@ 107
arms 107
shoes 107
hanging 107
sur@@ 107
catch 106
away 106
ben@@ 106
ses 106
ent 106
preparing 105
ad@@ 105
we@@ 105
beautiful 105
ol@@ 105
wn 105
cam@@ 105
els 105
tur@@ 105
us@@ 104
object 103
steps 103
sleeping 103
costume 103
2 103
leaning 103
after 102
fishing 102
ors 102
tri@@ 101
machine 101
ery 100
fountain 100
plaid 100
bar 100
ation 99
gers 99
gu@@ 99
shirtless 99
wi@@ 99
motor@@ 99
x 99
sing 99
stairs 99
wood 98
wor@@ 98
take 98
cing 98
chairs 98
arm 97
pp@@ 97
tro@@ 97
gi@@ 97
adult 97
ops 97
fire@@ 96
rocks 96
de 96
gre@@ 95
selling 94
cross 94
sunny 94
door 94
water@@ 94
graffiti 94
ge@@ 94
hea@@ 93
does 93
glass 93
ir 93
forest 93
pol@@ 92
setting 92
cre@@ 92
pose 92
parade 92
racing 92
ven@@ 91
tall 91
sho@@ 91
dra@@ 91
time 91
des 91
she@@ 90
pro@@ 90
putting 90
get 90
both 90
corner 90
volleyball 90
dy 89
pushing 89
kers 89
throwing 89
frisbee 89
scarf 89
for@@ 89
view 89
pes 88
have 88
slide 88
ladies 88
drink 88
ns 88
between 88
public 87
laughing 87
cle@@ 87
ani@@ 87
short 87
computer 87
instruments 86
flag 86
pla@@ 86
ges 86
cal 86
ped 86
equipment 86
sting 86
ber 85
fish 85
ard 85
bed 85
couch 85
ten@@ 85
ned 85
where 85
prote@@ 85
pictures 85
bikes 85
tion 85
hand@@ 84
ars 84
plastic 84
h 84
pat@@ 84
fli@@ 84
pping 84
snow@@ 84
cowboy 84
ved 84
ramp 84
res 84
party 84
which 83
playground 83
works 83
cor@@ 83
sweatshirt 83
poses 83
trail 83
woods 83
reads 83
x@@ 83
sun 82
skirt 82
concrete 82
statue 82
ders 82
beard 82
uses 82
air@@ 82
he@@ 82
ac@@ 82
dock 81
ph@@ 81
-haired 81
ser@@ 81
midair 81
ep 81
winter 81
ins 80
lan@@ 80
number 80
suits 80
just 80
stri@@ 80
ping 79
seated 79
row 79
can 79
can@@ 79
ke@@ 79
yo@@ 78
ty@@ 78
je@@ 78
ens 78
jo@@ 78
ms 78
distance 78
sts 78
win@@ 78
lined 78
om 78
sky 77
attire 77
toward 77
shi@@ 77
den@@ 77
ging 77
what 77
bags 77
rain 77
beer 76
ver 76
site 76
six 76
wheel@@ 76
comp@@ 76
cooking 76
str@@ 76
lying 76
place 76
school 76
ut 76
kne@@ 75
right 75
vests 75
head@@ 75
cutting 75
blond-hair 75
r 75
filled 75
rider 75
ve@@ 75
all@@ 75
ug@@ 74
buildings 74
shore 74
left 74
squ@@ 74
cla@@ 74
ssi@@ 74
hel@@ 74
pulling 74
tent 74
ry 74
gro@@ 73
cro@@ 73
ings 73
mother 73
cream 73
middle-aged 73
stra@@ 73
over@@ 73
ely 73
station 72
skateboarder 72
fen@@ 72
crossing 72
ster 72
cliff 72
friends 72
net 72
ally 72
appears 72
har@@ 72
edge 71
showing 71
instrument 71
spectators 71
mountains 71
few 71
am 70
use 70
bearded 70
horses 70
bathing 70
slee@@ 70
jersey 70
ol 70
show 70
cars 70
wh@@ 69
nearby 69
pped 69
performs 69
dresses 69
make 69
court 69
driving 68
ctor 68
grill 68
concert 68
bowling 68
carries 68
apron 68
perform 68
r@@ 68
ea@@ 68
cyclists 68
box 68
snowboarder 68
kes 67
fruit 67
arts 67
leaves 67
painted 66
structure 66
coffee 66
parked 66
e-@@ 66
vendor 66
me 66
per@@ 66
flower 66
sli@@ 66
lin@@ 66
various 66
cigarette 66
ff@@ 66
boots 66
students 66
cake 65
cup 65
vehicle 65
gentleman 65
brea@@ 65
war@@ 65
uni@@ 65
et@@ 65
rea@@ 65
por@@ 65
goggles 65
bru@@ 65
younger 65
ining 65
il 65
low 65
smile 65
shot 65
surfer 65
der@@ 64
j@@ 64
nic 64
gymna@@ 64
balan@@ 64
son 64
bottle 64
flying 64
lit 64
martial 64
but@@ 64
drums 64
go 64
talks 64
wer 64
smoking 64
ju@@ 63
new 63
kicking 63
flags 63
dire@@ 63
ity 63
home 63
app@@ 63
eyes 63
no 63
hit 63
clo@@ 63
stre@@ 63
man@@ 63
bor@@ 63
ger@@ 63
da@@ 63
waves 62
safety 62
rocky 62
paint 62
wel@@ 62
swinging 62
coming 62
newspaper 62
alley 62
jackets 62
cked 62
bra@@ 62
rodeo 62
ati@@ 62
prepares 62
case 61
conversation 61
rail 61
rai@@ 61
fol@@ 61
red-@@ 61
gather 61
different 61
cting 61
ad 61
parking 61
bucket 61
practicing 61
costumes 61
gloves 61
hor@@ 61
indian 61
ged 61
ate 61
ladder 60
cleaning 60
bunch 60
scene 60
competition 60
ven 60
ters 60
sed 60
roof 60
ous 60
listening 60
pin@@ 60
cti@@ 60
inter@@ 60
ban@@ 60
cal@@ 60
cement 60
spra@@ 60
bull 60
wait 59
ctive 59
tie 59
wet 59
kaya@@ 59
blanket 59
bri@@ 59
padd@@ 59
bat@@ 59
pon@@ 59
bb@@ 59
items 59
ct 59
onlookers 59
skateboarding 59
gh@@ 59
staring 59
ets 58
balloon 58
do 58
meal 58
bs 58
pile 58
bikini 58
boar@@ 58
lawn 58
railing 58
mat@@ 58
audience 58
ger 58
bicycles 58
zed 58
giving 58
hold 58
empty 58
3 58
br@@ 58
up@@ 58
desk 58
leaps 57
sun@@ 57
happy 57
ori@@ 57
ral 57
scu@@ 57
; 57
drinks 57
military 57
rin@@ 57
au@@ 57
gets 57
hot 57
obser@@ 56
ot@@ 56
wal@@ 56
sliding 56
country 56
en 56
ele@@ 56
gathering 56
bird 56
display 56
ring 56
gg@@ 56
fin@@ 56
min@@ 56
sti@@ 56
sports 56
cts 56
vegetables 56
pointing 56
signs 56
cer 56
pul@@ 55
class 55
wedding 55
bowl 55
facing 55
stop 55
ell@@ 55
ran@@ 55
com@@ 55
lar 55
athle@@ 55
feet 55
streets 55
chasing 55
sort 55
han@@ 55
biker 55
before 55
fer@@ 55
spea@@ 55
competing 55
u 54
crou@@ 54
cross@@ 54
ced 54
platform 54
sion 54
cyclist 54
ated 54
huge 54
helmets 54
stret@@ 54
attemp@@ 54
id 54
speaking 54
mask 54
us 54
basket 54
tran@@ 53
stu@@ 53
silver 53
bride 53
mm@@ 53
skier 53
tries 53
vy 53
mer 53
lights 53
fall 53
pass 53
match 53
surfing 53
soldi@@ 53
classroom 53
thro@@ 53
teams 53
purse 52
climbs 52
cover@@ 52
father 52
smo@@ 52
seen 52
bur@@ 52
eling 52
ga@@ 52
sticks 52
traditional 52
end 52
same 52
wra@@ 52
ski 52
waits 52
dle 52
sings 52
eri@@ 52
photograph@@ 52
surfboard 52
marathon 52
fighting 51
uring 51
ker 51
plane 51
urban 51
din@@ 51
kissing 51
counter 51
screen 51
ei@@ 51
ked 51
shed 51
dry 51
gold 51
animal 51
um 51
musicians 51
stair@@ 50
stroller 50
bla@@ 50
und 50
far@@ 50
break 50
decora@@ 50
shing 50
cau@@ 50
bir@@ 50
skating 50
spe@@ 50
bl@@ 50
out@@ 50
town 50
ist 50
hu@@ 50
females 50
slo@@ 49
walkway 49
ie 49
hole 49
shoulder 49
ant 49
lap 49
kneeling 49
iling 49
ey 49
pers 49
men@@ 49
gle 49
diving 49
sunset 49
ite 49
ers@@ 49
ll 49
throw 49
runner 49
writing 49
sel@@ 49
kl@@ 48
cand@@ 48
talk 48
tw@@ 48
ily 48
waving 48
tre@@ 48
blowing 48
haired 48
fre@@ 48
scooter 48
bald 48
pain@@ 48
christmas 48
wer@@ 48
plan@@ 48
cat@@ 48
cs 48
iti@@ 48
business 48
attempting 48
sin@@ 48
tou@@ 48
violin 48
box@@ 47
tables 47
dge 47
overlooking 47
made 47
lies 47
course 47
under@@ 47
sco@@ 47
wear 47
jum@@ 47
outfits 47
clou@@ 47
exam@@ 47
partici@@ 47
star@@ 47
cher 47
sty@@ 47
perform@@ 47
oper@@ 46
ence 46
adverti@@ 46
blond-haired 46
ary 46
ent@@ 46
el 46
bubbles 46
chi@@ 46
says 46
tt@@ 46
artist 46
officer 46
mirror 46
and@@ 46
rec@@ 46
giant 45
em 45
van 45
leans 45
sement 45
mat 45
rolling 45
balloons 45
stic 45
fixing 45
prin@@ 45
cial 45
chinese 45
celebra@@ 45
ute 45
fully 45
base 45
life 45
close 45
rain@@ 44
lar@@ 44
alone 44
ue 44
ale 44
ugh 44
ines 44
swim 44
faces 44
teenage 44
repa@@ 44
brunette 44
helping 44
wheel 44
cafe 44
cy 44
plate 44
leg 44
collar 44
atten@@ 44
foreground 44
gym 44
leather 44
d-@@ 44
aring 44
umbrellas 44
cket 44
circ@@ 43
electric 43
ils 43
mud 43
asleep 43
tru@@ 43
part@@ 43
enjoy 43
coo@@ 43
clown 43
legs 43
ey@@ 43
ssing 43
brightly 43
meat 43
pea@@ 43
guit@@ 43
1@@ 43
ton@@ 43
dancers 43
hal@@ 43
ny 43
skate 43
pil@@ 43
headphones 43
sses 43
pan@@ 42
shov@@ 42
washing 42
sandals 42
hood 42
vice 42
golf 42
sea@@ 42
among 42
swings 42
makes 42
officers 42
office 42
falling 42
vie@@ 42
stadium 42
bat 42
passing 42
y-@@ 42
groc@@ 42
wears 42
ren@@ 41
multicolored 41
ll@@ 41
goal 41
per 41
dark-haired 41
phones 41
ber@@ 41
swim@@ 41
held 41
dirty 41
church 41
friend 41
toys 41
ple 41
tes 41
balls 41
barefoot 41
od 41
hiking 41
musical 41
heads 41
skiing 41
photographer 41
doorway 41
ward 41
males 40
sand@@ 40
singer 40
reaching 40
xing 40
drawing 40
im 40
video 40
tor@@ 40
spee@@ 40
gr@@ 40
flip 40
leash 40
ot 40
let@@ 40
tea@@ 40
laptop 40
form@@ 40
ese 40
accordion 40
sna@@ 40
loo@@ 40
throws 40
canoe 40
picking 40
traffic 40
cloth 40
fini@@ 40
dan@@ 40
v 39
below 39
vol@@ 39
fra@@ 39
ic@@ 39
wn@@ 39
ddle 39
move 39
ear@@ 39
high@@ 39
bel@@ 39
kha@@ 39
cou@@ 39
shallow 39
members 39
pati@@ 39
atta@@ 39
relaxing 39
daughter 39
tal 39
performance 39
follo@@ 39
digging 39
well 39
mp@@ 39
read 38
don@@ 38
scen@@ 38
catching 38
dd@@ 38
tain@@ 38
land 38
tunnel 38
moving 38
hugging 38
jugg@@ 38
atop 38
stor@@ 38
shovel 38
pit@@ 38
suspen@@ 38
catches 38
vel 38
gives 38
cat 38
microscope 38
square 38
stro@@ 38
passes 38
ee 38
foot 38
new@@ 38
bicyclist 38
enter@@ 38
touri@@ 38
zz@@ 38
fts 38
laun@@ 38
tack@@ 38
gate 37
bal@@ 37
sprin@@ 37
tattoo 37
sweeping 37
resting 37
fro@@ 37
appro@@ 37
prepare 37
lab 37
rail@@ 37
figh@@ 37
sleeps 37
ur 37
turn 37
bes 37
carri@@ 37
kick 37
shows 37
bly 37
sled 37
garden 37
climb 37
wed 37
lone 37
paved 37
dro@@ 37
fun 37
deep 37
chef 37
mer@@ 37
dun@@ 37
drum 37
wrest@@ 37
leaping 37
stunt 37
flies 37
here 37
bun@@ 36
bow 36
wards 36
hose 36
part 36
wil@@ 36
pond 36
sculpture 36
individuals 36
key 36
scaff@@ 36
trunks 36
ator 36
desert 36
karate 36
cri@@ 36
bran@@ 36
colle@@ 36
presen@@ 36
hoo@@ 36
infan@@ 36
lots 36
&apos; 36
beige 36
hoodie 36
gue 36
doors 36
splashing 36
upside 36
cold 36
conversing 36
ner 36
long-@@ 36
pedestri@@ 36
teeth 36
ton 36
boun@@ 36
shoo@@ 36
ima@@ 36
tatto@@ 36
coats 36
photograph 36
0@@ 36
let 35
ird 35
put@@ 35
self 35
mem@@ 35
jogging 35
ade 35
wet@@ 35
fil@@ 35
hur@@ 35
passen@@ 35
how 35
loa@@ 35
wrestling 35
hil@@ 35
customers 35
these 35
inspe@@ 35
pier 35
ump@@ 35
va@@ 35
balcon@@ 35
cit@@ 35
ort 35
telescope 35
poli@@ 35
closed 35
round 35
formal 35
gun 35
ou@@ 35
points 35
underneath 35
tire 35
block 35
ried 35
plants 35
nati@@ 35
stuff@@ 34
machin@@ 34
pic@@ 34
local 34
rest@@ 34
magaz@@ 34
cane 34
wo@@ 34
ski@@ 34
rying 34
opposing 34
themselves 34
project 34
roller 34
without 34
shoulders 34
gage 34
swimm@@ 34
ates 34
multi@@ 34
carnival 34
eless 34
cut 34
ther 34
dances 34
hiker 34
waters 34
eat 34
fting 34
scape 34
including 34
os 34
shoe 34
refle@@ 33
clim@@ 33
seat 33
straw 33
sm@@ 33
pulled 33
dol@@ 33
wooded 33
mural 33
ones 33
enjo@@ 33
ong@@ 33
ki 33
dinner 33
swi@@ 33
tricks 33
trampoline 33
makeup 33
yed 33
matching 33
lau@@ 33
skin@@ 33
lun@@ 33
rela@@ 33
racket 33
spi@@ 33
bow@@ 33
ty 33
arm@@ 33
pos@@ 33
cho@@ 33
practi@@ 33
taken 33
wei@@ 33
produce 33
runners 33
play@@ 32
so 32
ler 32
happ@@ 32
boot@@ 32
rest 32
t-@@ 32
ath@@ 32
ja@@ 32
ula 32
ols 32
cut@@ 32
books 32
als 32
boo@@ 32
wat@@ 32
ness 32
ze 32
opening 32
hoop 32
saxoph@@ 32
snowboar@@ 32
4 32
fe 32
cycles 32
fu@@ 32
del@@ 32
profession@@ 32
ods 32
eys 32
softball 31
down@@ 31
ob@@ 31
hammer 31
sum@@ 31
medi@@ 31
bot@@ 31
center 31
ali@@ 31
mor@@ 31
mark@@ 31
teena@@ 31
th 31
gh 31
fur@@ 31
sit@@ 31
tele@@ 31
sig@@ 31
cheerleaders 31
ta 31
pitcher 31
arbe@@ 30
tho@@ 30
club 30
spla@@ 30
tin@@ 30
dr@@ 30
ai@@ 30
appe@@ 30
pal@@ 30
deck 30
robe 30
land@@ 30
ing@@ 30
mate 30
grin@@ 30
rollerbla@@ 30
kind 30
overalls 29
bil@@ 29
ong 29
cheer@@ 29
num@@ 29
pit 29
gentle@@ 29
cycle 29
eu@@ 29
sters 29
pur@@ 29
nam@@ 29
festival 29
ght@@ 29
windo@@ 29
displa@@ 29
fallen 29
ach@@ 29
jam@@ 29
san@@ 29
grill@@ 28
cour@@ 28
red@@ 28
kni@@ 28
fl@@ 28
shop@@ 28
gen@@ 28
see 28
golden 28
pian@@ 28
rei@@ 28
glo@@ 28
2@@ 28
teenager 28
rug@@ 28
scar@@ 27
amer@@ 27
pen@@ 27
try 27
mal@@ 27
emp@@ 27
tting 27
ful 27
cyc@@ 27
ach 27
tex@@ 27
arena 27
podium 27
tr@@ 26
ligh@@ 26
positi@@ 26
fun@@ 26
dru@@ 26
long@@ 26
backpa@@ 26
laugh@@ 26
fabri@@ 26
skateboar@@ 26
poster 26
the@@ 26
color@@ 26
bandan@@ 26
pipe 26
hol@@ 26
sol@@ 25
roll@@ 25
wr@@ 25
ek 25
5 25
bub@@ 25
tar@@ 25
beg@@ 25
keyboard 25
student 25
spa@@ 25
cell@@ 25
off@@ 25
musici@@ 25
compe@@ 25
scre@@ 25
york 25
fast 25
poin@@ 25
rollers@@ 25
stern 25
fans 25
sport 25
ball@@ 25
spor@@ 25
jock@@ 25
ami@@ 25
bm@@ 25
of@@ 24
dar@@ 24
stru@@ 24
fru@@ 24
fan@@ 24
whe@@ 24
asi@@ 24
fig@@ 24
coun@@ 24
jun@@ 24
iting 24
pun@@ 24
jers@@ 24
lon@@ 24
micro@@ 24
1 24
bin@@ 23
super@@ 23
team@@ 23
bank 23
p-@@ 23
amp@@ 23
qui@@ 23
sk 23
japan@@ 23
flu@@ 23
sw@@ 23
ire 23
pra@@ 23
uth 23
wir@@ 23
vege@@ 23
cker@@ 23
surf@@ 23
ne 23
pass@@ 23
olympi@@ 23
0 22
tal@@ 22
mel@@ 22
spar@@ 22
ands 22
vehic@@ 22
sandwi@@ 22
stat@@ 22
ems 22
stop@@ 22
eg@@ 22
individu@@ 22
fore@@ 22
! 22
orche@@ 22
her@@ 22
dding 22
some@@ 21
ath 21
sweat@@ 21
bles 21
xi@@ 21
zer 21
irs 21
kil@@ 21
( 21
mini@@ 21
ff 21
ari@@ 21
che 21
ame 21
sub@@ 21
ka 21
ie@@ 21
lu@@ 21
spani@@ 21
irc@@ 21
studio 21
sentation 21
shor@@ 21
t-shirts 21
cker 21
surroun@@ 21
del 21
sy@@ 20
ken 20
train@@ 20
ters@@ 20
snowboard 20
bask@@ 20
nat@@ 20
) 20
moto@@ 20
plat@@ 20
pen 20
bott@@ 20
hug@@ 20
ga 20
arti@@ 20
vo@@ 20
mmer 20
aged 20
elect@@ 20
top@@ 20
sell@@ 20
ley 19
gaz@@ 19
uniform@@ 19
foot@@ 19
spit@@ 19
ater 19
museum 19
ghtly 19
parti@@ 19
tag 19
stan@@ 19
gri@@ 19
mp 19
tax@@ 19
dark@@ 19
puck 19
produ@@ 19
bers 18
fr@@ 18
sau@@ 18
hang 18
silhou@@ 18
pizz@@ 18
pie@@ 18
sal@@ 18
tter@@ 18
cow@@ 18
tat@@ 18
lean@@ 18
side@@ 18
pho@@ 18
ko@@ 18
blu@@ 18
sel 18
ft@@ 18
ab@@ 18
skates 18
sen@@ 18
convers@@ 17
hot@@ 17
scoo@@ 17
handstand 17
dreadlocks 17
und@@ 17
sle@@ 17
pt@@ 17
fle@@ 17
custo@@ 17
ssy 17
buil@@ 17
da 17
demon@@ 17
afri@@ 17
less 17
ree 17
cloth@@ 17
belt 17
kn@@ 17
crow@@ 17
amm@@ 17
swe@@ 17
finger 17
lage 16
ures 16
ham@@ 16
nu@@ 16
zo@@ 16
&@@ 16
run@@ 16
kin@@ 16
gel 16
tel 16
att@@ 16
comput@@ 16
blan@@ 16
nel 16
instru@@ 16
es@@ 16
lie 16
tos 16
by@@ 16
sofa 16
obje@@ 16
&apos;@@ 16
bull@@ 16
moped 16
zen 15
3@@ 15
woo@@ 15
ten 15
ap@@ 15
gol@@ 15
ung 15
tan@@ 15
chin@@ 15
whi@@ 15
mountain@@ 15
sor@@ 15
proje@@ 15
cheerlea@@ 15
ameri@@ 15
lit@@ 15
.@@ 15
offi@@ 15
hun@@ 15
tern 15
indi@@ 15
fiel@@ 15
sse 15
gli@@ 14
iel@@ 14
sam@@ 14
val 14
cken 14
ka@@ 14
cli@@ 14
mit@@ 14
cher@@ 14
ette 14
fri@@ 14
kit@@ 14
wit@@ 14
trun@@ 14
fall@@ 14
len@@ 14
dern 14
cture 14
gla@@ 14
swee@@ 14
op 13
walk@@ 13
mask@@ 13
son@@ 13
ppi@@ 13
stance 13
sack 13
was 13
sport@@ 13
form 13
le-@@ 13
vers@@ 13
stum@@ 13
open@@ 13
8 13
shir@@ 13
kat@@ 13
ken@@ 12
ere 12
jack@@ 12
cers 12
arr@@ 12
tomat@@ 12
skater 12
ley@@ 12
ause 12
sten 12
zi@@ 12
oth@@ 12
newspa@@ 12
bli@@ 12
6 12
5@@ 12
skat@@ 12
ork 11
wind@@ 11
constru@@ 11
hut 11
are@@ 11
mers 11
iter 11
ym@@ 11
j 11
ev@@ 11
dio 11
ell 11
pick@@ 11
gath@@ 11
sno@@ 11
cano@@ 11
des@@ 11
oran@@ 11
itt@@ 11
salon 11
tor 11
roun@@ 11
tun@@ 11
git@@ 11
dress@@ 11
fel@@ 11
prepar@@ 11
todd@@ 10
spect@@ 10
bre@@ 10
eing 10
hn 10
ends 10
ena@@ 10
conc@@ 10
brin@@ 10
pier@@ 10
laden 10
base@@ 10
film@@ 10
dies 10
9@@ 10
# 10
ban 10
dre@@ 10
ser 10
them@@ 10
ster@@ 10
thing 9
yel@@ 9
dig@@ 9
apro@@ 9
abo@@ 9
verti@@ 9
video@@ 9
ulti@@ 9
gy@@ 9
hind 9
kel@@ 9
scho@@ 9
fell 9
z 9
spr@@ 9
graff@@ 9
4@@ 9
mmer@@ 9
die@@ 9
bare@@ 8
kar@@ 8
hau@@ 8
pf@@ 8
stun@@ 8
angel@@ 8
dium 8
ker@@ 8
ween 8
founta@@ 8
bear@@ 8
gn@@ 8
ya@@ 8
rock@@ 8
sil@@ 8
eho@@ 8
roller@@ 8
bikin@@ 8
uti@@ 8
- 8
starr@@ 7
unter@@ 7
end@@ 7
ung@@ 7
9 7
cen@@ 7
hula-@@ 7
person@@ 7
dir@@ 7
die 7
gir@@ 7
diti@@ 7
busine@@ 7
electri@@ 7
ste 7
s-@@ 7
ume 7
? 7
pict@@ 7
chil@@ 7
rist@@ 7
tiger 7
festi@@ 7
ales 7
ert 7
7 7
8@@ 7
competiti@@ 7
den 7
6@@ 7
ze@@ 7
auto@@ 6
stir@@ 6
vor@@ 6
fer 6
aus@@ 6
hin 6
compet@@ 6
ssion@@ 6
rad@@ 6
profe@@ 6
letter@@ 6
mitt@@ 6
ht 6
tau@@ 6
sca@@ 6
sleep 6
alls 6
scope 6
inclu@@ 6
band@@ 6
fit 6
clu@@ 6
lt 6
ggles 6
aus 6
dor 6
near@@ 6
bad@@ 6
hou@@ 5
pers@@ 5
make@@ 5
sat@@ 5
rut@@ 5
mirro@@ 5
sper@@ 5
ffe@@ 5
key@@ 5
ope 5
kel 5
stock 5
das 5
xt 5
rie@@ 5
hin@@ 5
basket@@ 5
ators 5
ffel 5
ender 5
za@@ 5
cy@@ 5
ros@@ 5
gebo@@ 5
ein@@ 5
ired 5
mas 5
span@@ 5
oba@@ 5
ored 5
lei@@ 5
arren 5
ket@@ 5
grima@@ 5
middle-@@ 5
vio@@ 5
swagen 4
sent@@ 4
mobil@@ 4
q 4
mop@@ 4
gle@@ 4
gan@@ 4
dition@@ 4
ssen@@ 4
tz@@ 4
mounta@@ 4
ler@@ 4
restauran@@ 4
park@@ 4
sculpt@@ 4
peop@@ 4
equip@@ 4
kla@@ 4
lap@@ 4
fic 4
wan@@ 4
smi@@ 4
daugh@@ 4
hn@@ 4
dings 4
las 4
aga@@ 4
gei@@ 4
gent@@ 4
fami@@ 4
fter 3
anda 3
inn@@ 3
kli@@ 3
trin@@ 3
tank@@ 3
eil 3
adul@@ 3
rot 3
onloo@@ 3
football@@ 3
ak@@ 3
bet@@ 3
jug@@ 3
overall 3
costum@@ 3
: 3
hell@@ 3
ssel 3
spen@@ 3
door@@ 3
reg@@ 3
mets 3
lad@@ 3
pause 3
beauti@@ 3
tha@@ 3
jog@@ 3
blon@@ 3
frei@@ 2
vari@@ 2
ein 2
ku@@ 2
class@@ 2
hei@@ 2
frisbe@@ 2
dame 2
pel 2
uch 2
orange@@ 2
eh@@ 2
beau@@ 2
met 2
mal 2
ander 2
wand 2
swin@@ 2
flag@@ 2
turn@@ 2
seh@@ 2
fest 2
bei@@ 2
aro@@ 2
,@@ 2
zun@@ 2
stam@@ 2
hout 2
unter 2
graffit@@ 2
shoul@@ 2
pf 2
ern@@ 2
bad 2
veral 2
outf@@ 2
soft@@ 2
ena 2
oce@@ 2
schie@@ 2
blond-@@ 2
elt 2
sten@@ 2
spre@@ 2
mach@@ 2
mau@@ 2
rad 2
chur@@ 2
geh@@ 2
dread@@ 2
% 2
gen 2
alt@@ 2
mir@@ 2
pink@@ 2
ene 2
lung 2
tial 2
geri@@ 2
ful@@ 2
locks 2
ab 2
dur@@ 2
cele@@ 2
tet 2
schi@@ 2
sser 2
ling@@ 2
bus@@ 2
rum 1
irt 1
sie 1
gut 1
ket 1
stening 1
sch 1
hl 1
wen@@ 1
mmen@@ 1
lil@@ 1
litt@@ 1
tte 1
towar@@ 1
accor@@ 1
publi@@ 1
einer 1
versu@@ 1
sen 1
sax@@ 1
mitten 1
stange 1
stau@@ 1
deo 1
eine 1
alter 1
kor@@ 1
vier 1
kan@@ 1
stad@@ 1
shal@@ 1
gel@@ 1
ander@@ 1
helm 1
eller 1
skate@@ 1
auto 1
lk@@ 1
fern 1
q@@ 1
kra@@ 1
braun 1
milit@@ 1
tt 1
trei@@ 1
shirt@@ 1
performan@@ 1
essen 1
neu@@ 1
gras 1
boot 1
sei@@ 1
7@@ 1
chs 1
tem 1
zer@@ 1
concre@@ 1
$ 1
brun@@ 1
wander@@ 1
traf@@ 1
pullover 1
gru@@ 1
ffee 1
lie@@ 1
ffer@@ 1
ppen 1
bt 1
oph@@ 1
ben 1
gt 1
nis 1
sof@@ 1
mann@@ 1
musi@@ 1
climb@@ 1
fon@@ 1
regen@@ 1
zu 1
offen@@ 1
neh@@ 1
chine@@ 1
schwin@@ 1
differ@@ 1
cht 1
tramp@@ 1
spring@@ 1
mut@@ 1
ympi@@ 1
togra@@ 1
ow 1
bel 1
= 1
