a 49428
. 27642
in 15093
the 10959
on 8271
man 7904
is 7582
and 7389
of 6867
with 6179
woman 3976
, 3963
two 3877
are 3769
to 3130
people 3121
at 3023
an 3016
wearing 2623
young 2280
white 2223
shirt 2132
black 2003
his 1969
while 1947
blue 1871
men 1804
red 1767
sitting 1743
girl 1733
dog 1691
boy 1689
standing 1614
playing 1584
group 1552
street 1445
down 1407
walking 1378
front 1306
her 1264
holding 1237
one 1136
by 1081
water 1061
three 1055
women 988
up 956
as 940
green 924
little 915
for 906
looking 895
child 894
outside 871
large 841
through 813
yellow 781
children 768
brown 766
person 753
ball 735
hat 728
from 728
their 725
into 711
small 671
next 664
other 660
y 644
dressed 642
out 639
some 625
over 611
ed 606
building 603
riding 584
running 581
near 571
jacket 566
around 562
another 562
a@@ 553
es 543
ing 537
field 536
sidewalk 534
orange 524
crowd 521
beach 520
table 508
stands 498
sits 493
pink 493
jumping 491
behind 489
c@@ 483
grass 468
bike 465
background 460
snow 459
e@@ 458
stand 451
city 447
s 447
&apos;s 444
asian 443
girls 441
air 439
top 437
-@@ 433
player 429
looks 423
wall 417
dogs 413
dress 406
several 404
ding 404
i@@ 404
that 404
older 403
four 400
d 398
off 396
camera 393
park 388
talking 382
lady 380
d@@ 380
something 380
soccer 375
t@@ 374
walks 371
along 370
guitar 367
e 367
working 365
food 364
boys 364
hair 364
play 362
together 361
ers 355
smiling 353
o@@ 352
side 352
in@@ 351
it 347
gray 343
game 340
picture 340
has 339
t 337
plays 331
car 329
hand 327
old 326
re@@ 324
holds 322
walk 322
glasses 317
g@@ 317
head 316
pants 315
bench 314
road 314
him 312
sit 311
shorts 304
stage 303
ds 302
carrying 300
p@@ 300
couple 299
baby 299
er 297
ti@@ 294
ra@@ 293
s@@ 290
them 290
bicycle 287
st@@ 284
face 281
ro@@ 280
&quot; 280
male 279
tree 279
race 279
pool 278
back 277
suit 276
ts 276
taking 275
day 274
rock 273
each 272
li@@ 271
doing 267
boat 266
or 265
k 265
p 264
y@@ 262
watching 261
across 261
con@@ 261
guy 260
mo@@ 260
di@@ 260
its 259
jeans 259
dirt 259
there 259
area 258
sh@@ 256
ting 256
ground 254
st 253
room 253
blond 252
m@@ 251
jumps 250
se@@ 249
band 248
ar@@ 248
hands 248
ca@@ 248
female 245
de@@ 244
coat 242
la@@ 242
performing 241
lo@@ 240
ly 238
baseball 238
who 237
eating 236
o 235
l 234
co@@ 234
b@@ 234
using 233
being 233
striped 232
football 229
v@@ 228
sign 228
si@@ 227
po@@ 225
kids 225
watch 225
under 224
n@@ 224
many 223
all 223
le 222
store 222
horse 222
ch 221
mouth 221
purple 221
l@@ 220
he 220
w@@ 219
u@@ 217
long 217
ve 216
this 216
look 214
sand 213
runs 212
tennis 212
reading 210
players 209
sunglasses 208
construction 208
clothing 203
che@@ 202
work 202
microphone 202
mi@@ 201
car@@ 201
be 200
mountain 200
al 198
toy 198
ocean 198
dark 198
basketball 198
during 197
workers 197
line 196
vi@@ 196
middle 194
watches 194
climbing 193
pa@@ 193
t-shirt 193
dancing 192
uniform 192
past 191
elderly 190
restaurant 188
chair 187
helmet 187
against 187
me@@ 186
train 185
ch@@ 185
team 185
bu@@ 184
en@@ 184
window 183
am@@ 183
ma@@ 182
ce 181
rides 181
un@@ 181
ps 180
board 179
they 178
way 177
posing 177
about 177
it@@ 177
be@@ 176
to@@ 176
ice 175
covered 175
ri@@ 175
do@@ 174
th@@ 174
f@@ 174
trees 174
wooden 173
five 173
having 173
ta@@ 173
waiting 173
outdoor 173
le@@ 173
les 172
ck 172
bag 172
light 170
very 170
swimming 169
getting 168
sh 167
floor 166
sp@@ 166
trying 165
truck 165
an@@ 165
shirts 164
skateboard 163
colorful 163
lea@@ 163
busy 160
ted 159
h@@ 159
singing 159
fence 159
book 159
jump 157
hill 157
track 157
market 156
pe@@ 156
at@@ 155
wa@@ 155
cart 154
bo@@ 154
pi@@ 152
ride 151
laying 150
inside 150
hats 149
high 148
sc@@ 148
k@@ 147
bright 147
tan 146
body 145
others 145
kitchen 145
cap 145
cellphone 144
path 144
grassy 144
big 143
someone 143
sha@@ 142
ex@@ 142
making 142
night 141
cks 141
bus 141
on@@ 141
clothes 141
ches 140
phone 140
takes 140
te@@ 140
motorcycle 140
led 139
umbrella 139
so@@ 138
towards 138
full 138
outfit 138
ci@@ 138
shop 138
or@@ 137
enjoying 137
brick 137
al@@ 136
colored 135
metal 135
ons 135
cra@@ 135
river 134
swing 134
piece 133
paper 133
ready 133
stone 132
er@@ 131
she 131
tra@@ 131
ne@@ 130
tank 129
set 129
ws 128
ter 127
ss@@ 127
m 127
se 127
open 126
g 126
worker 126
ho@@ 126
sweater 126
ces 126
trick 125
painting 124
above 124
stick 124
w 123
lake 123
der 123
il@@ 122
adults 122
american 122
going 122
music 121
c 121
hard 120
house 120
vest 120
snowy 120
op@@ 120
sa@@ 120
run 120
gra@@ 120
dance 120
surrounded 119
wave 119
lot 119
shopping 119
go@@ 119
uniforms 118
onto 118
like 117
outdoors 117
crowded 117
ur@@ 116
ge 116
et 116
photo 116
backpack 115
beside 115
smiles 115
n 115
ss 115
um@@ 115
gear 115
ying 114
kid 114
ba@@ 114
ching 113
ure 113
ru@@ 113
pole 113
cu@@ 112
wing 112
hockey 112
subway 112
african 112
king 112
drinking 112
ke 111
family 111
pre@@ 111
bro@@ 110
ul@@ 110
mar@@ 110
bridge 110
flowers 110
toddler 109
ce@@ 109
ght 109
guys 108
rope 108
el@@ 108
mu@@ 108
fire 108
ction 108
gathered 108
event 108
qu@@ 107
i 107
police 107
du@@ 107
arms 107
ling 107
shoes 107
hanging 107
catch 106
away 106
ent 106
gs 106
te 106
preparing 105
ad@@ 105
fa@@ 105
beautiful 105
tur@@ 105
us@@ 104
ter@@ 104
object 103
steps 103
sleeping 103
costume 103
leaning 103
ving 103
after 102
fishing 102
ck@@ 102
shes 101
machine 101
fountain 100
plaid 100
bar 100
shirtless 99
wi@@ 99
sing 99
stairs 99
wood 98
take 98
chairs 98
arm 97
na@@ 97
gi@@ 97
fe@@ 97
adult 97
rocks 96
ls 96
de 96
bar@@ 96
gre@@ 95
fi@@ 95
selling 94
cross 94
sunny 94
ning 94
graffiti 94
ni@@ 94
ves 93
does 93
glass 93
forest 93
setting 92
cre@@ 92
pose 92
parade 92
racing 92
tri@@ 91
tall 91
b 91
dra@@ 91
time 91
ating 90
pro@@ 90
flo@@ 90
putting 90
hi@@ 90
get 90
ble 90
both 90
corner 90
volleyball 90
pushing 89
throwing 89
ine 89
frisbee 89
scarf 89
for@@ 89
2 89
view 89
pes 88
art 88
have 88
fo@@ 88
slide 88
ks 88
ladies 88
drink 88
pu@@ 88
between 88
public 87
laughing 87
ani@@ 87
short 87
computer 87
ment 87
instruments 86
flag 86
cal 86
ped 86
equipment 86
sting 86
ar 85
ber 85
fish 85
bed 85
couch 85
sta@@ 85
where 85
pictures 85
bikes 85
f 85
tion 85
hand@@ 84
ars 84
plastic 84
pat@@ 84
pping 84
snow@@ 84
cowboy 84
ved 84
tro@@ 84
ramp 84
res 84
party 84
which 83
playground 83
works 83
cking 83
sweatshirt 83
poses 83
trail 83
woods 83
reads 83
ir@@ 83
yard 83
sun 82
ation 82
skirt 82
concrete 82
ki@@ 82
statue 82
beard 82
ded 82
uses 82
ac@@ 82
wn 81
ans 81
dock 81
ph@@ 81
midair 81
winter 81
ins 80
blo@@ 80
number 80
ha@@ 80
suits 80
just 80
stri@@ 80
ol@@ 79
cam@@ 79
ping 79
seated 79
su@@ 79
sto@@ 79
can 79
can@@ 79
jo@@ 78
distance 78
sts 78
lined 78
sky 77
dri@@ 77
attire 77
toward 77
x 77
ging 77
what 77
des 77
bags 77
rain 77
beer 76
ben@@ 76
six 76
cooking 76
lying 76
school 76
right 75
vests 75
ses 75
head@@ 75
cutting 75
blond-hair 75
ors 75
filled 75
rider 75
buildings 74
shore 74
left 74
squ@@ 74
cla@@ 74
motor@@ 74
pulling 74
tent 74
ry 74
cro@@ 73
ings 73
mother 73
cream 73
middle-aged 73
over@@ 73
station 72
skateboarder 72
crossing 72
ster 72
cliff 72
friends 72
net 72
cing 72
back@@ 72
ally 72
ats 72
appears 72
har@@ 72
ery 71
edge 71
showing 71
instrument 71
lan@@ 71
spectators 71
mountains 71
few 71
bearded 70
horses 70
bathing 70
ut@@ 70
ns 70
jersey 70
show 70
cars 70
ys 70
bi@@ 69
wh@@ 69
nearby 69
ke@@ 69
performs 69
dresses 69
make 69
court 69
driving 68
grill 68
concert 68
col@@ 68
bowling 68
carries 68
apron 68
perform 68
ea@@ 68
par@@ 68
mon@@ 68
box 68
snowboarder 68
kes 67
fruit 67
sho@@ 67
arts 67
gu@@ 67
leaves 67
painted 66
structure 66
coffee 66
parked 66
e-@@ 66
vendor 66
ched 66
flower 66
sli@@ 66
water@@ 66
lin@@ 66
various 66
cigarette 66
boots 66
x@@ 66
students 66
cake 65
cup 65
vehicle 65
gentleman 65
uni@@ 65
ten@@ 65
goggles 65
cha@@ 65
younger 65
ining 65
low 65
age 65
smile 65
shot 65
surfer 65
son 64
no@@ 64
bottle 64
fire@@ 64
flying 64
em@@ 64
door 64
lit 64
martial 64
but@@ 64
drums 64
go 64
talks 64
wer 64
smoking 64
ju@@ 63
new 63
kicking 63
flags 63
dire@@ 63
ity 63
home 63
app@@ 63
eyes 63
no 63
hit 63
pla@@ 63
ff@@ 63
man@@ 63
bor@@ 63
waves 62
safety 62
rocky 62
cur@@ 62
paint 62
swinging 62
coming 62
newspaper 62
alley 62
jackets 62
cked 62
bra@@ 62
rodeo 62
prepares 62
els 61
conversation 61
rail 61
z@@ 61
ens 61
fol@@ 61
gather 61
different 61
cting 61
ad 61
parking 61
bucket 61
practicing 61
costumes 61
gloves 61
indian 61
ged 61
ate 61
he@@ 61
ladder 60
cleaning 60
bunch 60
scene 60
competition 60
ges 60
ters 60
roof 60
ned 60
ous 60
r@@ 60
listening 60
ven@@ 60
pin@@ 60
inter@@ 60
cal@@ 60
cement 60
bull 60
da@@ 60
wait 59
tie 59
wet 59
blanket 59
bri@@ 59
bat@@ 59
items 59
ct 59
onlookers 59
skateboarding 59
gh@@ 59
staring 59
balloon 58
do 58
meal 58
bs 58
pile 58
bikini 58
lawn 58
railing 58
mat@@ 58
audience 58
ger 58
bicycles 58
giving 58
hold 58
empty 58
3 58
br@@ 58
up@@ 58
ops 58
desk 58
leaps 57
ste@@ 57
tu@@ 57
sun@@ 57
happy 57
ders 57
ft 57
drinks 57
military 57
prote@@ 57
gets 57
hot 57
obser@@ 56
ver@@ 56
sliding 56
country 56
en 56
ele@@ 56
gathering 56
bird 56
display 56
ring 56
min@@ 56
stra@@ 56
sti@@ 56
pe 56
sports 56
cts 56
vegetables 56
pointing 56
signs 56
class 55
wedding 55
bowl 55
facing 55
stop 55
ell@@ 55
sk@@ 55
ran@@ 55
com@@ 55
lar 55
feet 55
streets 55
chasing 55
sort 55
air@@ 55
biker 55
before 55
competing 55
yo@@ 54
crou@@ 54
ssi@@ 54
platform 54
sion 54
cyclist 54
ated 54
huge 54
helmets 54
id 54
speaking 54
mask 54
om 54
us 54
au@@ 54
basket 54
stu@@ 53
silver 53
bride 53
ct@@ 53
mm@@ 53
skier 53
row 53
tries 53
lights 53
ser@@ 53
pass 53
match 53
surfing 53
classroom 53
ge@@ 53
teams 53
purse 52
climbs 52
father 52
smo@@ 52
seen 52
h 52
ga@@ 52
sticks 52
traditional 52
end 52
same 52
ati@@ 52
win@@ 52
ski 52
waits 52
sings 52
photograph@@ 52
surfboard 52
place 52
marathon 52
fighting 51
ker 51
urban 51
din@@ 51
fla@@ 51
kissing 51
counter 51
sur@@ 51
screen 51
ked 51
den@@ 51
shed 51
gold 51
animal 51
um 51
musicians 51
j@@ 50
stroller 50
far@@ 50
break 50
wheel@@ 50
je@@ 50
decora@@ 50
shing 50
cau@@ 50
skating 50
spe@@ 50
bl@@ 50
out@@ 50
town 50
ist 50
str@@ 50
hu@@ 50
females 50
tran@@ 49
walkway 49
we@@ 49
gro@@ 49
site 49
hole 49
war@@ 49
shoulder 49
ant 49
lap 49
kneeling 49
ms 49
pers 49
gle 49
diving 49
sunset 49
ite 49
ers@@ 49
ll 49
comp@@ 49
throw 49
runner 49
writing 49
ut 49
cand@@ 48
talk 48
tw@@ 48
waving 48
tre@@ 48
per@@ 48
blowing 48
scooter 48
bald 48
christmas 48
cat@@ 48
cs 48
r 48
iti@@ 48
business 48
attempting 48
sin@@ 48
violin 48
der@@ 47
ug@@ 47
tables 47
overlooking 47
made 47
lies 47
pp@@ 47
course 47
sco@@ 47
wear 47
outfits 47
exam@@ 47
partici@@ 47
star@@ 47
cher 47
oper@@ 46
ence 46
adverti@@ 46
blond-haired 46
ary 46
el 46
bubbles 46
chi@@ 46
says 46
tt@@ 46
artist 46
officer 46
mirror 46
ve@@ 46
giant 45
em 45
van 45
leans 45
sement 45
mat 45
rolling 45
balloons 45
fixing 45
prin@@ 45
wor@@ 45
cial 45
chinese 45
celebra@@ 45
ol 45
ute 45
fully 45
base 45
life 45
close 45
rain@@ 44
lar@@ 44
alone 44
ugh 44
ines 44
swim 44
faces 44
teenage 44
repa@@ 44
brunette 44
helping 44
wheel 44
cafe 44
cy 44
ver 44
plate 44
leg 44
collar 44
atten@@ 44
foreground 44
gym 44
leather 44
d-@@ 44
aring 44
umbrellas 44
cket 44
electric 43
ils 43
mud 43
asleep 43
fli@@ 43
tru@@ 43
ctor 43
hel@@ 43
enjoy 43
coo@@ 43
clown 43
legs 43
ssing 43
brightly 43
meat 43
pea@@ 43
guit@@ 43
dancers 43
hal@@ 43
ny 43
skate 43
pil@@ 43
headphones 43
sses 43
am 42
pan@@ 42
washing 42
sandals 42
hood 42
golf 42
sea@@ 42
among 42
swings 42
makes 42
officers 42
office 42
falling 42
vie@@ 42
stadium 42
bat 42
passing 42
y-@@ 42
wears 42
ren@@ 41
multicolored 41
goal 41
per 41
dark-haired 41
phones 41
ber@@ 41
et@@ 41
pped 41
held 41
dirty 41
church 41
friend 41
toys 41
il 41
tes 41
; 41
balls 41
barefoot 41
od 41
hiking 41
musical 41
heads 41
skiing 41
ir 41
photographer 41
doorway 41
ely 41
ward 41
males 40
gers 40
singer 40
reaching 40
xing 40
drawing 40
video 40
tor@@ 40
spee@@ 40
gr@@ 40
flip 40
leash 40
ot 40
let@@ 40
tea@@ 40
laptop 40
accordion 40
loo@@ 40
throws 40
canoe 40
picking 40
traffic 40
cloth 40
fini@@ 40
ger@@ 40
v 39
below 39
she@@ 39
bur@@ 39
ic@@ 39
wel@@ 39
move 39
ear@@ 39
high@@ 39
bel@@ 39
shallow 39
members 39
pati@@ 39
relaxing 39
pol@@ 39
daughter 39
performance 39
follo@@ 39
use 39
digging 39
well 39
mp@@ 39
read 38
scen@@ 38
balan@@ 38
catching 38
dd@@ 38
land 38
tunnel 38
moving 38
hugging 38
atop 38
stor@@ 38
shovel 38
pit@@ 38
catches 38
slee@@ 38
vel 38
gives 38
cat 38
microscope 38
square 38
stro@@ 38
rai@@ 38
rea@@ 38
passes 38
ee 38
foot 38
new@@ 38
bicyclist 38
enter@@ 38
touri@@ 38
zz@@ 38
fts 38
tack@@ 38
gate 37
bal@@ 37
tattoo 37
sweeping 37
resting 37
fro@@ 37
prepare 37
lab 37
sleeps 37
ur 37
turn 37
kick 37
sed 37
shows 37
bly 37
sled 37
garden 37
climb 37
wed 37
lone 37
paved 37
dro@@ 37
fun 37
deep 37
chef 37
mer@@ 37
dun@@ 37
drum 37
por@@ 37
clo@@ 37
wrest@@ 37
leaping 37
stunt 37
flies 37
here 37
bun@@ 36
bow 36
hose 36
part 36
pond 36
sculpture 36
individuals 36
key 36
hea@@ 36
cor@@ 36
boar@@ 36
trunks 36
ator 36
desert 36
karate 36
cri@@ 36
bran@@ 36
colle@@ 36
presen@@ 36
lots 36
gg@@ 36
&apos; 36
bb@@ 36
beige 36
hoodie 36
doors 36
splashing 36
upside 36
cold 36
rin@@ 36
conversing 36
spra@@ 36
ard 36
teeth 36
ton 36
boun@@ 36
coats 36
photograph 36
cyclists 36
let 35
gar@@ 35
mem@@ 35
jogging 35
fil@@ 35
passen@@ 35
how 35
loa@@ 35
wrestling 35
bru@@ 35
hil@@ 35
customers 35
these 35
inspe@@ 35
pier 35
ump@@ 35
va@@ 35
telescope 35
closed 35
round 35
formal 35
gun 35
all@@ 35
points 35
underneath 35
tire 35
block 35
stre@@ 35
plants 35
machin@@ 34
local 34
rest@@ 34
cane 34
ski@@ 34
opposing 34
themselves 34
project 34
roller 34
without 34
shoulders 34
swimm@@ 34
ates 34
carnival 34
eless 34
cut 34
ther 34
dances 34
hiker 34
waters 34
eat 34
zed 34
fting 34
including 34
os 34
shoe 34
circle 33
refle@@ 33
clim@@ 33
crosswalk 33
seat 33
wo@@ 33
straw 33
pon@@ 33
crying 33
sm@@ 33
pulled 33
cle@@ 33
dol@@ 33
infant 33
wooded 33
mural 33
ones 33
ong@@ 33
dinner 33
fight 33
tricks 33
trampoline 33
makeup 33
ral 33
yed 33
matching 33
rela@@ 33
racket 33
spi@@ 33
bow@@ 33
ty 33
arm@@ 33
pos@@ 33
cho@@ 33
practi@@ 33
taken 33
wei@@ 33
eri@@ 33
produce 33
kers 33
runners 33
play@@ 32
stuffed 32
so 32
ler 32
driver 32
picnic 32
gymnast 32
covering 32
booth 32
rest 32
t-@@ 32
loun@@ 32
firefigh@@ 32
ath@@ 32
ja@@ 32
padd@@ 32
sewing 32
cut@@ 32
books 32
cted 32
nose 32
als 32
boo@@ 32
bicyclists 32
athlete 32
wat@@ 32
ness 32
ban@@ 32
ze 32
scu@@ 32
trash 32
wea@@ 32
opening 32
gymna@@ 32
hoop 32
snowboar@@ 32
long-slee@@ 32
4 32
fe 32
attempts 32
nic 32
performer 32
surface 32
vely 32
fu@@ 32
del@@ 32
lays 31
saw 31
ctive 31
boxes 31
blouse 31
himself 31
hikers 31
sandy 31
softball 31
down@@ 31
wal@@ 31
chases 31
cow 31
case 31
hammer 31
medi@@ 31
mer 31
goes 31
center 31
oon 31
ced 31
ali@@ 31
bever@@ 31
slope 31
mor@@ 31
balcony 31
ddy 31
teenagers 31
th 31
pushes 31
fur@@ 31
lunch 31
help 31
pedestrians 31
sit@@ 31
kaya@@ 31
tele@@ 31
style 31
and@@ 31
third 31
ic 31
sig@@ 31
oriental 31
cheerleaders 31
ering 31
pitcher 31
dy 30
not 30
staircase 30
ets 30
puts 30
log 30
skis 30
seven 30
tho@@ 30
tub 30
indoor 30
ven 30
oned 30
device 30
brush 30
partment 30
bent 30
club 30
spla@@ 30
pulls 30
stret@@ 30
tin@@ 30
excit@@ 30
dr@@ 30
ai@@ 30
neck 30
ep 30
deck 30
robe 30
ing@@ 30
mate 30
grin@@ 30
u 30
speaks 30
tic 30
-haired 30
kind 30
overalls 29
oc@@ 29
bil@@ 29
ong 29
evening 29
boats 29
wetsuit 29
cle 29
heavy 29
num@@ 29
pit 29
ents 29
gentlemen 29
cycle 29
pet 29
enjoys 29
sci@@ 29
atting 29
swims 29
hit@@ 29
drives 29
sters 29
shaking 29
pur@@ 29
1@@ 29
nam@@ 29
festival 29
ght@@ 29
displa@@ 29
fly 29
grocery 29
fallen 29
marching 29
dancer 29
sheet 28
pouring 28
grill@@ 28
approa@@ 28
kayak 28
nice 28
ledge 28
jean 28
kicks 28
red@@ 28
chal@@ 28
ship 28
red-haired 28
fashi@@ 28
porch 28
kne@@ 28
kni@@ 28
brown-haired 28
puddle 28
lift 28
pot 28
protective 28
fl@@ 28
fin@@ 28
fish@@ 28
shop@@ 28
gen@@ 28
type 28
elf 28
stream 28
tracks 28
khaki 28
garb 28
see 28
fingers 28
headed 28
port 28
musta@@ 28
waterfall 28
wrapped 28
cloudy 28
police@@ 28
fair 28
hangs 28
golden 28
shaving 28
robes 28
ckets 28
refer@@ 28
foreign 28
steep 28
dle 28
cer@@ 28
glo@@ 28
native 28
clear 28
laundry 28
teenager 28
poles 27
sale 27
paddling 27
lly 27
shoveling 27
scar@@ 27
reaches 27
camer@@ 27
work@@ 27
comple@@ 27
pen@@ 27
try 27
iling 27
bread 27
luggage 27
moves 27
stle 27
fen@@ 27
emp@@ 27
gon 27
eye 27
blocks 27
red-hair 27
pl@@ 27
tting 27
ful 27
cyc@@ 27
ear 27
saxophone 27
birds 27
han@@ 27
chase 27
checking 27
opposite 27
attached 27
tex@@ 27
thro@@ 27
palm 27
backyard 27
sea 27
put 27
arena 27
shooting 27
podium 27
soldiers 27
skirts 27
fer@@ 27
piano 27
colors 27
airplane 27
cer 27
sprinkl@@ 26
tr@@ 26
rub@@ 26
goalie 26
inflatable 26
swor@@ 26
ligh@@ 26
mound 26
clean 26
denim 26
fun@@ 26
curb 26
ming 26
ance 26
wered 26
tops 26
ori@@ 26
dru@@ 26
ei@@ 26
jump@@ 26
emer@@ 26
wine 26
tongue 26
string 26
backpa@@ 26
wheelchair 26
arrow 26
soldier 26
laugh 26
ages 26
ppy 26
balancing 26
windows 26
char@@ 26
cones 26
kiss 26
camouflage 26
poster 26
pavement 26
the@@ 26
image 26
color@@ 26
recor@@ 26
bathro@@ 26
polo 26
oppon@@ 26
pipe 26
hula 26
hol@@ 26
rugby 26
pul@@ 25
tractor 25
lers 25
happily 25
courtyard 25
eats 25
black@@ 25
sol@@ 25
shade 25
bikers 25
don@@ 25
frame 25
swimsuit 25
ty@@ 25
escal@@ 25
od@@ 25
tools 25
roll@@ 25
wr@@ 25
ek 25
pain@@ 25
railroad 25
5 25
tar@@ 25
beg@@ 25
fall 25
walls 25
keyboard 25
discu@@ 25
student 25
juggling 25
spa@@ 25
tered 25
stool 25
cell@@ 25
eling 25
ctions 25
off@@ 25
ups 25
floating 25
musician 25
compe@@ 25
buying 25
step 25
barri@@ 25
shado@@ 25
scre@@ 25
york 25
curly 25
zing 25
laughs 25
fresh 25
fast 25
inning 25
fabric 25
raft 25
skinned 25
poin@@ 25
rollers@@ 25
stern 25
fans 25
neck@@ 25
uts 25
motorcycles 25
married 25
spea@@ 25
recei@@ 25
bottom 25
flight 25
professional 25
riders 25
sport 25
sell 25
horse@@ 25
bla@@ 25
ami@@ 25
spot@@ 24
you 24
backwards 24
ctory 24
supp@@ 24
of@@ 24
plane 24
trav@@ 24
color 24
ently 24
guard 24
-covered 24
dar@@ 24
fs 24
scaffolding 24
que 24
carriage 24
stru@@ 24
surf 24
cheering 24
sized 24
fru@@ 24
plant 24
multiple 24
bubble 24
tail 24
floral 24
closeup 24
und 24
fan@@ 24
whe@@ 24
under@@ 24
barre@@ 24
living 24
either 24
acoustic 24
garbage 24
asi@@ 24
bucking 24
sna@@ 24
fig@@ 24
ba 24
pair 24
wra@@ 24
marketplace 24
coun@@ 24
jun@@ 24
fir@@ 24
tube 24
vy 24
casu@@ 24
groom 24
fee@@ 24
stretched 24
appear 24
hurdle 24
socks 24
touching 24
nap 24
spray 24
suspended 24
tou@@ 24
vers 24
knee 24
sel@@ 24
iting 24
pun@@ 24
shown 24
bandanna 24
haw@@ 24
plan@@ 24
goods 24
santa 24
pajamas 24
jerseys 24
micro@@ 24
1 24
stove 23
plaza 23
bin@@ 23
super@@ 23
ths 23
kneels 23
most 23
magazine 23
fenced 23
raised 23
obsta@@ 23
underwater 23
fre@@ 23
thum@@ 23
team@@ 23
ot@@ 23
ribb@@ 23
mals 23
bank 23
hooded 23
welding 23
ments 23
qui@@ 23
long-haired 23
sk 23
bit 23
form@@ 23
bir@@ 23
japanese 23
flu@@ 23
sw@@ 23
serving 23
pating 23
ire 23
dry 23
ca 23
pra@@ 23
uth 23
wir@@ 23
vege@@ 23
cker@@ 23
sheep 23
german 23
uring 23
surf@@ 23
paints 23
hay 23
landscape 23
towel 23
invol@@ 23
acti@@ 23
parach@@ 23
athle@@ 23
pige@@ 23
sted 23
ne 23
pass@@ 23
ily 23
olympi@@ 23
vil@@ 22
scra@@ 22
0 22
tal@@ 22
mel@@ 22
spar@@ 22
pan 22
ands 22
vehic@@ 22
summer 22
mom 22
stil@@ 22
money 22
stat@@ 22
chan@@ 22
ems 22
boards 22
attemp@@ 22
stop@@ 22
kl@@ 22
eg@@ 22
individu@@ 22
fore@@ 22
post 22
! 22
orche@@ 22
bag@@ 22
wer@@ 22
ie 22
her@@ 22
dding 22
exer@@ 22
sailing 22
bmx 22
defen@@ 22
barbecue 21
brea@@ 21
some@@ 21
ath 21
sweat@@ 21
stic 21
bles 21
mobile 21
xi@@ 21
zer 21
irs 21
kil@@ 21
shi@@ 21
rout@@ 21
pri@@ 21
( 21
mini@@ 21
ff 21
nei@@ 21
ari@@ 21
che 21
ame 21
me 21
eth@@ 21
sub@@ 21
heels 21
hall@@ 21
ka 21
ie@@ 21
lu@@ 21
spani@@ 21
irc@@ 21
studio 21
sentation 21
shor@@ 21
t-shirts 21
ue 21
cross@@ 21
yho@@ 21
cker 21
jum@@ 21
0@@ 21
spor@@ 21
rings 21
surroun@@ 21
rec@@ 21
corn 21
del 21
para@@ 21
sy@@ 20
ken 20
wil@@ 20
ters@@ 20
inten@@ 20
snowboard 20
come 20
garage 20
bask@@ 20
nat@@ 20
) 20
sandwich 20
ggy 20
moto@@ 20
plat@@ 20
cover@@ 20
eu@@ 20
hor@@ 20
we 20
ssion 20
ner 20
pen 20
bott@@ 20
ent@@ 20
skateboards 20
hug@@ 20
ga 20
arti@@ 20
mes 20
stair@@ 20
vo@@ 20
mmer 20
aged 20
elect@@ 20
top@@ 20
haired 20
start 20
sell@@ 20
ley 19
kno@@ 19
gaz@@ 19
uniform@@ 19
sla@@ 19
foot@@ 19
dis@@ 19
spon@@ 19
spit@@ 19
dge 19
ater 19
museum 19
ghtly 19
clou@@ 19
coach 19
parti@@ 19
tag 19
stan@@ 19
gri@@ 19
mp 19
dark@@ 19
puck 19
erial 19
aller 19
tattoo@@ 19
aqu@@ 19
ly@@ 19
emon@@ 19
produ@@ 19
slo@@ 18
bers 18
sky@@ 18
fr@@ 18
sau@@ 18
hang 18
container 18
monit@@ 18
pie@@ 18
sal@@ 18
tter@@ 18
live 18
position 18
dit@@ 18
tat@@ 18
lean@@ 18
side@@ 18
pho@@ 18
ko@@ 18
blu@@ 18
sel 18
ft@@ 18
men@@ 18
ab@@ 18
skates 18
sen@@ 18
wns 18
convers@@ 17
hot@@ 17
scoo@@ 17
iro@@ 17
handstand 17
derby 17
dreadlocks 17
ale 17
und@@ 17
sle@@ 17
fle@@ 17
custo@@ 17
ssy 17
buil@@ 17
da 17
demonstra@@ 17
iz@@ 17
formation 17
afri@@ 17
break@@ 17
ton@@ 17
less 17
ree 17
cloth@@ 17
pop@@ 17
belt 17
kn@@ 17
moment 17
tatto@@ 17
gest@@ 17
crow@@ 17
ple 17
amm@@ 17
swe@@ 17
finger 17
jockey 17
ese 17
stens 17
lage 16
vol@@ 16
ures 16
ham@@ 16
nu@@ 16
zo@@ 16
flip-flops 16
&amp; 16
run@@ 16
kin@@ 16
gel 16
horn 16
warm 16
hotel 16
att@@ 16
snack 16
banner 16
comput@@ 16
pizza 16
mix@@ 16
blan@@ 16
nel 16
instru@@ 16
swim@@ 16
org@@ 16
es@@ 16
lie 16
tos 16
rollerbla@@ 16
by@@ 16
box@@ 16
sofa 16
london 16
obje@@ 16
&apos;@@ 16
ma 16
bull@@ 16
ey@@ 16
war 16
moped 16
sty@@ 16
zen 15
shov@@ 15
3@@ 15
training 15
woo@@ 15
skil@@ 15
ap@@ 15
ung 15
attra@@ 15
tan@@ 15
taxi 15
chin@@ 15
whi@@ 15
mountain@@ 15
sor@@ 15
proje@@ 15
tain@@ 15
ameri@@ 15
lit@@ 15
stand@@ 15
ballerina 15
.@@ 15
offi@@ 15
hun@@ 15
tern 15
indi@@ 15
enth@@ 15
cou@@ 15
perform@@ 15
20@@ 15
fiel@@ 15
sse 15
gli@@ 14
iel@@ 14
ll@@ 14
sam@@ 14
val 14
cken 14
ka@@ 14
suspen@@ 14
cli@@ 14
mit@@ 14
cher@@ 14
experi@@ 14
12 14
jo 14
fri@@ 14
kit@@ 14
wit@@ 14
trun@@ 14
im 14
falls 14
len@@ 14
uns 14
pack@@ 14
dern 14
cture 14
gla@@ 14
swee@@ 14
rollerblades 14
fra@@ 14
tropi@@ 13
part@@ 13
op 13
ron@@ 13
jugg@@ 13
ast 13
walk@@ 13
laptops 13
mask@@ 13
son@@ 13
burg@@ 13
ppi@@ 13
hoo@@ 13
stance 13
sack 13
was 13
sport@@ 13
form 13
le-@@ 13
vers@@ 13
carri@@ 13
groc@@ 13
2@@ 13
stum@@ 13
open@@ 13
8 13
shir@@ 13
bare 13
kat@@ 13
mcdonal@@ 12
rail@@ 12
wards 12
bam@@ 12
ken@@ 12
vice 12
gol@@ 12
ere 12
jack@@ 12
ed@@ 12
cers 12
arr@@ 12
tomat@@ 12
hy@@ 12
skater 12
cowboys 12
cti@@ 12
ley@@ 12
ause 12
sten 12
zi@@ 12
banan@@ 12
oth@@ 12
newspa@@ 12
atta@@ 12
bli@@ 12
6 12
5@@ 12
skat@@ 12
ork 11
wind@@ 11
magaz@@ 11
constru@@ 11
hur@@ 11
hut 11
bor 11
are@@ 11
mers 11
iter 11
ym@@ 11
j 11
ev@@ 11
dio 11
ell 11
pick@@ 11
quarter@@ 11
sprin@@ 11
ble@@ 11
gath@@ 11
kha@@ 11
sno@@ 11
cano@@ 11
ce-@@ 11
sar@@ 11
des@@ 11
scape 11
oran@@ 11
ddle 11
itt@@ 11
dan@@ 11
salon 11
tor 11
roun@@ 11
tun@@ 11
git@@ 11
dress@@ 11
fel@@ 11
prepar@@ 11
todd@@ 10
spect@@ 10
bre@@ 10
eing 10
hn 10
wake@@ 10
multi@@ 10
silhouette 10
ends 10
ena@@ 10
gue 10
conc@@ 10
scaff@@ 10
brin@@ 10
pier@@ 10
wn@@ 10
laden 10
ey 10
ried 10
base@@ 10
trie@@ 10
film@@ 10
dies 10
laun@@ 10
circ@@ 10
9@@ 10
ade 10
ima@@ 10
# 10
ban 10
dor@@ 10
dre@@ 10
will 10
ser 10
bati@@ 10
them@@ 10
ster@@ 10
thing 9
bes 9
yel@@ 9
barbe@@ 9
dig@@ 9
apro@@ 9
abo@@ 9
verti@@ 9
video@@ 9
ulti@@ 9
techni@@ 9
flan@@ 9
shoo@@ 9
gy@@ 9
hind 9
kel@@ 9
scho@@ 9
fell 9
z 9
ou@@ 9
appro@@ 9
euro@@ 9
spr@@ 9
graff@@ 9
4@@ 9
mmer@@ 9
sand@@ 9
not@@ 9
die@@ 9
sum@@ 9
bare@@ 8
positi@@ 8
itten 8
kar@@ 8
hau@@ 8
pf@@ 8
stun@@ 8
angel@@ 8
skin@@ 8
dium 8
ker@@ 8
ween 8
founta@@ 8
bear@@ 8
gn@@ 8
ya@@ 8
cheerlea@@ 8
ob@@ 8
rock@@ 8
sil@@ 8
eho@@ 8
lon@@ 8
silhou@@ 8
roller@@ 8
ach 8
ods 8
ment@@ 8
figu@@ 8
bikin@@ 8
uti@@ 8
rit@@ 8
- 8
jock@@ 8
eys 8
starr@@ 7
ols 7
unter@@ 7
end@@ 7
ung@@ 7
9 7
cen@@ 7
ort 7
cycles 7
person@@ 7
ta 7
dir@@ 7
cheerleader 7
die 7
gir@@ 7
diti@@ 7
busine@@ 7
electri@@ 7
p-@@ 7
amp@@ 7
mark@@ 7
ste 7
s-@@ 7
land@@ 7
ume 7
happ@@ 7
gage 7
nati@@ 7
? 7
lau@@ 7
pict@@ 7
chil@@ 7
rist@@ 7
tiger 7
festi@@ 7
ales 7
poli@@ 7
ten 7
ert 7
7 7
8@@ 7
competiti@@ 7
den 7
6@@ 7
profession@@ 7
ze@@ 7
auto@@ 6
ula 6
botto@@ 6
stir@@ 6
vor@@ 6
fer 6
scal@@ 6
red-@@ 6
aus@@ 6
hin 6
infla@@ 6
compet@@ 6
ssion@@ 6
rad@@ 6
na 6
profe@@ 6
letter@@ 6
mitt@@ 6
tal 6
ht 6
tau@@ 6
sca@@ 6
appe@@ 6
sleep 6
beam@@ 6
alls 6
scope 6
wild@@ 6
mbi@@ 6
inclu@@ 6
skateboar@@ 6
band@@ 6
fit 6
clu@@ 6
lt 6
ggles 6
aus 6
wet@@ 6
dor 6
cow@@ 6
ach@@ 6
near@@ 6
bad@@ 6
train@@ 5
contain@@ 5
hou@@ 5
servi@@ 5
pers@@ 5
make@@ 5
cheer@@ 5
sat@@ 5
rut@@ 5
mirro@@ 5
sper@@ 5
ffe@@ 5
key@@ 5
ope 5
kel 5
stock 5
das 5
cit@@ 5
xt 5
gn 5
rie@@ 5
hin@@ 5
pedestri@@ 5
ini@@ 5
basket@@ 5
ators 5
saxoph@@ 5
ffel 5
ender 5
za@@ 5
cy@@ 5
ball@@ 5
ros@@ 5
gebo@@ 5
put@@ 5
ein@@ 5
ired 5
mas 5
span@@ 5
oba@@ 5
ored 5
lei@@ 5
gh 5
ki 5
arren 5
ket@@ 5
san@@ 5
grima@@ 5
pel@@ 5
figh@@ 5
middle-@@ 5
vio@@ 5
ird 4
swagen 4
sent@@ 4
mobil@@ 4
mpe@@ 4
q 4
hula-ho@@ 4
mop@@ 4
gle@@ 4
gan@@ 4
self 4
dition@@ 4
ssen@@ 4
tz@@ 4
mounta@@ 4
fal@@ 4
mal@@ 4
tech@@ 4
ler@@ 4
park@@ 4
sculpt@@ 4
peop@@ 4
long-@@ 4
equip@@ 4
kla@@ 4
lap@@ 4
fic 4
ette 4
wan@@ 4
smi@@ 4
daugh@@ 4
hn@@ 4
dings 4
enjo@@ 4
tax@@ 4
las 4
swi@@ 4
ballerin@@ 4
aga@@ 4
peri@@ 4
pt@@ 4
transpor@@ 4
balcon@@ 4
gei@@ 4
gent@@ 4
fami@@ 4
cour@@ 3
fter 3
anda 3
inn@@ 3
kli@@ 3
trin@@ 3
golf@@ 3
hula-@@ 3
tank@@ 3
dach@@ 3
eil 3
adul@@ 3
restaurants 3
pal@@ 3
rot 3
sees 3
onloo@@ 3
football@@ 3
ak@@ 3
bet@@ 3
infan@@ 3
waff@@ 3
long@@ 3
jug@@ 3
vement 3
fau@@ 3
windo@@ 3
overall 3
costum@@ 3
: 3
hell@@ 3
ssel 3
don 3
spen@@ 3
door@@ 3
bm@@ 3
reg@@ 3
mets 3
lad@@ 3
pause 3
beauti@@ 3
tha@@ 3
jog@@ 3
quar@@ 3
blon@@ 3
jam@@ 3
uta@@ 2
bst 2
frei@@ 2
pic@@ 2
vari@@ 2
ein 2
ku@@ 2
class@@ 2
hei@@ 2
frisbe@@ 2
dame 2
pel 2
uch 2
pajam@@ 2
entri@@ 2
orange-@@ 2
eh@@ 2
beau@@ 2
met 2
mal 2
ander 2
stuff@@ 2
irts 2
scaffol@@ 2
pizz@@ 2
wand 2
swin@@ 2
flag@@ 2
turn@@ 2
seh@@ 2
lun@@ 2
fest 2
close@@ 2
aro@@ 2
,@@ 2
gras@@ 2
zun@@ 2
stam@@ 2
hout 2
unter 2
graffit@@ 2
shoul@@ 2
pf 2
ern@@ 2
bad 2
rug@@ 2
veral 2
outf@@ 2
even@@ 2
soft@@ 2
ena 2
oce@@ 2
schie@@ 2
ental 2
blond-@@ 2
elt 2
sten@@ 2
spre@@ 2
mach@@ 2
mau@@ 2
rad 2
chur@@ 2
geh@@ 2
dread@@ 2
% 2
gen 2
alt@@ 2
mir@@ 2
pink@@ 2
ene 2
lung 2
tial 2
geri@@ 2
ful@@ 2
locks 2
ab 2
dur@@ 2
sandwi@@ 2
cele@@ 2
tet 2
bandan@@ 2
cue 2
schi@@ 2
sser 2
ling@@ 2
bus@@ 2
rum 1
rying 1
irt 1
sie 1
gut 1
fabri@@ 1
x-@@ 1
ket 1
stening 1
wel 1
sch 1
hl 1
wen@@ 1
mmen@@ 1
lil@@ 1
alie 1
erer 1
litt@@ 1
tte 1
op-@@ 1
towar@@ 1
accor@@ 1
publi@@ 1
einer 1
bei@@ 1
versu@@ 1
sen 1
sax@@ 1
wol@@ 1
laugh@@ 1
mitten 1
stange 1
stau@@ 1
deo 1
eine 1
alter 1
kor@@ 1
ballons 1
vier 1
kan@@ 1
stad@@ 1
shal@@ 1
gel@@ 1
ander@@ 1
helm 1
pian@@ 1
eller 1
skate@@ 1
auto 1
lk@@ 1
fern 1
flops 1
q@@ 1
beige@@ 1
kra@@ 1
braun 1
milit@@ 1
tt 1
trei@@ 1
shirt@@ 1
performan@@ 1
essen 1
neu@@ 1
gras 1
boot 1
sei@@ 1
7@@ 1
chs 1
tem 1
kal@@ 1
brown@@ 1
zer@@ 1
bub@@ 1
concre@@ 1
$ 1
brun@@ 1
wander@@ 1
traf@@ 1
pullover 1
gru@@ 1
ffee 1
lie@@ 1
ffer@@ 1
restauran@@ 1
ppen 1
bt 1
oph@@ 1
ben 1
ory 1
gt 1
nis 1
sof@@ 1
mc@@ 1
mann@@ 1
musi@@ 1
modi@@ 1
climb@@ 1
fon@@ 1
regen@@ 1
zu 1
offen@@ 1
za 1
neh@@ 1
donal@@ 1
chine@@ 1
schwin@@ 1
differ@@ 1
cht 1
tramp@@ 1
spring@@ 1
mut@@ 1
ympi@@ 1
togra@@ 1
ow 1
bel 1
= 1
