a 49531
. 27642
in 15149
the 10959
on 8510
man 7927
is 7612
and 7429
of 6867
with 6179
woman 3976
, 3963
two 3877
are 3857
at 3213
an 3167
to 3135
people 3121
wearing 2623
young 2280
white 2223
shirt 2132
black 2003
his 1969
while 1947
blue 1871
men 1829
red 1815
sitting 1743
girl 1733
dog 1691
boy 1689
standing 1614
playing 1594
group 1552
s 1468
street 1445
down 1407
walking 1378
front 1306
her 1305
holding 1237
by 1123
c@@ 1115
i@@ 1101
one 1097
e@@ 1087
water 1084
a@@ 1080
three 1055
g@@ 1030
up 1007
women 988
f@@ 987
d 955
looking 942
er 934
as 925
green 924
t 921
little 915
for 906
e 900
child 894
ing 887
es 883
outside 871
ed 864
ts 848
in@@ 846
large 841
ers 832
through 813
yellow 781
y 775
children 768
ball 766
brown 766
person 753
s@@ 749
hat 728
from 728
their 725
p@@ 715
se@@ 714
into 711
d@@ 704
ra@@ 700
out 697
small 671
next 664
k 663
other 660
w@@ 652
-@@ 646
dressed 642
ting 631
some 625
over 623
b@@ 613
building 603
pa@@ 602
re@@ 588
t@@ 586
riding 584
la@@ 581
running 581
le@@ 578
lo@@ 578
near 571
jacket 566
around 562
another 562
di@@ 561
en@@ 560
se 558
o@@ 554
ding 545
field 536
sidewalk 534
table 534
orange 524
crowd 521
beach 520
de@@ 520
p 515
ch@@ 510
at@@ 502
ma@@ 499
stands 498
sits 493
pink 493
li@@ 491
jumping 491
ho@@ 490
behind 489
st 488
top 477
ar@@ 470
stand 468
grass 468
bike 465
background 460
y@@ 459
snow 459
ro@@ 457
st@@ 456
sh@@ 455
k@@ 452
m@@ 447
city 446
&apos;s 444
asian 443
girls 441
air 439
ti@@ 429
player 429
po@@ 428
l 426
n 425
un@@ 424
looks 423
play 419
ds 418
wall 417
dogs 413
ri@@ 411
dress 406
several 404
that 404
al 403
ta@@ 402
older 401
four 400
co@@ 399
do@@ 397
er@@ 396
off 393
camera 393
hair 391
park 389
side 388
lea@@ 387
talking 382
be@@ 382
ch 381
ss 380
lady 380
something 380
to@@ 379
me@@ 377
boys 376
th@@ 375
soccer 375
walks 371
n@@ 371
tra@@ 370
le 370
along 370
ne@@ 368
l@@ 368
it 368
guitar 367
sk@@ 367
working 365
food 364
it@@ 363
together 361
we@@ 361
o 359
its 359
old 355
walk 355
smiling 353
il@@ 352
fa@@ 350
room 350
h@@ 345
mo@@ 344
ge 344
gray 343
plays 341
con@@ 340
game 340
picture 340
has 339
road 339
ks 334
ving 332
op@@ 331
ly 330
suit 330
car 329
hand 327
wa@@ 327
pi@@ 327
z@@ 325
w 324
g 324
les 323
holds 322
ca@@ 322
ve 321
ps 321
bu@@ 318
glasses 317
head 316
pants 315
bench 314
face 313
u@@ 313
te 313
him 312
pe@@ 312
sit 311
al@@ 310
sho@@ 306
sh 306
shorts 304
stage 303
ls 302
carrying 300
couple 299
baby 299
fi@@ 298
ground 298
m 295
cu@@ 293
ck 292
c 292
sa@@ 291
am@@ 291
them 290
si@@ 290
bal@@ 288
bicycle 287
king 287
so@@ 286
race 286
che@@ 286
en 285
ir@@ 283
te@@ 283
b 281
&quot; 280
male 279
tree 279
pool 278
back 277
ching 277
ck@@ 277
board 276
taking 275
rock 273
an@@ 272
each 272
mu@@ 270
day 269
way 267
doing 267
boat 266
cks 263
watching 261
all 261
across 261
guy 260
jeans 259
dirt 259
there 259
area 258
ba@@ 258
ling 256
bo@@ 256
wn 256
sp@@ 255
ex@@ 255
be 254
f 253
blond 252
ter 252
gs 251
jumps 250
band 248
hands 248
ted 247
mar@@ 247
or 246
female 245
r@@ 243
coat 242
performing 241
ce 240
go@@ 240
ys 239
tri@@ 239
car@@ 239
baseball 238
who 237
sha@@ 237
eating 236
ter@@ 234
being 233
striped 232
sto@@ 231
ws 231
clo@@ 231
de 230
par@@ 230
using 229
football 229
wing 228
sign 228
ans 227
et 226
ns 226
line 226
for@@ 226
kids 225
watch 225
under 224
many 223
gi@@ 222
store 222
horse 222
mouth 221
purple 221
he 221
r 220
ar 219
long 218
this 216
pu@@ 215
look 214
sand 213
work 213
chair 213
posing 212
runs 212
tennis 212
sta@@ 211
can@@ 211
reading 210
vi@@ 210
players 209
sing 209
sunglasses 208
construction 208
ser@@ 207
hel@@ 207
ping 205
ches 205
clothing 203
ur@@ 202
light 202
microphone 202
h 201
i 200
mountain 200
covered 199
toy 198
ocean 198
led 198
dark 198
basketball 198
during 197
workers 197
ment 195
hu@@ 195
middle 194
hi@@ 194
watches 194
climbing 193
ves 193
t-shirt 193
ce@@ 193
fe@@ 193
dancing 192
uniform 192
v@@ 192
cla@@ 191
past 191
gu@@ 191
elderly 190
ler 190
restaurant 188
helmet 187
against 187
or@@ 186
shirts 185
train 185
team 185
au@@ 184
window 183
no@@ 183
ge@@ 183
ces 182
bri@@ 181
rides 181
qu@@ 180
up@@ 180
bar@@ 179
pe 179
they 178
cha@@ 178
set 178
ci@@ 178
about 177
ice 176
ru@@ 175
der 175
trees 174
wooden 173
five 173
having 173
waiting 173
outdoor 173
bag 172
stre@@ 171
very 170
swimming 169
getting 168
el@@ 167
floor 166
trying 165
truck 165
pic@@ 164
skateboard 163
colorful 163
um@@ 163
ders 163
ten@@ 162
com@@ 162
over@@ 161
hill 161
ke@@ 161
blo@@ 161
ic@@ 161
su@@ 160
busy 160
singing 159
ss@@ 159
fence 159
book 159
low 158
jump 157
ion 157
track 157
market 156
slee@@ 156
cart 154
ther 154
pre@@ 153
ga@@ 152
ats 152
sc@@ 151
ride 151
laying 150
ger 150
x@@ 150
inside 150
hats 149
col@@ 149
high 148
pat@@ 147
tan 147
bright 147
tur@@ 147
ant 146
dan@@ 146
ou@@ 145
others 145
kitchen 145
ty 145
cap 145
cellphone 144
rea@@ 144
body 144
san@@ 144
path 144
grassy 144
dra@@ 144
whe@@ 144
big 143
someone 143
ght 143
on@@ 143
making 142
age 142
lu@@ 142
sin@@ 141
bus 141
cing 141
mi@@ 141
wi@@ 141
clothes 141
um 141
phone 140
takes 140
motorcycle 140
bicyc@@ 140
bro@@ 139
gar@@ 139
tu@@ 139
umbrella 139
tr@@ 138
dy 138
night 138
towards 138
ings 138
full 138
outfit 138
shop 138
dri@@ 137
enjoying 137
brick 137
fli@@ 136
colored 135
metal 135
cra@@ 135
pla@@ 134
il 134
river 134
jo@@ 134
gging 134
hea@@ 134
gh@@ 134
swing 134
da@@ 134
ying 133
piece 133
paper 133
na@@ 133
ready 133
ha@@ 133
ni@@ 133
shes 132
stone 132
cat@@ 132
ses 132
ani@@ 132
she 131
ded 131
coun@@ 130
han@@ 129
arm 129
tank 129
photograp@@ 129
shing 128
cor@@ 128
ning 128
ent 128
surf@@ 128
house 127
cro@@ 127
flo@@ 127
-haired 127
ki@@ 127
ac@@ 127
open 126
fol@@ 126
mov@@ 126
ssing 126
worker 126
sweater 126
du@@ 125
trick 125
painting 124
tic@@ 124
above 124
stick 124
kne@@ 124
xing 124
sed 123
mat@@ 123
lake 123
mer 123
gra@@ 123
adults 122
american 122
going 122
ath@@ 122
music 121
like 121
back@@ 121
pro@@ 121
ard 121
sw@@ 121
fe 121
hard 120
ate 120
vest 120
snowy 120
oun@@ 120
ban@@ 120
run 120
dance 120
thro@@ 120
surrounded 119
rou@@ 119
ons 119
wave 119
lot 119
shopping 119
wal@@ 118
ned 118
head@@ 118
uniforms 118
onto 118
ner 118
cti@@ 117
ver 117
outdoors 117
crowded 117
fu@@ 117
ep 117
stri@@ 117
poin@@ 117
el 116
lan@@ 116
fire 116
ved 116
photo 116
brea@@ 115
backpack 115
beside 115
teen@@ 115
smiles 115
gear 115
rt 115
cking 114
ap@@ 114
kid 114
cur@@ 114
the@@ 114
ched 113
ble 113
pole 113
hockey 112
fla@@ 112
subway 112
african 112
squ@@ 112
ll 112
drinking 112
water@@ 112
ob@@ 111
family 111
sur@@ 111
yard 111
stu@@ 110
plan@@ 110
bridge 110
sca@@ 110
iling 110
gg@@ 110
ft 110
flowers 110
toddler 109
tro@@ 109
wel@@ 109
dle 109
guys 108
rope 108
arms 108
snow@@ 108
sun@@ 108
gathered 108
event 108
police 107
ste@@ 107
shoes 107
hanging 107
ju@@ 106
ars 106
catch 106
dis@@ 106
away 106
ben@@ 106
ped 106
ssi@@ 106
ction 106
bir@@ 106
tou@@ 106
preparing 105
beautiful 105
pan@@ 105
ot@@ 105
cam@@ 105
spe@@ 105
ating 104
ary 104
stra@@ 104
swim@@ 104
list 104
ry 104
tion 104
ff@@ 103
tables 103
object 103
steps 103
od@@ 103
sleeping 103
sli@@ 103
costume 103
2 103
offic@@ 103
leaning 103
spo@@ 102
ring 102
fore@@ 102
after 102
fishing 102
run@@ 102
attemp@@ 102
racing 102
ad@@ 101
sil@@ 101
machine 101
vel@@ 100
fountain 100
plaid 100
bar 100
ine 99
shirtless 99
he@@ 99
x 99
lar 99
stairs 99
wood 98
ver@@ 98
take 98
py 98
chairs 98
ve@@ 97
scu@@ 97
adult 97
fire@@ 96
rocks 96
ja@@ 96
et@@ 96
gre@@ 96
pes 95
spea@@ 95
lou@@ 94
selling 94
cross 94
sunny 94
door 94
graffiti 94
spor@@ 94
ct 93
does 93
glass 93
ir 93
forest 93
setting 92
cre@@ 92
pon@@ 92
pose 92
parade 92
hap@@ 91
els 91
tall 91
clu@@ 91
time 91
males 90
rin@@ 90
she@@ 90
ea@@ 90
putting 90
stic@@ 90
get 90
both 90
corner 90
volleyball 90
figh@@ 89
pushing 89
haired 89
je@@ 89
throwing 89
loo@@ 89
frisbee 89
scarf 89
ral 89
view 89
bra@@ 89
ne 89
art 88
have 88
bow@@ 88
slide 88
ladies 88
drink 88
between 88
mal 88
public 87
ins 87
bed 87
laughing 87
cle@@ 87
star@@ 87
per@@ 87
short 87
computer 87
kes 87
min@@ 87
sig@@ 87
instruments 86
flag 86
cal 86
ure 86
ters 86
equipment 86
din@@ 86
ese 86
perform@@ 86
ets 85
mul@@ 85
fish 85
pping 85
couch 85
shoul@@ 85
where 85
prote@@ 85
pictures 85
bikes 85
mon@@ 85
tor@@ 84
plastic 84
phones 84
ke 84
ol@@ 84
cowboy 84
sco@@ 84
ramp 84
mer@@ 84
party 84
which 83
playground 83
works 83
bat@@ 83
try 83
op 83
gol@@ 83
sweatshirt 83
res 83
poses 83
trail 83
woods 83
reads 83
climb@@ 82
sun 82
skirt 82
concrete 82
under@@ 82
statue 82
beard 82
dr@@ 82
air@@ 82
pur@@ 81
lone 81
fo@@ 81
win@@ 81
bik@@ 81
dock 81
dit@@ 81
sses 81
midair 81
winter 81
j@@ 80
ining 80
ligh@@ 80
cyc@@ 80
number 80
rist@@ 80
suits 80
just 80
compe@@ 80
lling 79
hik@@ 79
ty@@ 79
seated 79
inter@@ 79
row 79
foot 79
scope 79
sting 79
im 78
mas 78
ran@@ 78
emp@@ 78
distance 78
lined 78
sky 77
attire 77
toward 77
por@@ 77
what 77
bags 77
rain 77
des@@ 77
beer 76
site 76
six 76
den@@ 76
team@@ 76
enjo@@ 76
vel 76
nat@@ 76
cooking 76
scre@@ 76
har@@ 76
musici@@ 76
place 76
ing@@ 76
school 76
tal@@ 75
ka@@ 75
cour@@ 75
blan@@ 75
right 75
vests 75
me 75
plat@@ 75
val 75
cutting 75
wr@@ 75
cheer@@ 75
blond-hair 75
bask@@ 75
filled 75
rider 75
br@@ 75
ance 74
ery 74
buildings 74
shore 74
left 74
mas@@ 74
pulling 74
tent 74
mil@@ 74
ame 74
tatto@@ 73
dding 73
ski@@ 73
mother 73
od 73
cream 73
middle-aged 73
long@@ 73
iting 73
vege@@ 73
station 72
dark@@ 72
skateboarder 72
fen@@ 72
crossing 72
cliff 72
friends 72
net 72
wrest@@ 72
lin@@ 72
den 72
appears 72
rela@@ 72
edge 71
showing 71
instrument 71
bub@@ 71
spectators 71
mountains 71
few 71
th 71
cer@@ 71
bearded 70
wn@@ 70
pad@@ 70
horses 70
bathing 70
jersey 70
go 70
show 70
str@@ 70
cars 70
sol@@ 70
pul@@ 69
nearby 69
elec@@ 69
ms 69
performs 69
dresses 69
make 69
court 69
driving 68
ctor 68
swe@@ 68
grill 68
concert 68
bowling 68
ny 68
carries 68
apron 68
can 68
perform 68
mers 68
ol 68
lists 68
cal@@ 68
box 68
snowboarder 68
fruit 67
ket 67
form 67
hand@@ 67
arts 67
leaves 67
uses 67
painted 66
structure 66
coffee 66
wh@@ 66
ple 66
bb@@ 66
of@@ 66
son 66
parked 66
vendor 66
flower 66
various 66
cigarette 66
boots 66
tele@@ 66
students 66
fin@@ 66
cake 65
cup 65
vehicle 65
nic 65
msel@@ 65
gentleman 65
strol@@ 65
bikin@@ 65
kic@@ 65
pped 65
no 65
goggles 65
eling 65
bru@@ 65
younger 65
boo@@ 65
arti@@ 65
id 65
mir@@ 65
smile 65
shot 65
ag@@ 65
med 65
surfer 65
der@@ 64
gymna@@ 64
balan@@ 64
ity 64
bottle 64
flying 64
ham@@ 64
ick@@ 64
lit 64
martial 64
drums 64
bor@@ 64
talks 64
hal@@ 64
smoking 64
new 63
kicking 63
ya@@ 63
flags 63
dire@@ 63
home 63
eyes 63
sen@@ 63
rai@@ 63
bles 63
hit 63
top@@ 63
dru@@ 63
pin@@ 63
ally 63
spla@@ 63
lying 63
lly 63
roller@@ 63
waves 62
safety 62
rocky 62
ges 62
mb@@ 62
paint 62
swinging 62
ered 62
hood@@ 62
ies 62
coming 62
newspaper 62
alley 62
jackets 62
but@@ 62
micro@@ 62
ie 62
rodeo 62
prepares 62
case 61
rest@@ 61
bla@@ 61
ban 61
conversation 61
red-@@ 61
gather 61
different 61
parking 61
bucket 61
tin@@ 61
ghtly 61
practicing 61
chin@@ 61
costumes 61
gloves 61
ster 61
skating 61
indian 61
cket 61
ladder 60
cleaning 60
bunch 60
scene 60
ards 60
competition 60
dv@@ 60
roof 60
ates 60
listening 60
hold 60
cen@@ 60
fal@@ 60
ional 60
cement 60
spra@@ 60
bull 60
wait 59
tie 59
gro@@ 59
wet 59
lp@@ 59
memb@@ 59
wor@@ 59
skier 59
items 59
onlookers 59
skateboarding 59
ors 59
her@@ 59
staring 59
do 58
individu@@ 58
t-@@ 58
ely 58
pile 58
boar@@ 58
dience 58
3 58
yc@@ 58
viol@@ 58
cir@@ 57
conver@@ 57
ture 57
coo@@ 57
sit@@ 57
sle@@ 57
lap@@ 57
; 57
drin@@ 57
mets 57
ak@@ 56
ven 56
bur@@ 56
gather@@ 56
ked 56
man@@ 56
motorc@@ 56
cer 56
lar@@ 55
gh 55
lie 55
stop 55
pr@@ 55
sse@@ 55
cli@@ 55
tes 55
sine@@ 55
tat@@ 55
bi@@ 54
dl@@ 54
us@@ 54
ated 54
ad 54
va@@ 54
gy@@ 54
des 54
uni@@ 54
ov@@ 53
smo@@ 53
dal@@ 53
vy 53
cou@@ 53
pol@@ 53
color@@ 53
gri@@ 52
tly 52
tre@@ 52
ile 52
ple@@ 52
bot@@ 52
ind 52
produ@@ 52
bare@@ 51
tun@@ 50
ele@@ 50
hor@@ 50
sup@@ 49
la 49
hou@@ 49
proje@@ 49
rol@@ 49
ging 49
ere 49
ite 49
alle@@ 49
scen@@ 48
ily 48
blond-@@ 48
ound 48
wood@@ 48
pain@@ 48
ton 48
outf@@ 48
wat@@ 48
slo@@ 47
box@@ 47
per 47
dge 47
jum@@ 47
ori@@ 47
sty@@ 47
oper@@ 46
ence 46
stro@@ 46
mal@@ 46
frien@@ 46
ill 46
am 45
stic 45
bel@@ 45
ous 45
sel@@ 45
pou@@ 44
tru@@ 44
ven@@ 44
ming 44
brunet@@ 44
aring 44
umbrel@@ 44
ugh@@ 44
para@@ 44
mod@@ 44
rying 43
pl@@ 43
guit@@ 43
1@@ 43
play@@ 42
ey@@ 42
itch@@ 42
moto@@ 42
stadi@@ 42
d-@@ 42
musi@@ 42
post@@ 42
em 41
deo 41
nu@@ 41
let 40
mach@@ 40
za 40
bea@@ 40
vice 40
sna@@ 40
v 39
spec@@ 39
work@@ 39
vie@@ 39
out@@ 39
lad@@ 39
tal 39
lon@@ 39
cover@@ 38
prep@@ 38
wo@@ 38
tw@@ 38
make@@ 38
lid@@ 38
profe@@ 38
fil@@ 37
carri@@ 37
len@@ 37
cho@@ 37
bun@@ 36
vol@@ 36
karate 36
dre@@ 36
&apos; 36
im@@ 36
ire 36
festi@@ 36
new@@ 36
tire 36
0@@ 36
nal 35
ym@@ 35
stan@@ 35
lun@@ 35
round 35
ler@@ 35
pen@@ 34
my 34
na 34
refle@@ 33
far@@ 33
trampo@@ 33
ening 33
sax@@ 33
ite@@ 33
ly@@ 33
ref@@ 33
io@@ 32
ot 32
re 32
ze 32
snowboar@@ 32
4 32
list@@ 32
soft@@ 31
lit@@ 31
even@@ 31
tor 31
kni@@ 31
bou@@ 31
ber@@ 31
fro@@ 30
motor@@ 30
tting 30
tle 30
appe@@ 30
nam@@ 30
pit@@ 30
thers 30
blu@@ 30
bran@@ 29
gentle@@ 29
ycle 29
tan@@ 29
stat@@ 29
nes 29
ket@@ 29
windo@@ 29
nice 28
let@@ 28
gen@@ 28
grou@@ 28
khaki 28
police@@ 28
pal@@ 28
ta 28
2@@ 28
camer@@ 27
apar@@ 27
fan@@ 27
ful 27
men@@ 27
sla@@ 26
nic@@ 26
ist@@ 26
umb@@ 26
dly 26
backpa@@ 26
laugh@@ 26
skateboar@@ 26
ik@@ 26
ou 25
sl@@ 25
5 25
vic@@ 25
studen@@ 25
off@@ 25
plo@@ 25
tow@@ 25
iny 25
nit@@ 25
tom 25
mob@@ 24
stru@@ 24
fru@@ 24
ff 24
asi@@ 24
ba 24
ren@@ 24
ka 24
pun@@ 24
ckets 24
jerse@@ 24
1 24
mid@@ 23
flow@@ 23
scar@@ 23
0 22
vehic@@ 22
sty 22
outh 22
uring 22
! 22
pos@@ 22
prac@@ 22
muz@@ 22
some@@ 21
sweat@@ 21
irs 21
( 21
ments 21
cell@@ 21
pra@@ 21
mp 21
pen 21
shor@@ 21
ech 21
surroun@@ 21
fet@@ 21
colo@@ 20
) 20
ich 20
pho@@ 20
ma 20
rough 20
vo@@ 20
sy@@ 19
af@@ 19
mounta@@ 19
sof@@ 19
om 19
vendo@@ 19
ab@@ 19
ther@@ 18
mall 18
ky 18
sou@@ 18
pie@@ 18
co 18
cow@@ 18
lean@@ 18
side@@ 18
tures 17
ssy 17
buil@@ 17
afri@@ 17
ree 17
crow@@ 17
by@@ 17
sle 17
ue 17
del@@ 17
ckey 17
ten 16
sm@@ 16
&@@ 16
compu@@ 16
instru@@ 16
are@@ 16
ggles 16
obje@@ 16
&apos;@@ 16
3@@ 15
roun@@ 15
yel@@ 15
sub@@ 15
pod 15
americ@@ 15
.@@ 15
indi@@ 15
os@@ 15
fiel@@ 15
fou@@ 14
sno@@ 14
ut@@ 14
cture 14
news@@ 14
hud@@ 14
mp@@ 14
shir@@ 14
foot@@ 13
hy 13
stance 13
stran@@ 13
competit@@ 13
aut@@ 13
u 13
gla@@ 13
base@@ 13
ti 13
oran@@ 13
floo@@ 13
8 13
numb@@ 13
form@@ 12
ate@@ 12
dy@@ 12
ry@@ 12
cloth@@ 12
aged 12
lov@@ 12
bod@@ 12
hol@@ 12
6 12
5@@ 12
tod@@ 11
constru@@ 11
ok@@ 11
j 11
dar@@ 11
roma@@ 11
khak@@ 11
vat@@ 11
raz@@ 11
practic@@ 11
graffit@@ 11
kers 11
prepar@@ 11
thing 10
zen@@ 10
vari@@ 10
o-@@ 10
cel@@ 10
sti@@ 10
vest@@ 10
9@@ 10
py@@ 10
# 10
apro@@ 9
da 9
ip@@ 9
fri@@ 9
hind 9
scho@@ 9
z 9
stum@@ 9
bli@@ 9
4@@ 9
kar@@ 8
ounta@@ 8
za@@ 8
shou@@ 8
- 8
cke@@ 8
ko@@ 8
9 7
rav@@ 7
slu@@ 7
sy 7
mic@@ 7
gir@@ 7
zi@@ 7
cigaret@@ 7
lat@@ 7
tu 7
get@@ 7
? 7
equ@@ 7
chil@@ 7
fron@@ 7
mi 7
poli@@ 7
7 7
8@@ 7
6@@ 7
ze@@ 7
vy@@ 6
fam@@ 6
ku@@ 6
inging 6
ps@@ 6
ffe@@ 6
ling@@ 6
dle@@ 6
ha 6
fit 6
ami 6
wit@@ 6
near@@ 6
metr@@ 5
youn@@ 5
sat@@ 5
spectat@@ 5
xt 5
bee 5
basket@@ 5
kla@@ 5
uli@@ 5
lo 5
pro 5
les@@ 5
middle-@@ 5
tit@@ 5
var@@ 5
q 4
kitch@@ 4
bear@@ 4
di 4
sta 4
restaur@@ 4
peop@@ 4
equip@@ 4
mr@@ 4
cky 4
dings 4
auti@@ 4
bic@@ 4
dler 3
adul@@ 3
mik@@ 3
tle@@ 3
onloo@@ 3
vou@@ 3
cy@@ 3
ired 3
: 3
chy 3
du 3
obli@@ 3
sv@@ 3
aga@@ 3
lem 3
va 3
nov@@ 3
nan@@ 3
val@@ 3
smi@@ 3
beauti@@ 3
tial 3
blon@@ 3
dob@@ 2
van@@ 2
fris@@ 2
dul@@ 2
dle-@@ 2
hle@@ 2
,@@ 2
li 2
vo 2
lavi@@ 2
volle@@ 2
oce@@ 2
my@@ 2
chu 2
% 2
si 2
mpo@@ 2
slun@@ 2
vr@@ 2
tech 2
hoke@@ 2
uniform@@ 1
irt 1
ci 1
zat@@ 1
conversat@@ 1
polo@@ 1
dem 1
lou 1
publi@@ 1
shro@@ 1
spou@@ 1
kou@@ 1
plast@@ 1
mu 1
kor@@ 1
nu 1
twe@@ 1
kan@@ 1
cigar@@ 1
rov@@ 1
again@@ 1
skate@@ 1
auto 1
zd@@ 1
rou 1
eli 1
dresse@@ 1
q@@ 1
kra@@ 1
ec 1
7@@ 1
tem 1
concre@@ 1
$ 1
brun@@ 1
mobil@@ 1
ji 1
ffee 1
ho 1
ffer@@ 1
hla@@ 1
hr@@ 1
nis 1
jer@@ 1
stup@@ 1
fon@@ 1
hic@@ 1
zu 1
fia@@ 1
differ@@ 1
kaz@@ 1
ruce 1
tograp@@ 1
= 1
