a 49281
. 27633
in 14957
the 10959
on 8148
man 7818
is 7541
and 7381
of 6867
with 6179
woman 3976
, 3963
two 3877
are 3726
to 3130
people 3121
at 2960
an 2947
wearing 2623
young 2280
white 2223
shirt 2132
black 2003
his 1969
while 1947
blue 1871
men 1783
sitting 1743
red 1736
girl 1728
boy 1689
dog 1681
standing 1614
playing 1584
group 1552
street 1445
down 1392
walking 1378
front 1276
her 1264
holding 1237
one 1098
water 1061
by 1060
three 1055
women 988
up 940
green 924
little 915
for 906
looking 895
child 894
as 883
outside 871
large 841
through 813
yellow 781
children 768
brown 766
person 753
ball 735
hat 728
from 728
their 725
into 711
small 671
next 664
other 660
dressed 642
out 639
some 625
over 611
building 603
riding 584
running 581
near 571
jacket 566
around 562
another 562
field 536
sidewalk 534
orange 524
crowd 521
beach 520
stands 498
sits 493
pink 493
jumping 491
table 491
behind 489
grass 468
background 460
snow 459
stand 451
bike 449
city 447
&apos;s 444
girls 441
air 439
player 429
top 427
looks 423
asian 421
wall 417
dogs 406
several 404
that 404
older 403
four 400
off 396
dress 396
camera 393
park 387
talking 382
lady 380
something 380
soccer 375
walks 371
along 370
guitar 367
working 365
boys 364
hair 364
play 362
together 361
food 357
smiling 353
gray 343
game 340
picture 340
has 339
it 337
plays 331
car 329
hand 327
holds 322
pants 315
bench 314
road 314
him 312
side 311
old 309
glasses 306
shorts 304
sit 303
stage 303
walk 303
carrying 300
couple 299
baby 299
them 290
bicycle 287
face 281
&quot; 280
male 279
tree 279
race 279
pool 278
taking 275
rock 273
each 272
doing 267
watching 261
head 261
across 261
guy 260
jeans 259
dirt 259
there 259
area 258
boat 258
day 256
blond 252
jumps 250
back 248
hands 248
ground 246
female 245
room 245
performing 241
baseball 238
who 237
eating 236
ed 234
coat 233
using 233
being 233
striped 232
suit 231
football 229
band 226
kids 225
watch 225
its 224
under 224
many 223
a@@ 223
or 223
store 222
horse 222
mouth 221
purple 221
he 220
sign 219
long 217
this 216
look 214
sand 213
runs 212
tennis 212
reading 210
players 209
sunglasses 208
construction 208
clothing 203
microphone 202
mountain 200
toy 198
ocean 198
dark 198
basketball 198
during 197
workers 197
re@@ 195
middle 194
watches 194
climbing 193
be 193
t-shirt 193
uniform 192
past 191
elderly 190
work 190
ing 188
restaurant 188
s 188
helmet 187
against 187
y 186
es 186
train 185
team 185
window 183
dancing 183
rides 181
they 178
chair 178
posing 177
about 177
c@@ 176
all 175
covered 175
trees 174
wooden 173
five 173
having 173
waiting 173
outdoor 173
bag 172
ers 171
very 170
swimming 169
getting 168
floor 166
trying 165
line 164
ice 163
skateboard 163
colorful 163
busy 160
-@@ 160
shirts 159
singing 159
fence 159
jump 157
e@@ 154
cart 154
light 151
ride 151
book 151
laying 150
inside 150
hats 149
market 149
hill 149
high 148
truck 148
bright 147
tan 146
in@@ 145
body 145
others 145
kitchen 145
cap 145
cellphone 144
path 144
grassy 144
big 143
someone 143
making 142
night 141
bus 141
clothes 141
takes 140
motorcycle 140
umbrella 139
towards 138
full 138
outfit 138
track 137
enjoying 137
brick 137
metal 135
river 134
swing 134
piece 133
paper 133
ready 133
o@@ 132
board 132
she 131
i@@ 130
tank 129
shop 128
colored 127
ds 127
d@@ 127
open 126
worker 126
sweater 126
trick 125
painting 124
above 124
stick 124
lake 123
adults 122
going 122
music 121
d 121
hard 120
house 120
vest 120
snowy 120
run 120
dance 120
surrounded 119
phone 119
wave 119
shopping 119
stone 118
uniforms 118
onto 118
outdoors 117
crowded 117
photo 116
e 115
backpack 115
beside 115
smiles 115
gear 115
set 115
s@@ 114
kid 114
con@@ 113
pole 113
hockey 112
subway 112
african 112
drinking 112
di@@ 112
family 111
bridge 110
american 110
flowers 110
toddler 109
p 109
guys 108
fire 108
ts 108
lot 108
gathered 108
event 108
police 107
arms 107
hanging 107
ly 106
catch 106
away 106
preparing 105
beautiful 105
ra@@ 104
g@@ 104
ca@@ 104
object 103
steps 103
sleeping 103
costume 103
de@@ 103
leaning 103
like 102
after 102
fishing 102
machine 101
ting 101
p@@ 101
rope 100
co@@ 100
fountain 100
plaid 100
bar 100
er 99
shirtless 99
po@@ 99
stairs 99
take 98
chairs 98
arm 97
adult 97
l 97
rocks 96
shoes 96
selling 94
sunny 94
ti@@ 94
t@@ 94
graffiti 94
does 93
b@@ 93
glass 93
forest 93
setting 92
pose 92
parade 92
racing 92
tall 91
k 91
wood 90
m@@ 90
putting 90
un@@ 90
both 90
corner 90
volleyball 90
ve 89
pushing 89
throwing 89
frisbee 89
2 89
view 89
o 89
have 88
ri@@ 88
slide 88
lo@@ 88
ladies 88
drink 88
between 88
ding 87
w@@ 87
public 87
laughing 87
short 87
computer 87
to@@ 87
instruments 86
flag 86
do@@ 86
equipment 86
ex@@ 86
al 85
ps 85
fish 85
bed 85
couch 85
pictures 85
bikes 85
way 84
plastic 84
cowboy 84
ramp 84
party 84
which 83
playground 83
i 83
works 83
u@@ 83
sweatshirt 83
poses 83
trail 83
woods 83
reads 83
yard 83
sun 82
skirt 82
concrete 82
statue 82
ro@@ 82
beard 82
li@@ 82
be@@ 81
dock 81
y@@ 81
t 81
midair 81
winter 81
so@@ 80
number 80
just 80
led 80
seated 79
an@@ 79
la@@ 78
pa@@ 78
distance 78
lined 78
ma@@ 78
attire 77
toward 77
sh 77
where 77
get 77
what 77
sh@@ 77
bags 77
beer 76
six 76
cooking 76
der 76
school 76
right 75
vests 75
v@@ 75
cutting 75
blond-hair 75
filled 75
rider 75
buildings 74
cross 74
shore 74
left 74
pulling 74
tent 74
c 74
st 74
mo@@ 73
mother 73
cream 73
middle-aged 73
se 73
station 72
sky 72
skateboarder 72
crossing 72
cliff 72
friends 72
ter 72
net 72
appears 72
se@@ 71
me@@ 71
edge 71
showing 71
instrument 71
les 71
pe@@ 71
spectators 71
mountains 71
few 71
bearded 70
art 70
horses 70
ons 70
pro@@ 70
jersey 70
show 70
si@@ 70
cars 70
nearby 69
scarf 69
suits 69
ted 69
performs 69
dresses 69
make 69
court 69
driving 68
grill 68
concert 68
al@@ 68
bowling 68
carries 68
apron 68
perform 68
box 68
snowboarder 68
fruit 67
time 67
arts 67
leaves 67
painted 66
structure 66
coffee 66
parked 66
vendor 66
flower 66
various 66
cigarette 66
ck 66
boots 66
uses 66
students 66
cake 65
cup 65
hand@@ 65
vehicle 65
gentleman 65
car@@ 65
goggles 65
younger 65
smile 65
shot 65
surfer 65
son 64
bottle 64
flying 64
door 64
g 64
lit 64
martial 64
drums 64
talks 64
lying 64
smoking 64
new 63
kicking 63
flags 63
home 63
eyes 63
on@@ 63
bathing 63
ling 63
no 63
hit 63
st@@ 63
vi@@ 63
waves 62
safety 62
it@@ 62
rocky 62
ls 62
sa@@ 62
paint 62
swinging 62
ar@@ 62
coming 62
newspaper 62
jackets 62
rodeo 62
prepares 62
f@@ 62
rain 62
le 61
conversation 61
ba@@ 61
ce 61
gather 61
different 61
parking 61
bucket 61
practicing 61
costumes 61
gloves 61
indian 61
ladder 60
cleaning 60
bunch 60
scene 60
competition 60
roof 60
en@@ 60
listening 60
cement 60
at@@ 60
bull 60
wait 59
tie 59
wet 59
blanket 59
items 59
can 59
onlookers 59
skateboarding 59
staring 59
le@@ 59
balloon 58
do 58
meal 58
pile 58
bikini 58
lawn 58
railing 58
audience 58
ches 58
bicycles 58
giving 58
hold 58
empty 58
3 58
bu@@ 58
fi@@ 58
sc@@ 58
desk 58
cu@@ 57
ta@@ 57
leaps 57
sp@@ 57
pre@@ 57
cra@@ 57
drinks 57
military 57
go 57
ci@@ 57
gets 57
hot 57
w 56
h@@ 56
sliding 56
country 56
gathering 56
bird 56
ch@@ 56
display 56
sing 56
king 56
sports 56
vegetables 56
pointing 56
class 55
wedding 55
bowl 55
facing 55
stop 55
feet 55
ble 55
streets 55
chasing 55
biker 55
before 55
competing 55
platform 54
ated 54
huge 54
helmets 54
speaking 54
mask 54
n@@ 54
basket 54
silver 53
bride 53
skier 53
ying 53
tries 53
lights 53
ging 53
pass 53
match 53
surfing 53
classroom 53
teams 53
purse 52
climbs 52
father 52
seen 52
ke 52
de 52
alley 52
traditional 52
end 52
same 52
ski 52
waits 52
sings 52
surfboard 52
place 52
marathon 52
fighting 51
urban 51
rail 51
ks 51
fla@@ 51
bo@@ 51
kissing 51
m 51
counter 51
screen 51
low 51
or@@ 51
ping 51
gold 51
animal 51
musicians 51
stroller 50
break 50
skating 50
th@@ 50
females 50
walkway 49
site 49
hole 49
shoulder 49
lap 49
kneeling 49
happy 49
pi@@ 49
ded 49
sunset 49
throw 49
runner 49
writing 49
talk 48
waving 48
mi@@ 48
blowing 48
scooter 48
bald 48
christmas 48
business 48
attempting 48
sort 48
violin 48
us 48
tables 47
cre@@ 47
overlooking 47
made 47
tri@@ 47
course 47
cking 47
ces 47
outfits 47
ni@@ 47
signs 47
l@@ 47
ar 46
blond-haired 46
ure 46
ster 46
bubbles 46
says 46
ho@@ 46
artist 46
officer 46
mirror 46
giant 45
leans 45
balloons 45
fixing 45
b 45
cked 45
chinese 45
cal 45
base 45
n 45
life 45
close 45
alone 44
swim 44
faces 44
teenage 44
ched 44
brunette 44
helping 44
wheel 44
cafe 44
fe@@ 44
te@@ 44
plate 44
leg 44
collar 44
foreground 44
gym 44
over@@ 44
leather 44
umbrellas 44
electric 43
mud 43
asleep 43
su@@ 43
wi@@ 43
enjoy 43
sticks 43
mar@@ 43
clown 43
legs 43
brightly 43
meat 43
dancers 43
ss@@ 43
skate 43
headphones 43
washing 42
snow@@ 42
sandals 42
golf 42
ring 42
among 42
am@@ 42
back@@ 42
swings 42
makes 42
officers 42
office 42
diving 42
falling 42
stadium 42
bat 42
passing 42
wears 42
multicolored 41
goal 41
dark-haired 41
held 41
dirty 41
church 41
for@@ 41
friend 41
toys 41
; 41
balls 41
barefoot 41
hiking 41
musical 41
heads 41
stri@@ 41
skiing 41
photographer 41
doorway 41
males 40
van 40
el@@ 40
singer 40
ins 40
no@@ 40
reaching 40
ating 40
drawing 40
row 40
video 40
leash 40
ders 40
laptop 40
accordion 40
throws 40
go@@ 40
ru@@ 40
er@@ 40
canoe 40
picking 40
traffic 40
cloth 40
sts 40
ment 40
below 39
flo@@ 39
squ@@ 39
sun@@ 39
r@@ 39
move 39
bar@@ 39
shallow 39
members 39
relaxing 39
ws 39
daughter 39
performance 39
digging 39
well 39
catching 38
pan@@ 38
blo@@ 38
tunnel 38
moving 38
hugging 38
ved 38
atop 38
flip 38
shovel 38
catches 38
gives 38
cat 38
microscope 38
square 38
sta@@ 38
passes 38
sting 38
foot 38
bicyclist 38
tra@@ 38
gate 37
tattoo 37
sweeping 37
resting 37
ation 37
prepare 37
lab 37
ch 37
sleeps 37
rolling 37
ge 37
kick 37
sed 37
shows 37
sled 37
garden 37
gu@@ 37
climb 37
tro@@ 37
lone 37
paved 37
cks 37
fun 37
deep 37
man@@ 37
chef 37
ss 37
drum 37
pping 37
leaping 37
stunt 37
flies 37
here 37
we@@ 36
hose 36
pond 36
sculpture 36
ct@@ 36
individuals 36
lies 36
cor@@ 36
trunks 36
cur@@ 36
cting 36
desert 36
ad@@ 36
karate 36
wear 36
lots 36
&apos; 36
ats 36
beige 36
hoodie 36
splashing 36
upside 36
cold 36
conversing 36
ves 36
teeth 36
coats 36
photograph 36
jogging 35
hi@@ 35
how 35
wrestling 35
ms 35
customers 35
these 35
fa@@ 35
pier 35
telescope 35
closed 35
town 35
round 35
formal 35
ine 35
gun 35
points 35
underneath 35
tire 35
block 35
plants 35
k@@ 34
ker 34
local 34
mat 34
cane 34
cyclist 34
opposing 34
themselves 34
project 34
roller 34
without 34
shoulders 34
carnival 34
per@@ 34
cut 34
dances 34
hiker 34
spe@@ 34
waters 34
eat 34
he@@ 34
including 34
shoe 34
circle 33
ur@@ 33
crosswalk 33
seat 33
straw 33
crying 33
pulled 33
infant 33
wooded 33
mural 33
che@@ 33
stra@@ 33
dinner 33
fight 33
tricks 33
trampoline 33
makeup 33
matching 33
racket 33
ce@@ 33
ste@@ 33
taken 33
ses 33
produce 33
ely 33
runners 33
stuffed 32
bi@@ 32
driver 32
picnic 32
gymnast 32
covering 32
booth 32
cro@@ 32
rest 32
sewing 32
gs 32
books 32
cted 32
nose 32
ching 32
dra@@ 32
tes 32
als 32
shed 32
bicyclists 32
athlete 32
ors 32
bra@@ 32
trash 32
opening 32
gra@@ 32
4 32
attempts 32
performer 32
surface 32
da@@ 32
jo@@ 32
lays 31
boxes 31
blouse 31
himself 31
hikers 31
dri@@ 31
sandy 31
softball 31
chases 31
cow 31
hammer 31
goes 31
lan@@ 31
center 31
il@@ 31
fo@@ 31
slope 31
balcony 31
teenagers 31
mu@@ 31
pushes 31
lunch 31
help 31
pedestrians 31
style 31
third 31
oriental 31
gi@@ 31
tu@@ 31
cheerleaders 31
use 31
pitcher 31
qu@@ 30
not 30
staircase 30
ug@@ 30
puts 30
log 30
skis 30
seven 30
wing 30
turn 30
indoor 30
device 30
x 30
bent 30
club 30
mat@@ 30
pulls 30
ous 30
neck 30
deck 30
robe 30
ne@@ 30
sha@@ 30
speaks 30
kind 30
overalls 29
gro@@ 29
per 29
evening 29
boats 29
wetsuit 29
pp@@ 29
sco@@ 29
heavy 29
gentlemen 29
min@@ 29
enjoys 29
swims 29
wa@@ 29
hoop 29
drives 29
te 29
d-@@ 29
shaking 29
chi@@ 29
festival 29
bri@@ 29
grocery 29
fallen 29
marching 29
lea@@ 29
dancer 29
sheet 28
pouring 28
kayak 28
nice 28
ledge 28
ges 28
jean 28
ped 28
kicks 28
ship 28
red-haired 28
porch 28
et 28
brown-haired 28
puddle 28
lift 28
pot 28
protective 28
water@@ 28
type 28
stream 28
ction 28
tracks 28
khaki 28
garb 28
see 28
fingers 28
win@@ 28
waterfall 28
wrapped 28
cloudy 28
fair 28
hangs 28
golden 28
shaving 28
robes 28
ate 28
foreign 28
steep 28
native 28
clear 28
laundry 28
teenager 28
poles 27
sale 27
paddling 27
app@@ 27
shoveling 27
reaches 27
try 27
bread 27
luggage 27
moves 27
eye 27
ut@@ 27
blocks 27
red-hair 27
ked 27
ters 27
ful 27
e-@@ 27
saxophone 27
birds 27
des 27
checking 27
opposite 27
attached 27
palm 27
backyard 27
sea 27
kes 27
put 27
arena 27
shooting 27
podium 27
soldiers 27
skirts 27
spi@@ 27
piano 27
colors 27
boun@@ 27
airplane 27
ct 27
j@@ 26
part 26
goalie 26
inflatable 26
dd@@ 26
mound 26
clean 26
land 26
ant 26
denim 26
curb 26
tops 26
wine 26
ph@@ 26
tongue 26
string 26
wheelchair 26
soldier 26
laugh 26
gre@@ 26
tion 26
z@@ 26
balancing 26
can@@ 26
windows 26
cones 26
kiss 26
camouflage 26
poster 26
pavement 26
image 26
sli@@ 26
pu@@ 26
polo 26
pipe 26
hula 26
bro@@ 26
rugby 26
tractor 25
happily 25
courtyard 25
eats 25
ans 25
col@@ 25
shade 25
bikers 25
ber@@ 25
frame 25
swimsuit 25
head@@ 25
ent 25
tools 25
sea@@ 25
railroad 25
5 25
com@@ 25
fall 25
walls 25
keyboard 25
student 25
juggling 25
stool 25
floating 25
musician 25
inter@@ 25
buying 25
step 25
york 25
curly 25
id 25
laughs 25
fresh 25
fast 25
fabric 25
ned 25
raft 25
ty 25
fans 25
mer@@ 25
motorcycles 25
married 25
bottom 25
flight 25
professional 25
riders 25
sport 25
sell 25
cyclists 25
bun@@ 24
you 24
backwards 24
plane 24
yo@@ 24
color 24
guard 24
ery 24
scaffolding 24
carriage 24
surf 24
cheering 24
pit 24
sized 24
plant 24
multiple 24
bubble 24
floral 24
closeup 24
ger 24
living 24
either 24
acoustic 24
garbage 24
bucking 24
pair 24
marketplace 24
pin@@ 24
tube 24
har@@ 24
groom 24
appear 24
hurdle 24
socks 24
touching 24
nap 24
cha@@ 24
spray 24
ops 24
suspended 24
cs 24
vers 24
th 24
knee 24
par@@ 24
shown 24
bandanna 24
ist 24
goods 24
vely 24
santa 24
pajamas 24
jerseys 24
stove 23
plaza 23
advertisement 23
kneels 23
wal@@ 23
magazine 23
fenced 23
dining 23
raised 23
underwater 23
hood 23
pped 23
sto@@ 23
direction 23
escalator 23
climber 23
cam@@ 23
pes 23
du@@ 23
elling 23
animals 23
bank 23
hooded 23
welding 23
caught 23
bs 23
but@@ 23
long-haired 23
ver 23
japanese 23
backpacks 23
serving 23
airport 23
dry 23
let 23
wer 23
bling 23
aring 23
sheep 23
german 23
paints 23
hay 23
landscape 23
towel 23
sti@@ 23
fully 23
ears 23
chain 23
sted 23
em@@ 23
operating 22
neon 22
read 22
grilling 22
scra@@ 22
ary 22
things 22
ur 22
wo@@ 22
ja@@ 22
bur@@ 22
shes 22
obstacle 22
vehicles 22
brush 22
summer 22
pit@@ 22
mom 22
brushing 22
op@@ 22
ear@@ 22
money 22
candy 22
gravel 22
wed 22
seems 22
ings 22
ze 22
boards 22
dro@@ 22
participating 22
amusement 22
bending 22
ea@@ 22
individual 22
cat@@ 22
post 22
shaped 22
checkered 22
thrown 22
! 22
ning 22
orchestra 22
teacher 22
au@@ 22
lines 22
ged 22
ic 22
referee 22
fu@@ 22
caucasian 22
decorated 22
athletic 22
bow 22
examining 22
ki@@ 22
age 22
bmx 22
defen@@ 22
ropes 21
ars 21
barbecue 21
atv 21
brea@@ 21
map 21
crouches 21
sol@@ 21
tub 21
war@@ 21
firefighters 21
ol@@ 21
bles 21
mobile 21
print 21
passengers 21
pri@@ 21
ul@@ 21
lin@@ 21
( 21
rowing 21
benches 21
peace 21
form@@ 21
ite 21
sk@@ 21
harness 21
ver@@ 21
compete 21
attempt 21
scuba 21
tur@@ 21
hitting 21
rests 21
turning 21
cone 21
me 21
feeding 21
sub@@ 21
good 21
heels 21
muddy 21
button 21
hallway 21
dol@@ 21
only 21
f 21
lu@@ 21
practice 21
tourists 21
chest 21
haircut 21
studio 21
presentation 21
photographs 21
sharing 21
sticking 21
t-shirts 21
wagon 21
ger@@ 21
sets 21
opponent 21
cker 21
ve@@ 21
rec@@ 21
racer 21
also 20
ler 20
machinery 20
wn 20
she@@ 20
et@@ 20
dish 20
hall 20
gas 20
pull 20
tor@@ 20
fro@@ 20
snowboard 20
garage 20
but 20
loading 20
cleans 20
fruits 20
) 20
wor@@ 20
eight 20
amp 20
tile 20
sandwich 20
jumpsuit 20
fin@@ 20
carpet 20
motocross 20
groups 20
ced 20
na@@ 20
stones 20
figure 20
ear 20
jungle 20
action 20
mustache 20
motorcyclist 20
ity 20
navy 20
we 20
sters 20
snowboarding 20
long-sleeved 20
ssion 20
wire 20
ner 20
craft 20
bars 20
out@@ 20
patio 20
pen 20
racetrack 20
ad 20
dr@@ 20
skateboards 20
y-@@ 20
fly 20
tool 20
sink 20
wide 20
policeman 20
headscarf 20
vo@@ 20
drummer 20
aged 20
speech 20
bathroom 20
turns 20
ge@@ 20
chase 20
guitars 20
viewing 20
start 20
je@@ 20
sses 20
sporting 20
kers 20
boxing 20
model 20
bushes 19
beam 19
dis@@ 19
gers 19
member 19
t-@@ 19
snow-covered 19
lane 19
ered 19
intersection 19
boardwalk 19
discussion 19
ming 19
case 19
ceiling 19
dge 19
baskets 19
swimmer 19
um@@ 19
res 19
routine 19
tw@@ 19
lar 19
fancy 19
ally 19
cing 19
museum 19
observe 19
beverage 19
ati@@ 19
tin@@ 19
stopped 19
narrow 19
atten@@ 19
coach 19
bath 19
half 19
petting 19
tag 19
great 19
indoors 19
shoot 19
gri@@ 19
dune 19
tents 19
ard 19
hillside 19
dark-skinned 19
slides 19
ahead 19
eastern 19
college 19
neighborhood 19
puck 19
crouching 19
cally 19
first 19
tattooed 19
possibly 19
x@@ 19
leaving 19
herself 19
smoke 19
cricket 19
assi@@ 19
trumpet 19
ry 19
medical 19
vendors 19
ck@@ 19
hol@@ 19
horseback 19
pla@@ 19
ac@@ 19
sells 19
slo@@ 18
entrance 18
saw 18
rubber 18
song 18
mixing 18
fire@@ 18
mall 18
folding 18
h 18
card 18
helps 18
pen@@ 18
gr@@ 18
hospital 18
hang 18
container 18
buy 18
fencing 18
bly 18
cans 18
clay 18
pl@@ 18
wheels 18
vil 18
ali@@ 18
ns 18
celebrating 18
birthday 18
squatting 18
nets 18
excited 18
ornate 18
youth 18
uniformed 18
cardboard 18
pieces 18
outstretched 18
apple 18
rela@@ 18
protest 18
lay 18
shepherd 18
tre@@ 18
sal@@ 18
bottles 18
puppy 18
guitarist 18
clo@@ 18
cts 18
live 18
hugs 18
position 18
army 18
va@@ 18
choir 18
funny 18
dishes 18
seats 18
r 18
buckets 18
air@@ 18
ys 18
maroon 18
mostly 18
up@@ 18
ut 18
skates 18
el 18
microphones 18
dy 17
reflective 17
balance 17
dire@@ 17
sword 17
flipping 17
doctor 17
pan 17
fil@@ 17
cla@@ 17
ven 17
stack 17
stru@@ 17
ga@@ 17
ribbon 17
handstand 17
cuts 17
derby 17
dreadlocks 17
ght 17
leading 17
apartment 17
colle@@ 17
fle@@ 17
ha@@ 17
sleeveless 17
backs 17
fisherman 17
space 17
coo@@ 17
stroll 17
sw@@ 17
stretching 17
doors 17
rink 17
pick 17
bear 17
rural 17
blows 17
bin 17
tered 17
spraying 17
vegetable 17
firetruck 17
rough 17
por@@ 17
tly 17
bowls 17
pine 17
more 17
cloth@@ 17
polka 17
belt 17
kn@@ 17
item 17
grinding 17
ethnic 17
moment 17
tattoos 17
conference 17
float 17
mohawk 17
stripes 17
stares 17
pil@@ 17
zing 17
library 17
uni@@ 17
got 17
unds 17
inspecting 17
comfor@@ 17
fol@@ 17
finish 17
calf 17
broom 17
coloring 17
swe@@ 17
smokes 17
heart 17
spinning 17
finger 17
jockey 17
scenery 17
tho@@ 17
ctors 17
furniture 17
ny 17
hair@@ 17
storefront 17
ates 17
ence 16
tied 16
broken 16
factory 16
candles 16
duck 16
approaching 16
smo@@ 16
0 16
intently 16
sweat@@ 16
batter 16
chefs 16
chalk 16
farm 16
ures 16
oping 16
spread 16
crane 16
flip-flops 16
castle 16
act 16
parents 16
il 16
beg@@ 16
ke@@ 16
discussing 16
&amp; 16
crew 16
ments 16
emergency 16
motorbike 16
mon@@ 16
barrel 16
houses 16
raises 16
fluffy 16
cap@@ 16
horn 16
warm 16
hotel 16
gui@@ 16
folded 16
balding 16
snack 16
banner 16
starting 16
bass 16
computers 16
dar@@ 16
pizza 16
lamp 16
balances 16
ft 16
free 16
fix 16
nighttime 16
television 16
jewelry 16
instru@@ 16
ance 16
kite 16
stairway 16
ral 16
overhead 16
plates 16
dead 16
following 16
-up 16
bow@@ 16
reach 16
ward 16
turned 16
gymnasium 16
rainy 16
carving 16
pitch 16
sides 16
tain 16
pol@@ 16
pigeons 16
bat@@ 16
sofa 16
london 16
lifting 16
objects 16
clad 16
ey@@ 16
tourist 16
surrounding 16
naked 16
speed 16
listens 16
1 16
moped 16
am 15
shovels 15
hits 15
3@@ 15
training 15
security 15
trucks 15
fr@@ 15
engine 15
que 15
elephant 15
-like 15
odd 15
motor@@ 15
comple@@ 15
sho@@ 15
numerous 15
flowered 15
sur@@ 15
ori@@ 15
til@@ 15
unicycle 15
gg@@ 15
lounging 15
directions 15
amongst 15
swimmers 15
control 15
my 15
tle 15
redheaded 15
called 15
white-@@ 15
name 15
protesting 15
participate 15
catcher 15
1@@ 15
tan@@ 15
pea@@ 15
taxi 15
en 15
wife 15
branch 15
pottery 15
whi@@ 15
ving 15
ent@@ 15
raising 15
terrain 15
repair 15
zed 15
wrestle 15
shaved 15
necklace 15
downtown 15
teammate 15
come 15
partially 15
keep 15
theater 15
oc@@ 15
engaged 15
headband 15
observing 15
forward 15
material 15
smaller 15
thin 15
blow 15
go-@@ 15
ssing 15
barber 15
tex@@ 15
follows 15
newborn 15
lit@@ 15
photos 15
ssed 15
electronic 15
fre@@ 15
patient 15
tch 15
fan 15
cameras 15
ballerina 15
ens 15
her@@ 15
present 15
arm@@ 15
-down 15
fireman 15
.@@ 15
hoops 15
hel@@ 15
village 15
liquid 15
&apos;t 15
stre@@ 15
ing@@ 15
ir@@ 15
vie@@ 15
advertising 15
crosses 15
hun@@ 15
relax 15
bla@@ 15
wings 15
papers 15
cut@@ 15
corn 15
ami@@ 15
beneath 15
shades 15
gli@@ 14
rainbow 14
converse 14
shakes 14
whilst 14
binoculars 14
gar@@ 14
billboard 14
black@@ 14
sam@@ 14
steel 14
spon@@ 14
biking 14
donkey 14
silly 14
spar@@ 14
skiers 14
repairs 14
caps 14
story 14
job 14
shi@@ 14
cli@@ 14
cook 14
athletes 14
fl@@ 14
ties 14
fake 14
push 14
shining 14
spo@@ 14
shops 14
carry 14
teaching 14
book@@ 14
trailer 14
cru@@ 14
angel 14
weaving 14
cal@@ 14
scarves 14
oes 14
mmed 14
slee@@ 14
ser@@ 14
fri@@ 14
gh@@ 14
cape 14
casual 14
share 14
tower 14
ages 14
wit@@ 14
cobblestone 14
trunk 14
eling 14
xes 14
firemen 14
im 14
oms 14
wading 14
pur@@ 14
conven@@ 14
calm 14
falls 14
splashes 14
interacting 14
len@@ 14
guns 14
straight 14
gift 14
cards 14
machines 14
uts 14
hu@@ 14
upon 14
mid 14
wh@@ 14
receiving 14
expre@@ 14
most 14
peering 14
slightly 14
rows 14
hug 14
star 14
crafts 14
gla@@ 14
lounge 14
care 14
airborne 14
pretty 14
guards 14
pillow 14
cool 14
sprinkler 14
passenger 14
photographed 14
stic 14
glove 14
glo@@ 14
ily 14
yed 14
leads 14
aisle 14
lar@@ 14
camel 14
rings 14
rollerblades 14
races 14
desig@@ 14
world 14
charac@@ 14
point 14
homeless 14
performers 14
bil@@ 14
grand@@ 14
fra@@ 14
admiring 14
observes 13
spotted 13
studying 13
some@@ 13
ren@@ 13
tropical 13
vel@@ 13
part@@ 13
four@@ 13
paddles 13
tending 13
dusk 13
ast 13
knit 13
chainsaw 13
check 13
ka@@ 13
laptops 13
customer 13
messy 13
carts 13
wheelbarrow 13
nature 13
tail 13
sm@@ 13
landing 13
spoon 13
waterway 13
ther 13
ones 13
cle@@ 13
tires 13
science 13
order 13
son@@ 13
ban@@ 13
mic 13
oven 13
ung 13
ari@@ 13
high-@@ 13
burgundy 13
coaster 13
examines 13
craw@@ 13
debris 13
farmer 13
hoo@@ 13
shine 13
dum@@ 13
eggs 13
ca 13
sks 13
praying 13
stance 13
ents 13
rod 13
dough 13
sack 13
ines 13
flips 13
wel@@ 13
off@@ 13
attention 13
pe 13
que@@ 13
autumn 13
drill 13
was 13
flute 13
if 13
stomach 13
form 13
filling 13
plan@@ 13
places 13
target 13
ator 13
le-@@ 13
dad 13
bystanders 13
consisting 13
test 13
els 13
modern 13
top@@ 13
grin@@ 13
cups 13
checks 13
entering 13
groceries 13
ado@@ 13
greyhound 13
lifted 13
telephone 13
dding 13
fli@@ 13
2@@ 13
barrier 13
waterfront 13
official 13
comes 13
ceremony 13
meeting 13
similar 13
paddle 13
dimly 13
cheer 13
bleachers 13
8 13
enter@@ 13
overweight 13
tea 13
sailing 13
keys 13
browsing 13
headed 13
bare 13
sneakers 13
lead 13
gestures 13
lacrosse 13
ballet 12
sprinkl@@ 12
der@@ 12
wild 12
bamboo 12
bricks 12
pigtails 12
scooters 12
teen 12
feath@@ 12
ski@@ 12
paperwork 12
anti@@ 12
iron 12
chicken 12
load 12
give 12
boulder 12
paint@@ 12
doll 12
medi@@ 12
presenting 12
wires 12
comm@@ 12
rickshaw 12
thumbs 12
clapping 12
cello 12
jack@@ 12
exhibit 12
off-@@ 12
teal 12
covers 12
sion 12
heading 12
puppies 12
diver 12
wra@@ 12
exam@@ 12
kil@@ 12
gymnastics 12
barri@@ 12
tomat@@ 12
shadows 12
tired 12
screaming 12
cooks 12
merchandise 12
far 12
ities 12
countryside 12
skater 12
blankets 12
texas 12
yer 12
mming 12
far@@ 12
newly 12
seem 12
touches 12
co 12
games 12
highway 12
char@@ 12
pack 12
beanie 12
cowboys 12
bite 12
dust 12
iting 12
shoppers 12
repairing 12
dering 12
placing 12
tray 12
bagpipes 12
cti@@ 12
wares 12
alleyway 12
organi@@ 12
handing 12
visiting 12
patterned 12
domin@@ 12
tv 12
ggy 12
knife 12
spanish 12
entertain@@ 12
stare 12
listen 12
drive 12
ll 12
serves 12
wrap 12
still 12
pillows 12
tted 12
parachut@@ 12
sna@@ 12
rollerblading 12
inspects 12
stops 12
suitcase 12
os 12
long-sleeve 12
banan@@ 12
venue 12
pass@@ 12
run@@ 12
arti@@ 12
sweeps 12
newspapers 12
mes 12
complete 12
tossing 12
forehead 12
so 12
tackle 12
zes 12
visible 12
olympics 12
atta@@ 12
movie 12
street@@ 12
lecture 12
exercise 12
ously 12
ran@@ 12
knees 12
attending 12
monument 12
biting 12
tape 12
blur@@ 12
beverages 12
accompani@@ 12
wheelie 12
6 12
applying 12
excit@@ 12
umpire 12
juice 12
been 12
shirted 12
yoga 12
5@@ 12
skaters 12
wrestler 12
kayaks 12
para@@ 12
snowsuit 12
play@@ 11
ets 11
see@@ 11
artwork 11
wind@@ 11
patch 11
camping 11
trip 11
picks 11
lighted 11
kie 11
magazines 11
assem@@ 11
regi@@ 11
constru@@ 11
fashioned 11
elev@@ 11
hur@@ 11
cheek 11
hut 11
suspenders 11
learning 11
pilot 11
ies 11
are@@ 11
shoreline 11
wning 11
dusty 11
weap@@ 11
und 11
gle 11
soda 11
cool@@ 11
traveling 11
underwear 11
placed 11
burning 11
ol 11
injured 11
arcade 11
adjusting 11
maneu@@ 11
range 11
formation 11
loo@@ 11
ways 11
banjo 11
african-american 11
pper 11
rapids 11
ponytail 11
coun@@ 11
bor@@ 11
tee 11
larger 11
firefighter 11
arch 11
logs 11
own 11
ute 11
chatting 11
carefully 11
ffs 11
jet 11
ter@@ 11
stan@@ 11
chess 11
ten@@ 11
dj 11
eglasses 11
washer 11
lips 11
kayaking 11
pick@@ 11
china 11
teens 11
tiny 11
blin@@ 11
sel@@ 11
pop@@ 11
sprin@@ 11
printed 11
rollerskating 11
backdrop 11
swimsuits 11
strange 11
pat@@ 11
tricycle 11
laundromat 11
don@@ 11
creek 11
auditorium 11
location 11
alling 11
sunlight 11
loom 11
speak 11
bit 11
record 11
department 11
mid-@@ 11
rice 11
posed 11
gathers 11
deli@@ 11
adv@@ 11
poor 11
khakis 11
ations 11
weather 11
floats 11
den@@ 11
leaf 11
sno@@ 11
finished 11
drib@@ 11
parachute 11
east 11
bra 11
yarn 11
cycling 11
motorcyclists 11
practices 11
ce-@@ 11
watched 11
turquoise 11
descent 11
dives 11
opens 11
black-haired 11
company 11
sty 11
aqu@@ 11
ong 11
haired 11
scape 11
stle 11
planting 11
sele@@ 11
ddle 11
passersby 11
crouched 11
mug 11
0@@ 11
scouts 11
dan@@ 11
asians 11
salon 11
viol@@ 11
tights 11
snowshoes 11
bron@@ 11
din@@ 11
lifts 11
unk 11
cage 11
wered 11
playfully 11
mp@@ 11
xi@@ 11
mower 11
tackling 11
recei@@ 11
involved 11
dot 11
roun@@ 11
rally 11
nail 11
meet 11
med 11
tun@@ 11
motorized 11
ic@@ 11
dress@@ 11
oned 11
crossed 11
couples 11
celebration 11
surgery 11
enthusia@@ 11
trolley 11
supplies 11
fashion 11
closely 11
drawn 11
fel@@ 11
focused 11
torch 11
2012 11
kno@@ 10
ju@@ 10
ber 10
toddlers 10
clim@@ 10
scending 10
rooftop 10
frozen 10
march 10
spect@@ 10
foot@@ 10
tribal 10
mel@@ 10
shar@@ 10
nurses 10
zens 10
helicopter 10
ani@@ 10
handrail 10
arri@@ 10
mexican 10
thumb 10
ot@@ 10
bre@@ 10
maintenance 10
eing 10
trashcan 10
branches 10
washes 10
leap 10
stilts 10
cul@@ 10
sive 10
late 10
pers 10
monitor 10
belts 10
demonstra@@ 10
stall 10
pins 10
walked 10
super@@ 10
creating 10
quickly 10
stepping 10
chopping 10
chan@@ 10
john 10
experiment 10
od 10
ctor 10
ney 10
located 10
asia 10
serve 10
multi@@ 10
racers 10
morning 10
rea@@ 10
coa@@ 10
ddy 10
mul@@ 10
fore@@ 10
silhouette 10
ai@@ 10
earphones 10
sprayed 10
less 10
roadside 10
furry 10
ends 10
hiding 10
condu@@ 10
cup@@ 10
brother 10
goat 10
nam@@ 10
mop 10
leaf@@ 10
lens 10
pots 10
driveway 10
stu@@ 10
emer@@ 10
rafting 10
displays 10
pin 10
quarterback 10
gaze 10
twir@@ 10
scaffold 10
chalkboard 10
portrait 10
whom 10
storm 10
blood 10
ckets 10
involving 10
pads 10
played 10
wer@@ 10
speaker 10
brin@@ 10
star@@ 10
cop 10
decorative 10
stroke 10
transportation 10
canvas 10
ctions 10
wn@@ 10
laden 10
ey 10
u 10
america 10
activity 10
ff@@ 10
contraption 10
ie 10
thin@@ 10
ple 10
facility 10
upward 10
seagul@@ 10
shape 10
workshop 10
workout 10
leotard 10
desc@@ 10
zi@@ 10
juggles 10
arch@@ 10
hotdog 10
link 10
fur 10
lobby 10
peeking 10
camera@@ 10
fair@@ 10
finishing 10
retrie@@ 10
shel@@ 10
headdress 10
fer@@ 10
gazes 10
casually 10
dies 10
cross@@ 10
oper@@ 10
bag@@ 10
apart 10
laun@@ 10
oranges 10
floo@@ 10
sem@@ 10
9@@ 10
cher 10
process 10
single 10
icy 10
bouquet 10
incline 10
row@@ 10
gallery 10
collared 10
eri@@ 10
gray-haired 10
# 10
nee@@ 10
thers 10
feat@@ 10
displaying 10
approaches 10
scre@@ 10
nur@@ 10
cute 10
rin@@ 10
lled 10
hike 10
leggings 10
amidst 10
ssive 10
valley 10
pra@@ 10
stat@@ 10
touch 10
dre@@ 10
ell 10
will 10
button@@ 10
hear@@ 10
ser 10
ow@@ 10
sideways 10
work@@ 10
cial 10
them@@ 10
embracing 10
cheese 10
numbers 10
ster@@ 10
surfs 10
inten@@ 10
celebrate 10
shing 10
lining 10
products 10
lighting 10
sel 10
blazer 10
done 10
second 10
wns 10
road@@ 9
gazing 9
shiel@@ 9
almost 9
thing 9
river@@ 9
dive 9
bends 9
classic 9
yel@@ 9
hea@@ 9
stoop 9
barbe@@ 9
wheeler 9
cast 9
dig@@ 9
types 9
ky 9
strolls 9
decorations 9
kilt 9
jogs 9
pale 9
operates 9
bor 9
elmo 9
tru@@ 9
ining 9
hills 9
employees 9
aprons 9
fen@@ 9
service 9
highchair 9
camp 9
bal@@ 9
adjusts 9
booths 9
bin@@ 9
farmers 9
section 9
reflection 9
task 9
ell@@ 9
boarding 9
foliage 9
bicycling 9
pathway 9
bea@@ 9
gardening 9
tends 9
painter 9
horizon 9
clouds 9
sniffing 9
joy 9
tiled 9
cy 9
pet 9
breakdancing 9
sparring 9
attractive 9
swor@@ 9
verti@@ 9
capped 9
upset 9
scar@@ 9
cri@@ 9
plo@@ 9
raincoat 9
fier 9
french 9
gradu@@ 9
brass 9
strapped 9
lets 9
show@@ 9
league 9
cakes 9
tags 9
grabbing 9
suit@@ 9
design 9
containing 9
handle 9
sit@@ 9
cab 9
cellphones 9
techni@@ 9
jeep 9
rav@@ 9
green@@ 9
pinata 9
concentra@@ 9
sorting 9
sure 9
mark 9
draw 9
ture 9
mechani@@ 9
bouncing 9
brushes 9
pumpkin 9
wind 9
ils 9
tripod 9
shiny 9
wait@@ 9
toi@@ 9
tug@@ 9
scenic 9
pencil 9
cola 9
post@@ 9
shoo@@ 9
chocolate 9
gy@@ 9
color@@ 9
checkers 9
fishes 9
featuring 9
sawing 9
bush@@ 9
even 9
im@@ 9
odles 9
handed 9
hind 9
butterfly 9
opy 9
tournament 9
gesturing 9
really 9
kel@@ 9
beret 9
crowds 9
bel@@ 9
treat 9
dragging 9
dumpster 9
illumin@@ 9
fell 9
interesting 9
motion 9
built 9
z 9
peer 9
crates 9
chewing 9
discu@@ 9
blue-@@ 9
photograph@@ 9
soap 9
than 9
ou@@ 9
displayed 9
atm 9
cann@@ 9
sledding 9
chopsticks 9
news 9
monkey 9
cer@@ 9
pt 9
relea@@ 9
menu 9
appro@@ 9
jumped 9
diner 9
ticket 9
ab@@ 9
images 9
exerci@@ 9
short-haired 9
scent 9
sad 9
gged 9
writes 9
stump 9
bull@@ 9
known 9
curly-haired 9
circular 9
turban 9
cloud 9
potato 9
designs 9
remo@@ 9
pattern 9
two-@@ 9
ducks 9
muzzle 9
afternoon 9
grabs 9
bath@@ 9
motor 9
lie 9
colum@@ 9
expl@@ 9
tight 9
belongings 9
hudd@@ 9
termin@@ 9
trench 9
love 9
4@@ 9
kit@@ 9
stacked 9
able 9
sand@@ 9
ue 9
parasailing 9
wr@@ 9
um 9
ep@@ 9
kly 9
cleaner 9
tips 9
ering 9
muzzled 9
well-@@ 9
men@@ 9
olympic 9
sty@@ 9
begins 9
protesters 9
boxer 9
unique 9
heavily 9
jumper 9
wig 9
score 9
riot 9
dun@@ 9
sking 9
rifle 9
recording 9
power 9
sum@@ 9
bathtub 9
digital 9
graph@@ 9
cover 9
canadian 9
decora@@ 9
obser@@ 9
foc@@ 9
ley 8
pow@@ 8
clar@@ 8
packing 8
barefooted 8
oli@@ 8
bers 8
down@@ 8
-colored 8
much 8
too 8
forested 8
communi@@ 8
tal@@ 8
fat 8
scrubs 8
napping 8
darkened 8
positi@@ 8
bled 8
usly 8
spat@@ 8
free@@ 8
teammates 8
fun@@ 8
lers 8
knee-@@ 8
brief@@ 8
somewhere 8
strolling 8
cries 8
surgical 8
spins 8
dinosau@@ 8
sle@@ 8
plain 8
had 8
sear@@ 8
buil@@ 8
skills 8
redhead 8
transit 8
amount 8
vending 8
labeled 8
cluttered 8
elabo@@ 8
rate 8
kar@@ 8
hammock 8
shaggy 8
masks 8
shelf 8
conne@@ 8
splashed 8
waiter 8
staff 8
stuff 8
rub@@ 8
stuck 8
sla@@ 8
edly 8
companion 8
stretches 8
ston@@ 8
hawaiian 8
hau@@ 8
lou@@ 8
hydrant 8
spa@@ 8
campfire 8
stati@@ 8
draped 8
ee 8
spot 8
shadow 8
midst 8
synchronized 8
skinny 8
casino 8
squeezing 8
lem@@ 8
cases 8
chee@@ 8
hor@@ 8
mix@@ 8
say 8
cherry 8
rug 8
ry-@@ 8
ppy 8
inning 8
ox@@ 8
envi@@ 8
underground 8
unhappy 8
protect 8
flannel 8
medium 8
challen@@ 8
downhill 8
and@@ 8
stry 8
variety 8
projector 8
roo@@ 8
skul@@ 8
ker@@ 8
chie@@ 8
won@@ 8
punch 8
purses 8
package 8
fs 8
hit@@ 8
mix 8
sailboat 8
accident 8
artists 8
signing 8
moti@@ 8
tation 8
lay@@ 8
candle 8
times 8
es@@ 8
travel 8
table@@ 8
flower@@ 8
stream@@ 8
nel 8
shing@@ 8
wheeled 8
directing 8
ately 8
lively 8
sk 8
halloween 8
zzy 8
grasp@@ 8
fountains 8
bear@@ 8
fort 8
pocket 8
denti@@ 8
buried 8
waist 8
gn@@ 8
shor@@ 8
adverti@@ 8
mem@@ 8
side@@ 8
because 8
em 8
banners 8
ya@@ 8
kick@@ 8
cheerleading 8
congreg@@ 8
citi@@ 8
canoes 8
ob@@ 8
eled 8
identi@@ 8
gown 8
mountain@@ 8
imp@@ 8
who@@ 8
musta@@ 8
cigar@@ 8
bundle 8
harve@@ 8
spla@@ 8
stringed 8
mess 8
iling 8
ly-@@ 8
judges 8
foam 8
babies 8
easel 8
beads 8
peers 8
hum@@ 8
filming 8
walmart 8
ssions 8
harmonica 8
crayons 8
monopoly 8
tery 8
skies 8
unusual 8
rock@@ 8
sil@@ 8
warehouse 8
tching 8
photographers 8
lanterns 8
metal@@ 8
lic 8
daytime 8
tying 8
barre@@ 8
bridesmaids 8
laboratory 8
angle 8
tum@@ 8
completed 8
lon@@ 8
sprays 8
industrial 8
european 8
ir 8
camels 8
homemade 8
vintage 8
when 8
acce@@ 8
bell@@ 8
pours 8
spring 8
conductor 8
sin@@ 8
win 8
patro@@ 8
notebook 8
muscular 8
mixer 8
ured 8
batman 8
grand 8
hispani@@ 8
roller-@@ 8
shout@@ 8
looked 8
tackled 8
hardwood 8
establishment 8
sen@@ 8
abandoned 8
ck-@@ 8
clowns 8
columns 8
ach 8
trains 8
state 8
foods 8
tuxe@@ 8
gesture 8
product 8
kisses 8
india 8
grab 8
hammering 8
commercial 8
kaya@@ 8
11 8
ands 8
dly 8
speeding 8
notes 8
employee 8
deer 8
bedroom 8
figures 8
tug-of-war 8
spotlight 8
kne@@ 8
every@@ 8
break@@ 8
fting 8
ility 8
acrobatic 8
deci@@ 8
nails 8
stant 8
aquarium 8
toothbrush 8
draws 8
dle 8
crow@@ 8
tour 8
packed 8
mate 8
tic 8
religious 8
bartender 8
crashing 8
uti@@ 8
create 8
waterskiing 8
lor 8
dex 8
rit@@ 8
war 8
destination 8
- 8
ko@@ 8
doesn 8
fields 8
followed 8
deser@@ 8
jockeys 8
loaded 8
murky 8
victory 8
pay 8
navigates 8
carrier 8
oring 8
egg 8
canal 8
cigar 8
histor@@ 8
human 8
graffiti@@ 8
cover@@ 8
europe 8
finger@@ 8
series 8
ford 8
ale 8
lion 7
tro 7
slacks 7
usband 7
mcdonald 7
hotdogs 7
though 7
supermarket 7
lling 7
meadow 7
vil@@ 7
main 7
ths 7
railings 7
tree-@@ 7
extre@@ 7
tubes 7
rustic 7
starring 7
woodland 7
pony 7
val 7
ols 7
orned 7
bands 7
musli@@ 7
workman 7
trophy 7
nude 7
mouths 7
written 7
clut@@ 7
may 7
bush 7
mm@@ 7
lush 7
stores 7
puppet 7
visor 7
tton 7
mitt 7
eds 7
cons@@ 7
ele@@ 7
marble 7
facial 7
gol@@ 7
shift 7
irs 7
intervie@@ 7
miniat@@ 7
trotting 7
unter@@ 7
thick 7
waterski@@ 7
mascot 7
parent 7
patrons 7
snacks 7
vering 7
prints 7
arran@@ 7
end@@ 7
ton@@ 7
resort 7
mowing 7
pee@@ 7
earth 7
bon@@ 7
legged 7
videota@@ 7
ung@@ 7
ham 7
exhi@@ 7
iti@@ 7
policemen 7
purchase 7
tracksuit 7
nun 7
radio 7
9 7
skyline 7
cen@@ 7
chers 7
olo@@ 7
wheel@@ 7
refle@@ 7
ronment 7
bul@@ 7
flu@@ 7
explo@@ 7
mountainous 7
ssage 7
ugh 7
zone 7
pointed 7
jenga 7
level 7
rollers 7
laid 7
separate 7
berry 7
measuring 7
pans 7
sparkl@@ 7
sy 7
pad 7
rugs 7
support 7
collie 7
raining 7
cycles 7
person@@ 7
vacuum 7
stripe 7
picket 7
demonstration 7
bongo 7
ant@@ 7
wea@@ 7
ta 7
dir@@ 7
pirate 7
cheerleader 7
rai@@ 7
sements 7
were 7
shawl 7
die 7
watermelons 7
fit@@ 7
presents 7
shower 7
sociali@@ 7
snor@@ 7
buffet 7
punching 7
peaks 7
social 7
weigh@@ 7
maybe 7
diti@@ 7
turkey 7
hamm@@ 7
hop@@ 7
pigeon 7
busine@@ 7
gal@@ 7
acting 7
dam@@ 7
usa 7
box@@ 7
pum@@ 7
rolls 7
electri@@ 7
loa@@ 7
oni@@ 7
tarp 7
hal@@ 7
monk 7
cle 7
life@@ 7
pop 7
our 7
rise 7
squats 7
p-@@ 7
amp@@ 7
newlywed 7
warming 7
arrow 7
marked 7
surfers 7
seafood 7
mag@@ 7
ag@@ 7
treadmill 7
ven@@ 7
sold 7
ste 7
s-@@ 7
land@@ 7
vers@@ 7
ass@@ 7
ume 7
itt@@ 7
leopard 7
day@@ 7
rafts 7
ight 7
activ@@ 7
logo 7
happ@@ 7
monitors 7
gage 7
temple 7
cel@@ 7
rails 7
oil 7
ently 7
attle 7
embra@@ 7
silhouetted 7
open@@ 7
quet 7
reception 7
maid 7
deli 7
fedora 7
scopes 7
proje@@ 7
quiet 7
wash 7
ma 7
tack@@ 7
vibrant 7
tains 7
named 7
nat@@ 7
kings 7
ese 7
repor@@ 7
mit@@ 7
seating 7
used 7
strings 7
strugg@@ 7
elementary 7
wilderness 7
return 7
greyho@@ 7
tutu 7
marker 7
? 7
semi-@@ 7
pops 7
cari@@ 7
lau@@ 7
cyc@@ 7
topless 7
sunbathing 7
pict@@ 7
mounted 7
plea@@ 7
blu@@ 7
sail 7
tress 7
chil@@ 7
vau@@ 7
typing 7
licking 7
british 7
om 7
tails 7
fron@@ 7
sig@@ 7
striking 7
rist@@ 7
tiger 7
poodle 7
broad 7
skydiving 7
medieval 7
wei@@ 7
festi@@ 7
ales 7
poli@@ 7
nine 7
chin 7
dit@@ 7
ultimate 7
ten 7
year 7
lands 7
pyramid 7
vacuuming 7
let@@ 7
sleeves 7
necklaces 7
ordering 7
ght@@ 7
styli@@ 7
uble 7
xe 7
ora@@ 7
7 7
ual 7
8@@ 7
competiti@@ 7
check@@ 7
xylophone 7
ants 7
holi@@ 7
wrestlers 7
stro@@ 7
scientist 7
sl@@ 7
prote@@ 7
den 7
skil@@ 7
travels 7
speeds 7
sidelines 7
rollerskates 7
snowboards 7
bend 7
thedra@@ 7
prepared 7
6@@ 7
profession@@ 7
fetti 7
upwards 7
sculptures 7
congre@@ 7
system 6
supp@@ 6
trav@@ 6
ath 6
shake 6
broch@@ 6
rubs 6
ath@@ 6
auto@@ 6
ula 6
ron@@ 6
canyon 6
und@@ 6
zoo 6
prin@@ 6
cess 6
botto@@ 6
da 6
dru@@ 6
terrier 6
gon 6
rush 6
maj@@ 6
grills 6
cher@@ 6
sn@@ 6
bb@@ 6
ll@@ 6
stir@@ 6
vor@@ 6
inspe@@ 6
heav@@ 6
talent 6
fer 6
stor@@ 6
sausa@@ 6
kin@@ 6
cular 6
han@@ 6
pipes 6
scal@@ 6
red-@@ 6
paci@@ 6
stunts 6
aus@@ 6
hin 6
tons 6
pon@@ 6
stretched 6
infla@@ 6
shoe@@ 6
surf@@ 6
boarder 6
information 6
renaiss@@ 6
compet@@ 6
volunte@@ 6
ang@@ 6
arrangement 6
tr@@ 6
night@@ 6
ards 6
tat@@ 6
partici@@ 6
ssion@@ 6
ation@@ 6
girl@@ 6
rad@@ 6
pack@@ 6
raz@@ 6
recor@@ 6
hen@@ 6
na 6
professor 6
cho@@ 6
verse 6
attra@@ 6
fts 6
ite@@ 6
any 6
bodysuit 6
ei@@ 6
ena@@ 6
letter@@ 6
mitt@@ 6
cray@@ 6
tal 6
ep 6
liqu@@ 6
dia@@ 6
ht 6
wat@@ 6
kee@@ 6
superman 6
acti@@ 6
lim@@ 6
tau@@ 6
cer 6
those 6
ghts 6
sca@@ 6
sail@@ 6
rag 6
lat@@ 6
appe@@ 6
sleep 6
bathro@@ 6
open-@@ 6
beam@@ 6
indi@@ 6
pain 6
ame 6
micro@@ 6
stern 6
sooners 6
gress 6
circus 6
afri@@ 6
quad 6
seattle 6
trans@@ 6
fish@@ 6
ribb@@ 6
bum@@ 6
stars 6
cade 6
ceremon@@ 6
camp@@ 6
alls 6
on-@@ 6
ha 6
ites 6
scope 6
wild@@ 6
ffy 6
jump@@ 6
zombi@@ 6
mil@@ 6
inclu@@ 6
vege@@ 6
skateboarders 6
ise 6
band@@ 6
ssi@@ 6
popcorn 6
legos 6
complet@@ 6
kiosk 6
boogie 6
celebra@@ 6
fit 6
whe@@ 6
10 6
clu@@ 6
bikinis 6
lt 6
past@@ 6
appar@@ 6
sci@@ 6
dessert 6
saris 6
tern 6
miami 6
horse@@ 6
qui@@ 6
refer@@ 6
ggles 6
ponch@@ 6
cl@@ 6
aus 6
wet@@ 6
vol@@ 6
tem@@ 6
br@@ 6
swan 6
weight 6
fashi@@ 6
key 6
hil@@ 6
parallel 6
tuni@@ 6
sor@@ 6
w-@@ 6
senior 6
gne 6
rollerskat@@ 6
bulldozer 6
padd@@ 6
ub@@ 6
mani@@ 6
politi@@ 6
stal@@ 6
near@@ 6
university 6
badminton 6
pul@@ 5
wards 5
ligh@@ 5
operation 5
contain@@ 5
red@@ 5
hou@@ 5
zer 5
spee@@ 5
a-@@ 5
jewel@@ 5
welcome 5
smit@@ 5
dig 5
tar@@ 5
servi@@ 5
re 5
vision 5
pers@@ 5
er-@@ 5
gin@@ 5
cir@@ 5
ian 5
ere 5
make@@ 5
zen 5
cheer@@ 5
watermel@@ 5
wake@@ 5
ghtly 5
island 5
fir@@ 5
sat@@ 5
angels 5
rut@@ 5
robo@@ 5
mates 5
ham@@ 5
mirro@@ 5
uring 5
-covered 5
spider@@ 5
ush 5
wood@@ 5
jack 5
sper@@ 5
iro@@ 5
sculp@@ 5
ffe@@ 5
key@@ 5
last 5
boss 5
stret@@ 5
ysi@@ 5
ope 5
wakeboard 5
mask@@ 5
mannequin 5
balan@@ 5
ama@@ 5
care@@ 5
la 5
kel 5
stock 5
asphalt 5
press@@ 5
shado@@ 5
geo@@ 5
san 5
das 5
carri@@ 5
sweatshirts 5
base@@ 5
high@@ 5
gen@@ 5
sse@@ 5
mly 5
in-@@ 5
tage 5
cit@@ 5
chain@@ 5
text 5
punk 5
gn 5
hat@@ 5
sky-@@ 5
prie@@ 5
rain@@ 5
chips 5
hero 5
hin@@ 5
pedestri@@ 5
ini@@ 5
uth 5
basket@@ 5
tran@@ 5
ators 5
saxoph@@ 5
ffel 5
dal@@ 5
film 5
ender 5
lum@@ 5
za@@ 5
fan@@ 5
headset 5
snap 5
ff 5
stro 5
cy@@ 5
arabi@@ 5
ped@@ 5
iel@@ 5
00@@ 5
thor@@ 5
tend 5
ball@@ 5
ros@@ 5
rail@@ 5
fisher@@ 5
ameri@@ 5
fe 5
bir@@ 5
iz@@ 5
kies 5
o-@@ 5
spongebo@@ 5
tambour@@ 5
consi@@ 5
ty@@ 5
odle 5
lean@@ 5
put@@ 5
pedal 5
soa@@ 5
store@@ 5
ore@@ 5
surroun@@ 5
ired 5
dramati@@ 5
baseman 5
ups 5
intere@@ 5
pro 5
cockpit 5
gent 5
sai@@ 5
mas 5
span@@ 5
minivan 5
husky 5
g-@@ 5
ctive 5
obama 5
thro@@ 5
pub 5
under@@ 5
kimonos 5
ored 5
temp@@ 5
dunking 5
s. 5
eleph@@ 5
lei@@ 5
gh 5
ki 5
mcdonalds 5
barren 5
japan 5
snowboar@@ 5
ket@@ 5
san@@ 5
port 5
enga@@ 5
emp@@ 5
stock@@ 5
ie@@ 5
cowgirl 5
grima@@ 5
pel@@ 5
ipod 5
figh@@ 5
va 5
champa@@ 5
lasso 5
ach@@ 5
oppon@@ 5
mini-@@ 5
dges 5
swim@@ 5
middle-@@ 5
vio@@ 5
ze@@ 5
chemi@@ 5
symbol 5
var@@ 5
scoo@@ 5
ees 5
train@@ 4
ird 4
propan@@ 4
sky@@ 4
phones 4
volkswagen 4
mascara 4
sent@@ 4
mobil@@ 4
aters 4
tell@@ 4
chop@@ 4
ske@@ 4
stea@@ 4
ot 4
mpe@@ 4
mea@@ 4
statu@@ 4
q 4
ater 4
experi@@ 4
plat@@ 4
taining 4
iner 4
prun@@ 4
kin 4
parti@@ 4
steaks 4
mega@@ 4
kitchena@@ 4
gold-@@ 4
gan 4
nin@@ 4
fig@@ 4
hula-ho@@ 4
utensi@@ 4
cell@@ 4
siting 4
comp@@ 4
inc@@ 4
astro@@ 4
washington 4
bbing 4
mop@@ 4
sni@@ 4
read@@ 4
cause 4
garden@@ 4
ka 4
piercing 4
lear@@ 4
gle@@ 4
veter@@ 4
gan@@ 4
solo 4
ken 4
kl@@ 4
contro@@ 4
mick@@ 4
clean@@ 4
ness 4
st. 4
self 4
dition@@ 4
ssen@@ 4
sou@@ 4
tz@@ 4
fur@@ 4
skel@@ 4
mounta@@ 4
typi@@ 4
en-@@ 4
inder 4
fal@@ 4
mal@@ 4
eng@@ 4
tech@@ 4
ler@@ 4
ckens 4
ukulele 4
ssy 4
sau@@ 4
eting 4
circ@@ 4
park@@ 4
pain@@ 4
sculpt@@ 4
peop@@ 4
guit@@ 4
lama 4
long-@@ 4
of@@ 4
erial 4
spea@@ 4
tt@@ 4
coca-@@ 4
equip@@ 4
half@@ 4
org@@ 4
nor@@ 4
pati@@ 4
moo@@ 4
bl@@ 4
bunge@@ 4
nation@@ 4
ap@@ 4
oklaho@@ 4
pun@@ 4
ers@@ 4
lap@@ 4
ft@@ 4
str@@ 4
custo@@ 4
fic 4
teri@@ 4
ed@@ 4
ette 4
drop 4
kitt@@ 4
cou@@ 4
wan@@ 4
smi@@ 4
blan@@ 4
daugh@@ 4
compe@@ 4
admi@@ 4
una 4
participat@@ 4
seni@@ 4
tures 4
poin@@ 4
puzzle 4
zo@@ 4
stair@@ 4
all@@ 4
hn@@ 4
dio 4
dings 4
boul@@ 4
pira@@ 4
new@@ 4
enjo@@ 4
20@@ 4
som@@ 4
power@@ 4
sombrer@@ 4
yama@@ 4
hol 4
rollerbla@@ 4
cau@@ 4
fru@@ 4
teria 4
mod@@ 4
lass@@ 4
muzz@@ 4
stum@@ 4
taxis 4
unicef 4
las 4
electro@@ 4
twi@@ 4
swi@@ 4
slam 4
twister 4
mou@@ 4
vy 4
mo 4
ballerin@@ 4
rest@@ 4
unt 4
hawk 4
aga@@ 4
tea@@ 4
gie 4
inline 4
dunk 4
peri@@ 4
jogg@@ 4
boston 4
patrio@@ 4
brow@@ 4
gymna@@ 4
pt@@ 4
short-@@ 4
prepar@@ 4
suv 4
noti@@ 4
transpor@@ 4
mini@@ 4
starbucks 4
school@@ 4
op 4
balcon@@ 4
geish@@ 4
aller 4
simi@@ 4
separ@@ 4
chin@@ 4
mor@@ 4
gent@@ 4
bru@@ 4
gam@@ 3
crou@@ 3
loun@@ 3
cour@@ 3
jugg@@ 3
hamburger 3
walk@@ 3
progra@@ 3
unusu@@ 3
12 3
pump@@ 3
vacuum@@ 3
fter 3
att@@ 3
gat@@ 3
anda 3
mannequ@@ 3
sym@@ 3
inner@@ 3
ethni@@ 3
wir@@ 3
eless 3
vro@@ 3
kli@@ 3
comi@@ 3
mer 3
trin@@ 3
ttery 3
golf@@ 3
angel@@ 3
asi@@ 3
hula-hoop 3
k-@@ 3
cation 3
jo 3
shin@@ 3
spir@@ 3
ro 3
school-@@ 3
convers@@ 3
ara@@ 3
tank@@ 3
live@@ 3
cano@@ 3
dach@@ 3
woo@@ 3
metri@@ 3
burger 3
jun@@ 3
eil 3
oth@@ 3
adul@@ 3
olli@@ 3
restaurants 3
pal@@ 3
sport@@ 3
lied 3
rot 3
ort@@ 3
del@@ 3
kni@@ 3
trol@@ 3
sees 3
mati@@ 3
onloo@@ 3
football@@ 3
ner@@ 3
ak@@ 3
spot@@ 3
dor@@ 3
wrest@@ 3
eli@@ 3
enthusi@@ 3
bet@@ 3
infan@@ 3
i-@@ 3
ore 3
waff@@ 3
long@@ 3
jug@@ 3
uro 3
fran@@ 3
budd@@ 3
num@@ 3
vement 3
moder@@ 3
letter 3
fau@@ 3
b-@@ 3
us@@ 3
profi@@ 3
portra@@ 3
windo@@ 3
overall 3
piercings 3
lings 3
label@@ 3
om@@ 3
horizon@@ 3
cobb@@ 3
iter 3
bucks 3
ef@@ 3
pony@@ 3
haw@@ 3
sari 3
tain@@ 3
boo@@ 3
kinds 3
costum@@ 3
leot@@ 3
scream@@ 3
fee@@ 3
ton 3
: 3
scu@@ 3
bran@@ 3
hell@@ 3
tut@@ 3
marin@@ 3
backpa@@ 3
nati@@ 3
tter 3
body@@ 3
cran@@ 3
note@@ 3
ciali@@ 3
ssel 3
ilt 3
skinned 3
ire 3
itali@@ 3
ek 3
don 3
neck@@ 3
spen@@ 3
disc@@ 3
nament 3
entu@@ 3
ware 3
door@@ 3
vin@@ 3
labra@@ 3
dor 3
du 3
bli@@ 3
stap@@ 3
bm@@ 3
keeper 3
outfielder 3
ge-@@ 3
mets 3
navig@@ 3
scienti@@ 3
vice 3
ridor 3
sy@@ 3
lad@@ 3
-skinned 3
pause 3
mock 3
potat@@ 3
mari@@ 3
arring 3
jum@@ 3
pho@@ 3
ba 3
patri@@ 3
stop@@ 3
ble@@ 3
beauti@@ 3
pier@@ 3
mp 3
tha@@ 3
cycle 3
acro@@ 3
fiel@@ 3
fami@@ 3
jogger 3
ken@@ 3
quar@@ 3
blon@@ 3
suspen@@ 3
meter 3
by@@ 3
ly@@ 3
sh-@@ 3
jam@@ 3
tren@@ 2
uta@@ 2
approa@@ 2
bst 2
camer@@ 2
frei@@ 2
pic@@ 2
ners 2
vari@@ 2
neigh@@ 2
backflip 2
klein 2
ku@@ 2
ym@@ 2
wai@@ 2
terri@@ 2
video@@ 2
ev@@ 2
ss-@@ 2
ulti@@ 2
class@@ 2
hei@@ 2
bes 2
us-@@ 2
frisbe@@ 2
well@@ 2
possi@@ 2
dul@@ 2
stem 2
dame 2
pel 2
hug@@ 2
uch 2
ussion 2
gall@@ 2
moun@@ 2
web@@ 2
ston 2
sle 2
wash@@ 2
cture 2
pajam@@ 2
ption 2
swee@@ 2
entri@@ 2
amm@@ 2
pok@@ 2
orange-@@ 2
adi@@ 2
verw@@ 2
sar@@ 2
lly 2
eh@@ 2
secon@@ 2
beau@@ 2
presen@@ 2
mers 2
met 2
mal 2
brides@@ 2
zig@@ 2
gos 2
ander 2
syn@@ 2
theat@@ 2
cil 2
stuff@@ 2
xing 2
irts 2
bott@@ 2
rout@@ 2
labor 2
ington 2
scaffol@@ 2
hydr@@ 2
sely 2
wand 2
inform@@ 2
swin@@ 2
sine 2
cken 2
blue@@ 2
flag@@ 2
paral@@ 2
turn@@ 2
seh@@ 2
lun@@ 2
kets 2
git@@ 2
eine@@ 2
acrobati@@ 2
lows 2
tty 2
fest 2
close@@ 2
tol@@ 2
two@@ 2
bikin@@ 2
aro@@ 2
,@@ 2
gras@@ 2
shop@@ 2
parks 2
zun@@ 2
sung 2
stam@@ 2
hout 2
unter 2
repair@@ 2
ried 2
tou@@ 2
graffit@@ 2
ade 2
paper@@ 2
roof@@ 2
buff@@ 2
shoul@@ 2
scho@@ 2
die@@ 2
blea@@ 2
pf 2
ern@@ 2
bad 2
ein@@ 2
ke-@@ 2
rug@@ 2
stand@@ 2
cers 2
veral 2
outf@@ 2
even@@ 2
born 2
shaw@@ 2
iler 2
soft@@ 2
reo@@ 2
hy@@ 2
ena 2
oce@@ 2
schie@@ 2
cand@@ 2
invol@@ 2
classi@@ 2
ental 2
tor 2
uf@@ 2
urs 2
ph 2
blond-@@ 2
letes 2
elt 2
ong@@ 2
ffe 2
sten@@ 2
drag@@ 2
tail@@ 2
spre@@ 2
mach@@ 2
secur@@ 2
mau@@ 2
gement 2
rad 2
chur@@ 2
is@@ 2
regal 2
film@@ 2
geh@@ 2
ammer 2
vern 2
navi@@ 2
dread@@ 2
nu@@ 2
tele@@ 2
entre@@ 2
dut@@ 2
rench 2
% 2
hard@@ 2
ples 2
scen@@ 2
ssig@@ 2
xy@@ 2
gen 2
alt@@ 2
mir@@ 2
roll@@ 2
entran@@ 2
ene 2
lung 2
tam@@ 2
dy@@ 2
puzz@@ 2
tial 2
model@@ 2
geri@@ 2
ful@@ 2
locks 2
sidel@@ 2
offi@@ 2
scul@@ 2
ab 2
c-@@ 2
dur@@ 2
sandwi@@ 2
the@@ 2
gel 2
cele@@ 2
te-@@ 2
kimon@@ 2
v 2
tet 2
bandan@@ 2
religi@@ 2
pa 2
cue 2
partment 2
schi@@ 2
olympi@@ 2
herd 2
sser 2
escal@@ 2
zz@@ 2
stun@@ 2
fini@@ 2
ling@@ 2
boar@@ 2
vie 2
bus@@ 2
los 2
dt 1
stin 1
uniform@@ 1
rum 1
lage 1
rying 1
irt 1
cident 1
guitar@@ 1
footed 1
sie 1
gut 1
af@@ 1
tig@@ 1
stures 1
ssell 1
gical 1
fabri@@ 1
x-@@ 1
clou@@ 1
ket 1
rollersk@@ 1
stening 1
gender 1
wel 1
sch 1
hl 1
by-@@ 1
treadmi@@ 1
tting 1
inspi@@ 1
wen@@ 1
hill@@ 1
contra@@ 1
jung@@ 1
rot@@ 1
ett@@ 1
ga 1
hawai@@ 1
mmen@@ 1
touri@@ 1
mur@@ 1
stab@@ 1
lil@@ 1
euro@@ 1
alie 1
&apos;@@ 1
eu@@ 1
erer 1
wart 1
ben@@ 1
litt@@ 1
suring 1
tte 1
flau@@ 1
chal@@ 1
attemp@@ 1
soon@@ 1
kis 1
bies 1
che 1
chel@@ 1
countr@@ 1
ppies 1
oran@@ 1
graff@@ 1
tooth@@ 1
kenn@@ 1
ne 1
pizzeria 1
silhouet@@ 1
bal 1
op-@@ 1
pig@@ 1
towar@@ 1
au 1
quo@@ 1
lamp@@ 1
accor@@ 1
gue 1
publi@@ 1
golden@@ 1
spr@@ 1
tab@@ 1
einer 1
pos@@ 1
bei@@ 1
versu@@ 1
indu@@ 1
cket 1
ima@@ 1
gir@@ 1
sen 1
sax@@ 1
usk 1
pizz@@ 1
aband@@ 1
wol@@ 1
butter@@ 1
laugh@@ 1
thum@@ 1
mitten 1
stange 1
monit@@ 1
flan@@ 1
stau@@ 1
shir@@ 1
buck@@ 1
elf 1
gul@@ 1
stens 1
deo 1
eine 1
yho@@ 1
alter 1
kor@@ 1
bora@@ 1
itten 1
ump@@ 1
ballons 1
vier 1
squee@@ 1
hab@@ 1
ree 1
fted 1
reg@@ 1
kan@@ 1
perform@@ 1
practi@@ 1
thi@@ 1
bed@@ 1
stad@@ 1
willi@@ 1
shal@@ 1
lared 1
gel@@ 1
snea@@ 1
cated 1
ander@@ 1
boo 1
dern 1
helm 1
pian@@ 1
eg@@ 1
ment@@ 1
sque@@ 1
eller 1
nah 1
py@@ 1
xylo@@ 1
skatepark 1
auto 1
ever@@ 1
lk@@ 1
feder@@ 1
ssa@@ 1
fern 1
flops 1
pool@@ 1
bask@@ 1
q@@ 1
gur@@ 1
cock@@ 1
numer@@ 1
beige@@ 1
kra@@ 1
fac@@ 1
braun 1
ert 1
milit@@ 1
lli@@ 1
tt 1
hospit@@ 1
trei@@ 1
shirt@@ 1
erie 1
performan@@ 1
shepher@@ 1
ters@@ 1
stel@@ 1
borne 1
sell@@ 1
dump@@ 1
pink-@@ 1
visi@@ 1
kite@@ 1
lob@@ 1
pod 1
essen 1
eins 1
gas@@ 1
ban 1
spark 1
neu@@ 1
del 1
gras 1
chor 1
papa 1
bene@@ 1
gray@@ 1
ricksha@@ 1
after@@ 1
produ@@ 1
foli@@ 1
alter@@ 1
boot 1
adju@@ 1
sei@@ 1
ko 1
7@@ 1
chs 1
tem 1
geno@@ 1
kal@@ 1
brown@@ 1
trainer 1
eth@@ 1
dent 1
zer@@ 1
orn@@ 1
bub@@ 1
concre@@ 1
police@@ 1
$ 1
brun@@ 1
rested 1
wander@@ 1
repa@@ 1
famili@@ 1
smar@@ 1
bou@@ 1
traf@@ 1
enth@@ 1
pullover 1
gru@@ 1
ffee 1
cauc@@ 1
lie@@ 1
ffer@@ 1
restaurant@@ 1
ppen 1
nea@@ 1
not@@ 1
amo@@ 1
tory 1
bt 1
oph@@ 1
ben 1
ory 1
dess@@ 1
bill@@ 1
gt 1
nis 1
des@@ 1
stur@@ 1
checker@@ 1
lly@@ 1
sof@@ 1
dest 1
mc@@ 1
vibran@@ 1
mann@@ 1
sse 1
establi@@ 1
mmer@@ 1
musi@@ 1
shment 1
modi@@ 1
climb@@ 1
symbo@@ 1
chalk@@ 1
smartphone 1
anie 1
exer@@ 1
fon@@ 1
zebra@@ 1
wheelbar@@ 1
cow@@ 1
regen@@ 1
track@@ 1
tently 1
synchroni@@ 1
man-@@ 1
indian@@ 1
beach@@ 1
zu 1
labor@@ 1
harmoni@@ 1
onne 1
vri@@ 1
race@@ 1
quarter@@ 1
or-@@ 1
offen@@ 1
strin@@ 1
pating 1
za 1
neh@@ 1
donal@@ 1
pink@@ 1
outfiel@@ 1
chine@@ 1
-american 1
vel 1
ssi 1
zement 1
schwin@@ 1
differ@@ 1
rece@@ 1
cht 1
tramp@@ 1
hm@@ 1
ssor 1
elect@@ 1
bulldo@@ 1
kasse 1
inju@@ 1
obsta@@ 1
ing-@@ 1
abo@@ 1
hart 1
spring@@ 1
athle@@ 1
conc@@ 1
spani@@ 1
worl@@ 1
spra@@ 1
mut@@ 1
ympi@@ 1
togra@@ 1
od@@ 1
motori@@ 1
ow 1
cham@@ 1
bel 1
= 1
tos 1
spor@@ 1
ig 1
