a 49713
. 27642
in 15137
the 10959
on 8330
man 7901
is 7581
and 7421
of 6867
with 6179
woman 3976
, 3963
two 3877
are 3820
an 3189
at 3132
to 3130
people 3121
wearing 2623
young 2280
white 2223
shirt 2132
black 2003
his 1969
while 1947
blue 1871
men 1790
red 1778
sitting 1743
girl 1733
dog 1691
boy 1689
standing 1614
playing 1594
group 1552
street 1445
down 1407
walking 1378
front 1306
her 1263
holding 1237
one 1210
by 1098
water 1084
y 1074
three 1055
ed 1037
up 1008
e@@ 1000
women 988
looking 942
ing 936
as 933
green 924
little 915
for 906
child 894
outside 871
large 841
s@@ 814
through 813
c@@ 795
yellow 781
t@@ 778
st@@ 777
f@@ 774
w@@ 769
children 768
brown 766
d 760
in@@ 756
person 753
ball 732
hat 728
from 728
their 725
into 711
p@@ 704
e 691
out 686
ers 676
b@@ 673
small 671
m@@ 669
next 664
other 660
es 658
dressed 642
some 624
p 618
er 616
over 611
building 603
g@@ 600
d@@ 595
s 591
riding 584
running 581
near 571
jacket 566
ts 565
around 562
another 562
o@@ 559
un@@ 558
k@@ 549
re@@ 544
-@@ 543
de@@ 541
field 536
sidewalk 534
table 528
orange 524
crowd 521
beach 520
ting 516
a@@ 515
air 512
t 505
stands 498
y@@ 493
pink 493
l 493
sits 492
jumping 491
behind 489
ra@@ 486
l@@ 478
top 477
stand 468
grass 468
bike 465
lo@@ 462
background 460
snow 459
ding 457
n@@ 453
i@@ 452
sh@@ 450
city 446
&apos;s 444
girls 441
se@@ 440
player 429
looks 423
asian 421
th@@ 421
ds 420
wall 417
dogs 413
la@@ 409
ar@@ 408
dress 406
several 404
al@@ 404
that 404
older 402
four 400
st 397
off 394
h@@ 393
camera 393
mo@@ 391
hair 391
park 389
side 388
en@@ 384
di@@ 384
talking 382
it 382
ly 380
lady 380
something 380
boys 376
soccer 375
walks 371
along 370
old 368
guitar 367
working 365
food 364
play 363
together 361
walk 355
le 355
smiling 353
k 350
gray 343
plays 341
game 340
picture 340
w 339
has 339
road 339
po@@ 338
ti@@ 338
co@@ 336
er@@ 336
o 335
car 332
con@@ 331
suit 330
v@@ 328
hand 327
ch@@ 327
le@@ 325
holds 322
ling 320
glasses 317
head 316
pants 315
bench 314
li@@ 312
him 312
sit 311
ta@@ 311
ck 307
shorts 304
ma@@ 303
stage 303
carrying 300
couple 299
baby 299
ground 298
ch 295
c 293
them 290
op@@ 290
ks 289
its 289
bicycle 287
it@@ 287
lea@@ 286
face 281
&quot; 280
pool 279
male 279
tree 279
race 279
back 277
se 277
ri@@ 276
n 276
taking 275
rock 273
room 273
king 272
day 272
each 272
m 271
g 271
ls 268
way 267
doing 267
boat 266
watching 261
um@@ 261
across 261
ve 260
guy 260
or 260
jeans 259
dirt 259
there 259
ac@@ 258
hi@@ 258
ps 258
area 258
do@@ 257
tra@@ 256
ca@@ 256
ir@@ 253
blond 252
an@@ 252
or@@ 252
b 251
jumps 250
bo@@ 248
band 248
ching 248
hands 248
pi@@ 248
ice 246
ro@@ 245
female 245
el@@ 244
to@@ 243
coat 242
al 242
performing 241
ys 239
sa@@ 239
baseball 238
who 237
eating 236
mu@@ 236
ter 235
car@@ 235
pu@@ 234
being 233
striped 232
ws 231
les 229
using 229
si@@ 229
football 229
wing 228
sign 228
il@@ 227
at@@ 226
all 226
kids 225
pe@@ 225
watch 225
under 224
many 223
sho@@ 223
fi@@ 223
store 222
horse 222
am@@ 221
mouth 221
purple 221
ex@@ 221
he 220
ves 218
ne@@ 218
be 217
ea@@ 217
ck@@ 217
long 217
ba@@ 216
this 216
on@@ 215
look 214
sand 213
chair 213
posing 212
runs 212
en 212
tennis 212
sh 212
bu@@ 211
reading 210
pa@@ 210
u@@ 210
z@@ 209
wa@@ 209
players 209
ping 208
sunglasses 208
construction 208
cu@@ 207
be@@ 204
board 204
clothing 203
work 202
microphone 202
h 200
ches 200
mountain 200
bar@@ 199
covered 199
line 199
toy 198
ocean 198
dark 198
basketball 198
during 197
light 197
workers 197
ving 197
gs 195
middle 194
watches 194
climbing 193
t-shirt 193
dancing 192
uniform 192
we@@ 191
past 191
pre@@ 191
elderly 190
go@@ 190
ded 190
che@@ 189
ter@@ 189
ho@@ 188
restaurant 188
helmet 187
against 187
ke@@ 187
te 187
is@@ 186
train 185
team 185
window 183
der 183
br@@ 183
clo@@ 183
ate 181
rides 181
ur@@ 179
they 178
set 178
about 177
colored 176
trees 174
wooden 173
five 173
having 173
waiting 173
outdoor 173
bag 172
em@@ 170
sp@@ 170
very 169
swimming 169
getting 168
ni@@ 167
cks 166
floor 166
trying 165
truck 165
et@@ 165
shirts 164
ted 163
skateboard 163
colorful 163
mar@@ 162
sta@@ 161
cal 161
gi@@ 160
busy 160
ess 160
singing 159
fence 159
book 159
no@@ 158
hu@@ 158
hill 158
ic@@ 158
ine 158
ant 157
jump 157
ons 157
te@@ 157
r 156
market 156
slee@@ 156
age 156
r@@ 156
over@@ 155
bl@@ 155
cart 154
com@@ 154
dr@@ 153
gh@@ 153
ad@@ 151
ride 151
laying 150
col@@ 150
bal@@ 150
inside 150
ha@@ 150
pe 150
hats 149
pla@@ 149
high 148
ces 148
tan 147
bright 147
ats 146
hoo@@ 146
ce 145
body 145
ation 145
others 145
kitchen 145
pass@@ 145
cap 145
cellphone 144
path 144
grassy 144
ors 144
tr@@ 143
su@@ 143
low 143
big 143
someone 143
ying 142
ings 142
tur@@ 142
making 142
pos@@ 142
ff@@ 141
night 141
j@@ 141
bus 141
clothes 141
sts 141
ill@@ 140
phone 140
takes 140
motorcycle 140
sk@@ 139
umbrella 139
me@@ 138
towards 138
full 138
outfit 138
led 138
gar@@ 138
ent 138
shop 138
track 137
blo@@ 137
enjoying 137
brick 137
ru@@ 136
yard 136
fli@@ 136
ele@@ 135
als 135
metal 135
ol@@ 134
river 134
swing 134
ating 133
piece 133
paper 133
ou@@ 133
ready 133
cor@@ 133
shes 132
pic@@ 132
stone 132
vi@@ 132
ders 132
tri@@ 131
el 131
mi@@ 131
she 131
and@@ 130
me 130
ga@@ 129
arm 129
tank 129
dra@@ 129
fa@@ 129
ear 129
et 128
shing 128
ge 128
per@@ 127
house 127
sha@@ 127
bri@@ 127
open 126
de 126
mat@@ 126
worker 126
sweater 126
bro@@ 125
gr@@ 125
trick 125
painting 124
above 124
stick 124
xing 124
sw@@ 123
hel@@ 123
lake 123
he@@ 123
mon@@ 123
-haired 122
eat 122
cha@@ 122
adults 122
american 122
going 122
str@@ 122
music 121
ger 121
for@@ 121
hard 120
vest 120
i 120
snowy 120
tu@@ 120
dance 120
stu@@ 119
surrounded 119
kne@@ 119
ap@@ 119
wave 119
run 119
shopping 119
onto 119
dri@@ 118
wi@@ 118
head@@ 118
uniforms 118
ner 118
like 117
hand@@ 117
outdoors 117
crowded 117
ched 117
ning 117
ep 117
ars 116
aving 116
fire 116
photo 116
thro@@ 116
pat@@ 115
backpack 115
ten@@ 115
beside 115
smiles 115
gear 115
dan@@ 115
stri@@ 115
kid 114
cat@@ 113
ge@@ 113
pole 113
hockey 112
ans 112
subway 112
african 112
cur@@ 112
drinking 112
ble 112
water@@ 112
sing 112
rea@@ 111
ke 111
can@@ 111
ses 111
family 111
qu@@ 110
sand@@ 110
els 110
bridge 110
flowers 110
ste@@ 109
kes 109
art 109
toddler 109
sel@@ 109
guys 108
rope 108
arms 108
sun@@ 108
wel@@ 108
gathered 108
event 108
police 107
shoes 107
hanging 107
lot 107
out@@ 107
ju@@ 106
catch 106
away 106
gu@@ 106
cra@@ 106
x@@ 106
preparing 105
beautiful 105
wn 105
du@@ 105
sc@@ 105
pl@@ 105
back@@ 104
flo@@ 104
object 103
steps 103
sleeping 103
costume 103
2 103
offic@@ 103
leaning 103
pon@@ 102
um 102
after 102
ped 102
fishing 102
ther 102
attemp@@ 102
fin@@ 102
ard 101
machine 101
ft 101
pan@@ 100
fol@@ 100
fountain 100
plaid 100
bar 100
ker 99
shirtless 99
par@@ 99
gging 99
motor@@ 99
lar 99
cl@@ 99
stairs 99
wood 98
take 98
chairs 98
ales 97
adult 97
end 97
sm@@ 96
fire@@ 96
rocks 96
ve@@ 96
f 96
eling 95
gg@@ 95
x 95
run@@ 95
gre@@ 95
selling 94
ver@@ 94
sunny 94
door 94
graffiti 94
fac@@ 93
pro@@ 93
haired 93
ph@@ 93
does 93
cing 93
glass 93
ai@@ 93
fore@@ 93
forest 93
photograph@@ 93
setting 92
ot@@ 92
cre@@ 92
pose 92
av@@ 92
ght 92
gra@@ 92
parade 92
racing 92
tall 91
hea@@ 91
time 91
des 91
she@@ 90
ery 90
rol@@ 90
spe@@ 90
putting 90
get 90
ser@@ 90
both 90
corner 90
volleyball 90
pushing 89
snow@@ 89
throwing 89
frisbee 89
scarf 89
ops 89
view 89
have 88
slide 88
ladies 88
drink 88
between 88
wh@@ 87
gro@@ 87
public 87
laughing 87
short 87
computer 87
tion 87
ss@@ 87
instruments 86
flag 86
fla@@ 86
dd@@ 86
equipment 86
ci@@ 86
sting 86
om@@ 86
fish 85
ie 85
bed 85
couch 85
shoul@@ 85
where 85
ment 85
pictures 85
bikes 85
cking 85
ese 85
lif@@ 85
pes 84
plastic 84
roller 84
phones 84
cowboy 84
ction 84
ned 84
ramp 84
un 84
party 84
which 83
playground 83
works 83
oo@@ 83
ated 83
ty 83
sweatshirt 83
ban@@ 83
poses 83
sed 83
trail 83
woods 83
reads 83
ked 83
sun 82
concrete 82
ining 82
din@@ 82
under@@ 82
wr@@ 82
statue 82
coun@@ 82
beard 82
na@@ 82
ely 81
cla@@ 81
dock 81
ski@@ 81
dy 81
midair 81
air@@ 81
iting 81
winter 81
pil@@ 80
bla@@ 80
ins 80
ines 80
squ@@ 80
stra@@ 80
inter@@ 80
number 80
suits 80
just 80
cam@@ 79
skirt 79
e-@@ 79
pping 79
seated 79
row 79
foot 79
dis@@ 78
distance 78
cher 78
der@@ 77
sky 77
attire 77
sin@@ 77
toward 77
tea@@ 77
mer 77
den 77
up@@ 77
what 77
bags 77
beer 76
bat@@ 76
six 76
wheel@@ 76
enjo@@ 76
cooking 76
ite 76
place 76
school 76
multi@@ 75
vests 75
im 75
cutting 75
cheer@@ 75
blond-hair 75
jo@@ 75
mas 75
ally 75
fe@@ 75
filled 75
iz@@ 75
lined 75
rider 75
all@@ 75
ver 74
buildings 74
dark@@ 74
cross 74
shore 74
tro@@ 74
left 74
ens 74
pulling 74
tent 74
her@@ 74
tatto@@ 73
so@@ 73
rest@@ 73
mother 73
cream 73
pin@@ 73
middle-aged 73
arts 73
ss 73
station 72
ven@@ 72
skateboarder 72
sca@@ 72
crossing 72
ster 72
cliff 72
ki@@ 72
friends 72
ct 72
wrest@@ 72
arm@@ 72
appears 72
go 72
har@@ 72
rela@@ 72
est 72
edge 71
showing 71
wn@@ 71
instrument 71
ure 71
bub@@ 71
spectators 71
mountains 71
few 71
cal@@ 71
ns 71
bearded 70
horses 70
bathing 70
swim@@ 70
ack 70
ved 70
por@@ 70
net 70
jersey 70
ry 70
bicycli@@ 70
show 70
cars 70
th 70
cket 70
cer@@ 70
pul@@ 69
ven 69
gers 69
nearby 69
right 69
ben@@ 69
pped 69
pit@@ 69
athle@@ 69
performs 69
dresses 69
make 69
court 69
driving 68
ctor 68
tal@@ 68
grill 68
concert 68
bowling 68
fen@@ 68
carries 68
apron 68
can 68
perform 68
the@@ 68
off@@ 68
box 68
snowboarder 68
shi@@ 67
fruit 67
bles 67
ish 67
ig@@ 67
prote@@ 67
leaves 67
figh@@ 66
painted 66
structure 66
coffee 66
swe@@ 66
ple 66
parked 66
vendor 66
flower 66
sli@@ 66
bru@@ 66
arti@@ 66
various 66
cigarette 66
boots 66
students 66
cake 65
ken 65
cup 65
ler 65
leans 65
vehicle 65
gentleman 65
brea@@ 65
kers 65
goggles 65
younger 65
stom@@ 65
whe@@ 65
smile 65
shot 65
surfer 65
mem@@ 64
bottle 64
lan@@ 64
flying 64
ham@@ 64
boo@@ 64
ous 64
lit 64
martial 64
drums 64
spla@@ 64
talks 64
smoking 64
rain 64
new 63
kicking 63
ave@@ 63
flags 63
dire@@ 63
home 63
eyes 63
no 63
hit 63
ates 63
cau@@ 63
wal@@ 63
cel@@ 63
lying 63
bor@@ 63
roller@@ 63
ic 63
waves 62
safety 62
ct@@ 62
rocky 62
paint 62
swinging 62
coming 62
newspaper 62
alley 62
jackets 62
ral 62
bel@@ 62
ghtly 62
but@@ 62
long@@ 62
stre@@ 62
rodeo 62
prepares 62
uses 62
sto@@ 61
case 61
conversation 61
rail 61
red-@@ 61
gather 61
different 61
parking 61
bucket 61
practicing 61
chin@@ 61
costumes 61
gloves 61
skating 61
indian 61
ladder 60
cleaning 60
bunch 60
scene 60
ber 60
ards 60
competition 60
son 60
cro@@ 60
roof 60
clu@@ 60
listening 60
hold 60
fal@@ 60
hor@@ 60
ar 60
cement 60
bull 60
wait 59
tie 59
tor@@ 59
tw@@ 59
wet 59
blanket 59
tre@@ 59
wor@@ 59
padd@@ 59
skier 59
ight 59
items 59
onlookers 59
skateboarding 59
teenag@@ 59
staring 59
viol@@ 59
da@@ 59
es@@ 58
conver@@ 58
balloon 58
individu@@ 58
fo@@ 58
meal 58
pile 58
bikini 58
boar@@ 58
lawn 58
railing 58
audience 58
bicycles 58
ered 58
giving 58
empty 58
3 58
desk 58
ctive 57
leaps 57
ght@@ 57
ple@@ 57
ette 57
happy 57
ad 57
sle@@ 57
lap@@ 57
han@@ 57
; 57
ial 57
drinks 57
military 57
fer@@ 57
gets 57
hot 57
obser@@ 56
bi@@ 56
ath 56
sliding 56
country 56
gathering 56
bird 56
display 56
tes 56
ach 56
zz@@ 56
sports 56
vegetables 56
pointing 56
signs 56
cer 56
class 55
walk@@ 55
do 55
win@@ 55
wedding 55
bowl 55
facing 55
stop 55
bs 55
pers 55
pet 55
cut 55
min@@ 55
sn@@ 55
feet 55
streets 55
cers 55
chasing 55
sort 55
busin@@ 55
om 55
skat@@ 55
biker 55
before 55
spea@@ 55
competing 55
self 54
crou@@ 54
cross@@ 54
ity 54
platform 54
cyclist 54
huge 54
ind 54
helmets 54
ue 54
stret@@ 54
id 54
ger@@ 54
speaking 54
mask 54
basket 54
silver 53
bride 53
sti@@ 53
tries 53
cli@@ 53
rist@@ 53
lights 53
fri@@ 53
fall 53
pass 53
man@@ 53
match 53
surfing 53
shoo@@ 53
soldi@@ 53
classroom 53
ants 53
teams 53
purse 52
climbs 52
father 52
seen 52
bur@@ 52
woo@@ 52
ong 52
sticks 52
ori@@ 52
traditional 52
ong@@ 52
aved 52
wra@@ 52
ski 52
waits 52
sings 52
surfboard 52
produ@@ 52
marathon 52
lar@@ 51
plane 51
urban 51
la 51
kissing 51
lu@@ 51
bot@@ 51
ring 51
screen 51
acks 51
shed 51
mirro@@ 51
animal 51
tou@@ 51
cano@@ 51
musicians 51
fle@@ 50
gh 50
per 50
ctri@@ 50
ges 50
break 50
iling 50
fre@@ 50
sea@@ 50
ce@@ 50
ill 50
bir@@ 50
dium 50
wer 50
town 50
fem@@ 50
am 49
site 49
sement 49
proje@@ 49
stor@@ 49
ents 49
ail 49
caf@@ 49
cit@@ 49
ise 49
dle 49
ence 48
gymna@@ 48
blond-@@ 48
pr@@ 48
scooter 48
ato@@ 48
dir@@ 48
je@@ 48
pain@@ 48
ters 48
wat@@ 48
las 48
box@@ 47
tables 47
ary 47
dge 47
ils 47
course 47
val 47
jum@@ 47
exam@@ 47
partici@@ 47
ful@@ 47
mer@@ 47
balan@@ 47
sty@@ 47
poin@@ 47
perform@@ 47
end@@ 46
tran@@ 46
adver@@ 46
ound 46
cyc@@ 46
fl@@ 45
ballo@@ 45
kic@@ 45
teen@@ 45
discu@@ 45
ton 45
ace 45
ging 45
base 45
us 45
part@@ 44
eld 44
ati@@ 44
gym 44
py 44
aring 44
umbrel@@ 44
ol 44
skate 44
fic 44
ement 44
ey@@ 43
sur@@ 43
clown 43
guit@@ 43
die 43
1@@ 43
bra@@ 43
stic@@ 43
d-@@ 43
ny 43
ative 43
dau@@ 43
cho@@ 43
oc@@ 43
tal 43
ja@@ 43
play@@ 42
hou@@ 42
vice 42
golf 42
cr@@ 42
gol@@ 42
ening 42
musi@@ 42
ssion 41
deo 41
ent@@ 41
accor@@ 41
sses 41
ber@@ 40
key 40
iti@@ 40
ures 40
kar@@ 40
form@@ 40
v 39
hap@@ 39
cover@@ 39
t-@@ 39
work@@ 39
inf@@ 39
bloc@@ 39
gle 39
vie@@ 39
flu@@ 39
pati@@ 39
atta@@ 39
und 39
mes 39
performance 39
sprin@@ 38
cir@@ 38
don@@ 38
ade 38
tunnel 38
ies 38
lin@@ 38
ssing 38
microscope 38
hal@@ 38
soc@@ 38
touri@@ 38
spor@@ 38
pare 37
vol@@ 37
onal 37
carri@@ 37
cri@@ 37
oun@@ 37
cent@@ 37
asi@@ 37
chef 37
lun@@ 37
robe 37
ball@@ 36
bun@@ 36
ets 36
pour@@ 36
part 36
sculpture 36
ator 36
sert 36
colle@@ 36
pot 36
lots 36
&apos; 36
bow@@ 36
beige 36
vers 36
atten@@ 36
ang@@ 36
ire 36
ack@@ 36
photogra@@ 36
cycli@@ 36
0@@ 36
cle 35
mach@@ 35
jogging 35
stru@@ 35
rou@@ 35
il 35
dent 35
pier 35
port 35
ym@@ 35
escope 35
poli@@ 35
new@@ 35
tire 35
ing@@ 35
sol@@ 34
magaz@@ 34
rying 34
swimm@@ 34
pri@@ 34
visi@@ 34
dro@@ 34
nav@@ 34
chi@@ 34
scen@@ 33
appro@@ 33
eng@@ 33
sk 33
sco@@ 33
ki 33
trampoline 33
rece@@ 33
practi@@ 33
cou@@ 33
uni@@ 33
climb@@ 32
fr@@ 32
ile 32
scu@@ 32
snowboar@@ 32
4 32
tex@@ 32
os 32
surface 32
professi@@ 32
blouse 31
skis 31
softball 31
enti@@ 31
fra@@ 31
hom@@ 31
iner 31
mor@@ 31
tin@@ 31
pal@@ 31
kaya@@ 31
sem@@ 31
fro@@ 30
sen@@ 30
pen@@ 30
bou@@ 30
ires 30
club 30
tle 30
ado@@ 30
appe@@ 30
thers 30
inspec@@ 30
gaz@@ 29
ssi@@ 29
int 29
num@@ 29
gentlem@@ 29
gon 29
sci@@ 29
eu@@ 29
fil@@ 29
ray@@ 29
festival 29
windo@@ 29
char@@ 29
sig@@ 29
march@@ 29
im@@ 29
kayak 28
cour@@ 28
amu@@ 28
jean 28
ass@@ 28
arr@@ 28
bran@@ 28
vis@@ 28
ag@@ 28
type 28
grou@@ 28
quat@@ 28
tow@@ 28
pur@@ 28
ble@@ 28
robes 28
list@@ 28
san@@ 28
2@@ 28
sale 27
son@@ 27
scar@@ 27
camer@@ 27
try 27
shop@@ 27
ones 27
ful 27
loo@@ 27
saxophone 27
lau@@ 27
ul@@ 27
uring 27
suspen@@ 27
pol@@ 27
podium 27
pav@@ 27
fu@@ 27
piano 27
side@@ 27
ily 27
glo@@ 27
ligh@@ 26
bik@@ 26
dre@@ 26
anim@@ 26
drum@@ 26
backp@@ 26
sil@@ 26
ages 26
laugh@@ 26
skateboar@@ 26
camouflage 26
skir@@ 26
image 26
color@@ 26
bandan@@ 26
use 26
polo 26
hol@@ 26
rugby 26
ou 25
colo@@ 25
our 25
fs 25
pli@@ 25
ty@@ 25
escal@@ 25
ance 25
ot 25
5 25
vic@@ 25
gen@@ 25
ool 25
ctions 25
musici@@ 25
compe@@ 25
ion 25
ange 25
pet@@ 25
scre@@ 25
york 25
lam@@ 25
u 25
sent@@ 25
sport 25
comm@@ 24
surf 24
prin@@ 24
ms 24
une 24
sof@@ 24
au@@ 24
plan@@ 24
jerse@@ 24
lon@@ 24
micro@@ 24
1 24
of@@ 23
super@@ 23
ations 23
flow@@ 23
ff 23
dou@@ 23
surf@@ 23
ave 23
lit@@ 23
parachu@@ 23
assi@@ 23
para@@ 23
foot@@ 22
0 22
obstacle 22
vehic@@ 22
ems 22
ises 22
! 22
chers 22
orche@@ 22
desc@@ 22
id@@ 22
dding 22
barbecue 21
some@@ 21
sweat@@ 21
irs 21
( 21
cell@@ 21
che 21
sub@@ 21
shor@@ 21
t-shirts 21
bul@@ 21
nent 21
surroun@@ 21
fet@@ 21
bill@@ 20
que 20
pull 20
snowboard 20
but 20
bask@@ 20
fruits 20
tom@@ 20
nat@@ 20
) 20
ich 20
motocross 20
chan@@ 20
figure 20
rough 20
ir 20
mom@@ 20
tron@@ 20
uniform@@ 19
tru@@ 19
circu@@ 19
tiv@@ 19
parti@@ 19
pra@@ 19
bon@@ 19
mounta@@ 19
ur 19
met@@ 19
mil@@ 19
ram@@ 19
mea@@ 18
ther@@ 18
bon 18
condu@@ 18
pie@@ 18
sal@@ 18
cow@@ 18
position 18
lean@@ 18
tem@@ 18
ley 17
balance 17
nu@@ 17
ssy 17
buil@@ 17
employ@@ 17
sou@@ 17
afri@@ 17
ton@@ 17
vege@@ 17
tan@@ 17
plu@@ 17
ree 17
cloth@@ 17
sculp@@ 17
tat@@ 17
crow@@ 17
stand@@ 17
ne 17
quet 17
embra@@ 17
ockey 17
iture 17
ands 16
icyc@@ 16
&a@@ 16
labor@@ 16
stat@@ 16
compu@@ 16
cas@@ 16
sit@@ 16
blan@@ 16
qui@@ 16
ess@@ 16
gym@@ 16
obje@@ 16
news@@ 16
&apos;@@ 16
ites 16
3@@ 15
ob@@ 15
yel@@ 15
gri@@ 15
terrain 15
sor@@ 15
ture 15
aut@@ 15
americ@@ 15
aged 15
photos 15
ggles 15
mag@@ 15
sent 15
.@@ 15
illage 15
indi@@ 15
band@@ 15
gli@@ 14
sau@@ 14
cher@@ 14
cade 14
attra@@ 14
uns 14
cycle 14
colli@@ 14
cture 14
gla@@ 14
men@@ 14
ari@@ 14
kit@@ 14
point 14
mir@@ 14
sse 14
mou@@ 13
arri@@ 13
four@@ 13
less 13
stance 13
cs 13
que@@ 13
compet@@ 13
aud@@ 13
form 13
af@@ 13
tage 13
mb@@ 13
ut@@ 13
8 13
shir@@ 13
acro@@ 13
scoot@@ 12
ka@@ 12
ere 12
bicyc@@ 12
ron@@ 12
en-@@ 12
let@@ 12
6 12
5@@ 12
ork 11
mid@@ 11
constru@@ 11
rapi@@ 11
jet 11
j 11
ren@@ 11
vit@@ 11
foo@@ 11
are@@ 11
our@@ 11
salon 11
dor@@ 11
roun@@ 11
tures 11
dress@@ 11
cti@@ 11
prepar@@ 11
todd@@ 10
thing 10
bre@@ 10
appar@@ 10
sons 10
vari@@ 10
stac@@ 10
jack@@ 10
dar@@ 10
gue 10
lem@@ 10
nel 10
entr@@ 10
va@@ 10
gy@@ 10
pier@@ 10
le-@@ 10
cin@@ 10
mul@@ 10
dies 10
oranges 10
floo@@ 10
9@@ 10
ima@@ 10
# 10
ban 10
ili@@ 10
bes 9
apr@@ 9
s-@@ 9
hind 9
tourn@@ 9
ouse 9
diti@@ 9
z 9
moto@@ 9
4@@ 9
tun@@ 9
ore@@ 9
vo@@ 9
ues 8
hau@@ 8
yer 8
vir@@ 8
ket 8
roll@@ 8
ounta@@ 8
gir@@ 8
ettes 8
sa 8
rock@@ 8
pel@@ 8
grand 8
shou@@ 8
tour 8
som@@ 8
- 8
graff@@ 8
tro 7
main 7
barbe@@ 7
trot@@ 7
ition 7
comb@@ 7
9 7
zone 7
inging 7
ends 7
inst@@ 7
cigar@@ 7
ments 7
ste 7
trans@@ 7
? 7
spect@@ 7
ser 7
occu@@ 7
chil@@ 7
fron@@ 7
festi@@ 7
sac@@ 7
bikin@@ 7
pou@@ 7
dess@@ 7
7 7
8@@ 7
6@@ 7
autom@@ 6
ign@@ 6
fam@@ 6
tons 6
pant 6
gues 6
sy 6
personn@@ 6
profe@@ 6
sno@@ 6
tor 6
tau@@ 6
dos 6
re-@@ 6
scope 6
util@@ 6
portable 6
fit 6
wit@@ 6
cham@@ 6
chu@@ 6
near@@ 6
ach@@ 6
pom@@ 6
sage 5
re 5
rem@@ 5
unes 5
youn@@ 5
pau@@ 5
ffe@@ 5
mail@@ 5
read@@ 5
mic@@ 5
marches 5
bee 5
ron 5
basket@@ 5
saxoph@@ 5
attendant 5
strum@@ 5
rer 5
pied 5
gent 5
prom@@ 5
emp@@ 5
grim@@ 5
trou@@ 5
chant 5
pagne 5
middle-@@ 5
q 4
plat@@ 4
kitch@@ 4
nique 4
bear@@ 4
jam@@ 4
ements 4
restau@@ 4
peop@@ 4
equip@@ 4
roses 4
descend 4
prof@@ 4
ier 4
dings 4
fru@@ 4
dor 4
sque 4
enf@@ 4
mani@@ 4
proxim@@ 4
sant 4
sol 4
chem@@ 4
yant 3
vent 3
route 3
chev@@ 3
tting 3
ro 3
los 3
adul@@ 3
oran@@ 3
aves 3
adolescent 3
iff@@ 3
onloo@@ 3
attend 3
tant 3
graffit@@ 3
abo@@ 3
tiss@@ 3
specta@@ 3
audi@@ 3
: 3
tout 3
quel@@ 3
tball 3
lance 3
spen@@ 3
du 3
bit@@ 3
aga@@ 3
mets 3
lad@@ 3
tend@@ 3
pause 3
mari@@ 3
bout 3
beauti@@ 3
lev@@ 3
blonds 3
regar@@ 2
iers 2
plan 2
bonnet 2
diff@@ 2
class@@ 2
fris@@ 2
lent 2
tre 2
dame 2
trav@@ 2
ux 2
traverse 2
ques 2
adolesc@@ 2
gon@@ 2
met 2
ret 2
tte 2
portant 2
ath@@ 2
aux 2
pour 2
tabl@@ 2
journal 2
sweat 2
,@@ 2
rine 2
jou@@ 2
rose 2
veral 2
barb@@ 2
volle@@ 2
oce@@ 2
iss@@ 2
ensemble 2
isc@@ 2
lons 2
mot@@ 2
% 2
violet 2
ell@@ 2
ordin@@ 2
ai 2
gent@@ 2
lac 2
photo@@ 2
ouv@@ 2
cue 2
plom@@ 2
ang 2
ale 2
spec@@ 1
lage 1
appr@@ 1
combin@@ 1
isi@@ 1
mains 1
bas 1
etting 1
spectat@@ 1
imm@@ 1
ille 1
hors 1
vres 1
au 1
peu@@ 1
public@@ 1
stes 1
urs 1
toboggan 1
brand@@ 1
res 1
sax@@ 1
sous 1
casque 1
oire 1
ballons 1
nu 1
twe@@ 1
esp@@ 1
gars 1
again@@ 1
pian@@ 1
crav@@ 1
skate@@ 1
centre 1
ffect@@ 1
ope 1
loy@@ 1
mout@@ 1
pho@@ 1
q@@ 1
oking 1
eur 1
milit@@ 1
rand@@ 1
eurs 1
shirt@@ 1
performan@@ 1
comp@@ 1
grav@@ 1
enou@@ 1
enta@@ 1
nage 1
chemise 1
fai@@ 1
coupe 1
7@@ 1
concre@@ 1
te-@@ 1
$ 1
bras 1
traver@@ 1
vert 1
pay@@ 1
oph@@ 1
nis 1
esc@@ 1
sole@@ 1
loin 1
fou@@ 1
jer@@ 1
ait 1
fon@@ 1
din 1
smil@@ 1
sac 1
gne 1
fum@@ 1
journ@@ 1
par 1
yc@@ 1
quette 1
sch@@ 1
differ@@ 1
coin 1
tram@@ 1
midd@@ 1
asse 1
obstac@@ 1
concer@@ 1
leur 1
cuisine 1
= 1
sembl@@ 1
