a 49643
. 27642
in 15060
the 10959
on 8245
man 7901
is 7579
and 7381
of 6867
with 6179
woman 3976
, 3963
two 3877
are 3782
an 3146
to 3130
people 3121
at 3013
wearing 2623
young 2280
white 2223
shirt 2132
black 2003
his 1969
while 1947
blue 1871
men 1790
red 1778
sitting 1743
girl 1733
dog 1691
boy 1689
standing 1614
playing 1594
group 1552
street 1445
down 1407
walking 1378
front 1306
her 1263
holding 1237
one 1129
water 1084
by 1081
three 1055
women 988
up 975
as 933
green 924
little 915
for 906
looking 895
child 894
outside 871
ed 860
y 842
large 841
through 813
yellow 781
children 768
brown 766
person 753
ball 732
hat 728
from 728
their 725
into 711
small 671
ing 664
next 664
other 660
e@@ 657
out 652
dressed 642
some 624
over 611
st@@ 604
building 603
riding 584
running 581
t@@ 574
near 571
jacket 566
around 562
another 562
f@@ 561
w@@ 544
field 536
sidewalk 534
s@@ 534
table 528
orange 524
crowd 521
in@@ 520
beach 520
s 507
d@@ 504
stands 498
pink 493
sits 492
jumping 491
behind 489
es 475
air 473
stand 468
grass 468
re@@ 466
bike 465
-@@ 464
background 460
snow 459
city 446
&apos;s 444
girls 441
k@@ 440
d 439
top 437
player 429
ding 423
looks 423
asian 421
er 419
wall 417
dogs 413
sh@@ 411
dress 406
several 404
that 404
older 402
four 400
ers 399
b@@ 396
off 394
camera 393
g@@ 393
ts 392
hair 391
i@@ 390
p@@ 389
m@@ 389
park 389
a@@ 388
o@@ 386
talking 382
it 382
t 381
de@@ 381
lady 380
something 380
se@@ 379
p 379
ds 379
boys 376
y@@ 375
soccer 375
walks 371
along 370
guitar 367
l 366
working 365
food 364
play 363
together 361
smiling 353
side 352
ting 347
c@@ 344
gray 343
e 342
plays 341
game 340
picture 340
has 339
road 339
n@@ 338
ly 335
car 332
suit 330
hand 327
holds 322
walk 322
glasses 317
old 317
head 316
pants 315
bench 314
him 312
sit 311
shorts 304
stage 303
k 302
carrying 300
couple 299
baby 299
ar@@ 294
them 290
po@@ 287
bicycle 287
face 281
ti@@ 280
ra@@ 280
&quot; 280
pool 279
male 279
tree 279
race 279
back 277
taking 275
mo@@ 274
rock 273
room 273
day 272
each 272
doing 267
boat 266
h@@ 263
watching 261
across 261
guy 260
or 260
jeans 259
dirt 259
there 259
lo@@ 258
area 258
co@@ 258
ground 254
un@@ 253
blond 252
jumps 250
st 249
con@@ 249
band 248
hands 248
l@@ 246
female 245
li@@ 242
coat 242
its 242
it@@ 242
performing 241
la@@ 239
n 239
m 238
baseball 238
who 237
th@@ 237
eating 236
ck 235
being 233
striped 232
en@@ 230
le 229
using 229
football 229
sign 228
g 227
kids 225
watch 225
under 224
ca@@ 224
many 223
ch 223
an@@ 223
al@@ 222
ri@@ 222
store 222
horse 222
ks 221
ps 221
mouth 221
purple 221
he 220
o 217
long 217
this 216
on@@ 214
look 214
sand 213
chair 213
runs 212
en 212
tennis 212
reading 210
ro@@ 209
u@@ 209
players 209
bu@@ 208
sunglasses 208
construction 208
all 206
er@@ 205
ice 204
board 204
ch@@ 203
clothing 203
ve 202
to@@ 202
work 202
microphone 202
car@@ 201
at@@ 200
mountain 200
covered 199
line 199
toy 198
ocean 198
pa@@ 198
dark 198
basketball 198
during 197
light 197
workers 197
op@@ 197
le@@ 196
middle 194
v@@ 194
watches 194
climbing 193
be 193
t-shirt 193
dancing 192
uniform 192
si@@ 192
king 191
past 191
elderly 190
pe@@ 189
restaurant 188
al 187
helmet 187
against 187
w 186
train 185
team 185
window 183
or@@ 183
rides 181
they 178
posing 178
di@@ 178
way 177
about 177
ac@@ 174
b 174
trees 174
wooden 173
les 173
five 173
having 173
waiting 173
outdoor 173
um@@ 173
ea@@ 172
bag 172
z@@ 171
very 169
swimming 169
getting 168
ta@@ 168
il@@ 168
ling 167
pu@@ 166
el@@ 166
floor 166
am@@ 166
ne@@ 165
trying 165
be@@ 165
truck 165
shirts 164
ted 163
skateboard 163
colorful 163
ls 163
mar@@ 162
ches 162
ba@@ 161
tra@@ 160
busy 160
mu@@ 160
singing 159
fence 159
book 159
hill 158
ex@@ 158
cu@@ 157
jump 157
ded 157
market 156
c 156
r@@ 156
cart 154
pre@@ 154
ws 154
ic@@ 153
gs 152
ride 151
laying 150
inside 150
bar@@ 150
hats 149
high 148
tan 147
bright 147
ves 146
wa@@ 146
body 145
others 145
kitchen 145
cap 145
cellphone 144
path 144
grassy 144
ter 144
big 143
someone 143
sa@@ 143
ying 142
making 142
night 141
bus 141
clothes 141
ter@@ 141
phone 140
takes 140
motorcycle 140
sh 140
ma@@ 139
bo@@ 139
umbrella 139
towards 138
full 138
outfit 138
shop 138
ching 137
track 137
enjoying 137
brick 137
yard 136
colored 135
metal 135
ck@@ 134
river 134
der 134
swing 134
ating 133
piece 133
paper 133
fi@@ 133
ready 133
ad@@ 132
stone 132
she 131
se 129
arm 129
tank 129
set 129
ine 128
che@@ 128
house 127
sha@@ 127
et@@ 127
no@@ 126
open 126
worker 126
sweater 126
bro@@ 125
trick 125
painting 124
above 124
ation 124
stick 124
lake 123
mon@@ 123
cha@@ 122
adults 122
american 122
going 122
str@@ 122
music 121
ir@@ 121
hard 120
vest 120
snowy 120
dance 120
surrounded 119
te@@ 119
bl@@ 119
wave 119
run 119
lea@@ 119
shopping 119
ys 119
onto 119
go@@ 118
uniforms 118
like 117
hand@@ 117
outdoors 117
crowded 117
ched 117
ning 117
ap@@ 116
fire 116
photo 116
et 115
backpack 115
mi@@ 115
beside 115
pos@@ 115
smiles 115
gear 115
cks 114
we@@ 114
kid 114
pi@@ 114
ces 114
pole 113
ce 112
hockey 112
subway 112
african 112
cur@@ 112
drinking 112
water@@ 112
do@@ 111
ke 111
ses 111
family 111
ate 111
r 110
els 110
ats 110
bridge 110
flowers 110
ving 110
ste@@ 109
art 109
toddler 109
guys 108
su@@ 108
over@@ 108
rope 108
wing 108
arms 108
gathered 108
ors 108
event 108
police 107
ru@@ 107
shoes 107
hanging 107
lot 107
ju@@ 106
catch 106
sk@@ 106
away 106
gu@@ 106
cra@@ 106
preparing 105
beautiful 105
wn 105
du@@ 105
sc@@ 105
tur@@ 105
led 105
back@@ 104
object 103
steps 103
sleeping 103
fa@@ 103
costume 103
2 103
leaning 103
pla@@ 102
after 102
ped 102
fishing 102
fin@@ 102
shes 101
me@@ 101
flo@@ 101
machine 101
ur@@ 100
j@@ 100
pan@@ 100
ings 100
sp@@ 100
fountain 100
plaid 100
te 100
bar 100
i 99
shirtless 99
motor@@ 99
is@@ 99
stairs 99
wood 98
tri@@ 98
take 98
em@@ 98
com@@ 98
ders 98
chairs 98
gr@@ 97
adult 97
ble 97
tu@@ 96
fire@@ 96
rocks 96
ons 96
f 96
gre@@ 95
hu@@ 94
selling 94
sunny 94
door 94
graffiti 94
ge 94
pro@@ 93
ph@@ 93
does 93
cing 93
glass 93
forest 93
setting 92
cre@@ 92
pose 92
gra@@ 92
parade 92
racing 92
tall 91
ver@@ 91
age 91
time 91
des 91
she@@ 90
ery 90
ping 90
putting 90
get 90
ser@@ 90
ge@@ 90
both 90
corner 90
volleyball 90
pushing 89
snow@@ 89
throwing 89
frisbee 89
scarf 89
h 89
dra@@ 89
view 89
vi@@ 89
have 88
slide 88
ladies 88
drink 88
between 88
ai@@ 88
br@@ 88
wh@@ 87
public 87
laughing 87
el 87
short 87
computer 87
ss@@ 87
instruments 86
flag 86
cal 86
equipment 86
dri@@ 86
for@@ 86
sting 86
fish 85
bed 85
couch 85
ele@@ 85
where 85
ment 85
pictures 85
bikes 85
cking 85
pes 84
plastic 84
cowboy 84
ned 84
ramp 84
party 84
which 83
playground 83
works 83
ie 83
par@@ 83
ated 83
sweatshirt 83
ban@@ 83
poses 83
trail 83
woods 83
reads 83
ked 83
sun 82
concrete 82
ining 82
cor@@ 82
statue 82
hi@@ 82
beard 82
ear 82
na@@ 82
ely 81
cla@@ 81
dock 81
per@@ 81
ger 81
-haired 81
gar@@ 81
dy 81
midair 81
air@@ 81
pe 81
winter 81
pil@@ 80
bla@@ 80
ins 80
number 80
suits 80
just 80
ep 80
ol@@ 79
cam@@ 79
skirt 79
e-@@ 79
pping 79
seated 79
me 79
row 79
stri@@ 79
dis@@ 78
ke@@ 78
distance 78
ni@@ 78
he@@ 78
ga@@ 77
sky 77
attire 77
wi@@ 77
gi@@ 77
can@@ 77
ten@@ 77
toward 77
tea@@ 77
what 77
bags 77
beer 76
bat@@ 76
six 76
wheel@@ 76
cooking 76
ite 76
place 76
school 76
sing 76
vests 75
ant 75
head@@ 75
cutting 75
blond-hair 75
ally 75
fe@@ 75
filled 75
lined 75
rider 75
all@@ 75
sel@@ 75
ars 74
pat@@ 74
buildings 74
cross 74
shore 74
tro@@ 74
left 74
ens 74
pulling 74
tent 74
qu@@ 73
so@@ 73
mother 73
cream 73
jo@@ 73
middle-aged 73
arts 73
sts 73
ent 73
ss 73
station 72
ven@@ 72
skateboarder 72
crossing 72
ster 72
cliff 72
friends 72
sho@@ 72
x 72
arm@@ 72
appears 72
go 72
har@@ 72
edge 71
showing 71
instrument 71
spectators 71
mountains 71
few 71
cal@@ 71
x@@ 71
ns 71
bearded 70
kne@@ 70
col@@ 70
horses 70
bathing 70
swim@@ 70
ack 70
ved 70
net 70
pl@@ 70
jersey 70
ry 70
ft 70
show 70
cars 70
ven 69
gers 69
nearby 69
right 69
ben@@ 69
pped 69
wel@@ 69
performs 69
ff@@ 69
dresses 69
make 69
court 69
driving 68
ctor 68
grill 68
concert 68
bowling 68
fen@@ 68
carries 68
apron 68
de 68
can 68
perform 68
ho@@ 68
aving 68
box 68
snowboarder 68
kes 67
shi@@ 67
fruit 67
ish 67
ig@@ 67
leaves 67
painted 66
structure 66
coffee 66
ple 66
parked 66
vendor 66
flower 66
sli@@ 66
bru@@ 66
prote@@ 66
ci@@ 66
various 66
cigarette 66
boots 66
students 66
cake 65
cup 65
leans 65
vehicle 65
gentleman 65
brea@@ 65
ker 65
dr@@ 65
um 65
pon@@ 65
goggles 65
younger 65
smile 65
shot 65
om@@ 65
surfer 65
stu@@ 64
bottle 64
flying 64
ous 64
lit 64
martial 64
drums 64
talks 64
smoking 64
rain 64
new 63
kicking 63
flags 63
home 63
eyes 63
mat@@ 63
gg@@ 63
no 63
hit 63
ates 63
cau@@ 63
wal@@ 63
clo@@ 63
lying 63
bor@@ 63
roller@@ 63
ic 63
waves 62
safety 62
rocky 62
paint 62
swinging 62
coming 62
newspaper 62
alley 62
jackets 62
bel@@ 62
but@@ 62
stre@@ 62
low 62
rodeo 62
prepares 62
uses 62
sto@@ 61
case 61
conversation 61
rail 61
fol@@ 61
red-@@ 61
gather 61
different 61
parking 61
bucket 61
practicing 61
costumes 61
inter@@ 61
gloves 61
skating 61
indian 61
ladder 60
cleaning 60
bunch 60
scene 60
ber 60
competition 60
son 60
pic@@ 60
cro@@ 60
ard 60
roof 60
listening 60
hold 60
hor@@ 60
ar 60
cement 60
bull 60
wait 59
tie 59
tor@@ 59
tw@@ 59
wet 59
blanket 59
tre@@ 59
wor@@ 59
padd@@ 59
fli@@ 59
skier 59
ill@@ 59
sun@@ 59
ight 59
items 59
ght 59
onlookers 59
skateboarding 59
out@@ 59
staring 59
da@@ 59
es@@ 58
balloon 58
bri@@ 58
fo@@ 58
meal 58
pile 58
bikini 58
boar@@ 58
lawn 58
railing 58
audience 58
bicycles 58
ered 58
giving 58
ther 58
empty 58
3 58
desk 58
tr@@ 57
ctive 57
leaps 57
ght@@ 57
por@@ 57
happy 57
als 57
han@@ 57
; 57
ial 57
drinks 57
military 57
gets 57
hot 57
bi@@ 56
ans 56
ines 56
sliding 56
country 56
gathering 56
bird 56
display 56
tes 56
end 56
ach 56
sports 56
vegetables 56
pointing 56
signs 56
fer@@ 56
cer 56
class 55
do 55
win@@ 55
wedding 55
bowl 55
facing 55
ure 55
stop 55
bs 55
lan@@ 55
pers 55
pet 55
lar 55
cut 55
sn@@ 55
feet 55
streets 55
chasing 55
pin@@ 55
sort 55
om 55
skat@@ 55
biker 55
before 55
spea@@ 55
competing 55
crou@@ 54
ity 54
fla@@ 54
platform 54
blo@@ 54
cyclist 54
huge 54
ind 54
helmets 54
ue 54
stret@@ 54
id 54
ger@@ 54
speaking 54
mask 54
basket 54
silver 53
bride 53
tries 53
lights 53
fall 53
pass 53
man@@ 53
match 53
surfing 53
shoo@@ 53
soldi@@ 53
classroom 53
teams 53
purse 52
climbs 52
father 52
seen 52
bur@@ 52
sticks 52
traditional 52
ong@@ 52
wra@@ 52
ski 52
waits 52
sings 52
photograph@@ 52
surfboard 52
cl@@ 52
marathon 52
fighting 51
lar@@ 51
plane 51
urban 51
kissing 51
counter 51
decor@@ 51
ad 51
lu@@ 51
bot@@ 51
ring 51
screen 51
acks 51
shed 51
dry 51
gold 51
animal 51
tou@@ 51
musicians 51
stair@@ 50
ler 50
gh 50
stroller 50
per 50
sm@@ 50
hea@@ 50
break 50
iling 50
fre@@ 50
sea@@ 50
ce@@ 50
shing 50
ill 50
bir@@ 50
spe@@ 50
same 50
wer 50
spra@@ 50
town 50
ops 50
ve@@ 50
females 50
spo@@ 49
am 49
fac@@ 49
cand@@ 49
walkway 49
site 49
sement 49
hole 49
shoulder 49
din@@ 49
lap 49
kneeling 49
stor@@ 49
diving 49
sunset 49
sta@@ 49
throw 49
runner 49
writing 49
fore@@ 49
ise 49
goo@@ 49
dle 49
skiing 49
laun@@ 49
ence 48
talk 48
waving 48
hel@@ 48
blowing 48
scooter 48
je@@ 48
bald 48
pain@@ 48
christmas 48
sed 48
ters 48
business 48
attempting 48
violin 48
box@@ 47
tables 47
ou@@ 47
ary 47
dge 47
overlooking 47
made 47
dd@@ 47
ils 47
ges 47
ced 47
course 47
under@@ 47
haired 47
wear 47
jum@@ 47
outfits 47
stra@@ 47
clou@@ 47
mer@@ 47
eat 47
cher 47
balan@@ 47
oper@@ 46
tran@@ 46
adverti@@ 46
blond-haired 46
ound 46
eling 46
bubbles 46
pr@@ 46
smo@@ 46
rol@@ 46
says 46
artist 46
celebr@@ 46
officer 46
mirror 46
ist 46
cheerlea@@ 46
giant 45
rain@@ 45
bea@@ 45
gro@@ 45
fl@@ 45
balloons 45
kic@@ 45
stic 45
fixing 45
heav@@ 45
ton 45
cafe 45
check@@ 45
ace 45
chinese 45
ging 45
fully 45
base 45
life 45
us 45
close 45
der@@ 44
alone 44
swim 44
rolling 44
part@@ 44
faces 44
teenage 44
brunette 44
mer 44
helping 44
wheel 44
plate 44
leg 44
iz@@ 44
collar 44
foreground 44
gym 44
py 44
leather 44
aring 44
umbrellas 44
ol 44
skate 44
ement 44
van 43
illing 43
electric 43
mud 43
asleep 43
ey@@ 43
enjoy 43
comple@@ 43
sur@@ 43
ess 43
clown 43
legs 43
land@@ 43
brightly 43
meat 43
gh@@ 43
1@@ 43
bra@@ 43
dancers 43
stic@@ 43
d-@@ 43
ny 43
ative 43
cts 43
cho@@ 43
oc@@ 43
headphones 43
ja@@ 43
play@@ 42
shov@@ 42
washing 42
squ@@ 42
cle@@ 42
sandals 42
hood 42
vice 42
golf 42
cr@@ 42
coo@@ 42
among 42
swings 42
makes 42
officers 42
office 42
ver 42
falling 42
stadium 42
passing 42
star@@ 42
tion 42
ty 42
grocer@@ 42
wears 42
multicolored 41
goal 41
dark-haired 41
phones 41
held 41
dirty 41
church 41
friend 41
toys 41
balls 41
cy 41
up@@ 41
barefoot 41
av@@ 41
hiking 41
musical 41
heads 41
participat@@ 41
kets 41
y-@@ 41
photographer 41
doorway 41
est 41
ward 41
sses 41
males 40
singer 40
dire@@ 40
reaching 40
xing 40
ber@@ 40
key 40
land 40
iti@@ 40
drawing 40
video 40
spee@@ 40
wn@@ 40
flip 40
leash 40
ha@@ 40
laptop 40
form@@ 40
ese 40
accordion 40
exam@@ 40
throws 40
canoe 40
picking 40
traffic 40
cloth 40
lif@@ 40
v 39
below 39
hap@@ 39
t-@@ 39
cting 39
work@@ 39
ent@@ 39
ddle 39
tops 39
move 39
high@@ 39
bloc@@ 39
guit@@ 39
vie@@ 39
kha@@ 39
flu@@ 39
pair 39
shallow 39
members 39
atta@@ 39
mes 39
relaxing 39
daughter 39
enter@@ 39
performance 39
follo@@ 39
digging 39
well 39
read 38
don@@ 38
catching 38
ade 38
rais@@ 38
tunnel 38
moving 38
hugging 38
atop 38
shovel 38
pit@@ 38
ies 38
catches 38
lin@@ 38
slee@@ 38
ssing 38
gives 38
cat 38
microscope 38
square 38
passes 38
hal@@ 38
and@@ 38
foot 38
soc@@ 38
ct 38
bicyclist 38
touri@@ 38
spor@@ 38
zz@@ 38
hair@@ 38
bath@@ 38
her@@ 38
dan@@ 38
tack@@ 38
obser@@ 37
tattoo 37
sweeping 37
resting 37
pond 37
prepare 37
lab 37
rail@@ 37
sleeps 37
turn 37
vol@@ 37
onal 37
carri@@ 37
kick 37
medi@@ 37
athle@@ 37
shows 37
sled 37
pup@@ 37
garden 37
oun@@ 37
climb 37
lone 37
cat@@ 37
paved 37
sw@@ 37
asi@@ 37
fun 37
deep 37
bat 37
ee 37
chef 37
drum 37
wrest@@ 37
robe 37
sin@@ 37
leaping 37
stunt 37
flies 37
bun@@ 36
bow 36
wards 36
pour@@ 36
hose 36
part 36
sculpture 36
individuals 36
rest@@ 36
conta@@ 36
scaff@@ 36
trunks 36
desert 36
karate 36
hur@@ 36
colle@@ 36
pot 36
hoo@@ 36
lots 36
bly 36
&apos; 36
bow@@ 36
beige 36
hoodie 36
doors 36
splashing 36
upside 36
cold 36
atten@@ 36
conversing 36
ner 36
ang@@ 36
ire 36
teeth 36
boun@@ 36
sca@@ 36
ack@@ 36
tatto@@ 36
coats 36
photograph 36
here 36
cyclists 36
0@@ 36
end@@ 35
mach@@ 35
lers 35
jogging 35
wet@@ 35
stru@@ 35
ming 35
passen@@ 35
how 35
wrestling 35
rou@@ 35
il 35
customers 35
dent 35
these 35
ness 35
pier 35
balcon@@ 35
port 35
telescope 35
poli@@ 35
closed 35
round 35
formal 35
new@@ 35
gun 35
points 35
underneath 35
tire 35
ing@@ 35
block 35
ried 35
plants 35
ki@@ 35
gate 34
alls 34
local 34
oo@@ 34
sol@@ 34
mat 34
cane 34
ills 34
opposing 34
themselves 34
project 34
roller 34
without 34
shoulders 34
gage 34
swimm@@ 34
pri@@ 34
multi@@ 34
ear@@ 34
carnival 34
eless 34
dances 34
hiker 34
dro@@ 34
ump@@ 34
excit@@ 34
waters 34
nav@@ 34
chi@@ 34
including 34
ering 34
shoe 34
kers 34
circle 33
refle@@ 33
hot@@ 33
scen@@ 33
appro@@ 33
crosswalk 33
inten@@ 33
dark@@ 33
straw 33
eng@@ 33
sk 33
crying 33
sco@@ 33
wr@@ 33
rea@@ 33
pulled 33
hammer 33
loa@@ 33
infant 33
wooded 33
mural 33
enjo@@ 33
dinner 33
haw@@ 33
fight 33
tricks 33
trampoline 33
makeup 33
matching 33
cem@@ 33
skin@@ 33
rela@@ 33
racket 33
em 33
the@@ 33
rece@@ 33
practi@@ 33
taken 33
produce 33
uni@@ 33
runners 33
stuffed 32
so 32
ken 32
driver 32
picnic 32
climb@@ 32
gymnast 32
covering 32
booth 32
trave@@ 32
rest 32
infla@@ 32
seat 32
loun@@ 32
fr@@ 32
ski@@ 32
ile 32
sewing 32
ures 32
ols 32
books 32
cted 32
nose 32
dol@@ 32
ggling 32
boo@@ 32
ents 32
ction 32
bicyclists 32
athlete 32
ki 32
scu@@ 32
trash 32
opening 32
hoop 32
snowboar@@ 32
long-slee@@ 32
4 32
tex@@ 32
attempts 32
iting 32
os 32
performer 32
surface 32
professi@@ 32
lays 31
blouse 31
himself 31
skis 31
hikers 31
sandy 31
softball 31
down@@ 31
ave@@ 31
fra@@ 31
im 31
ham@@ 31
lift 31
hom@@ 31
iner 31
goes 31
center 31
coun@@ 31
igh@@ 31
slope 31
mor@@ 31
tin@@ 31
itting 31
teenagers 31
pushes 31
ized 31
lunch 31
help 31
pedestrians 31
test 31
pal@@ 31
fe 31
kaya@@ 31
style 31
third 31
oriental 31
cycles 31
sem@@ 31
pitcher 31
fro@@ 30
ct@@ 30
sen@@ 30
den@@ 30
pen@@ 30
bou@@ 30
bent 30
ires 30
key@@ 30
club 30
pulls 30
ati@@ 30
tle 30
ado@@ 30
th 30
appe@@ 30
ster@@ 30
mate 30
thers 30
inspec@@ 30
sprink@@ 29
gaz@@ 29
rub@@ 29
ssi@@ 29
int 29
cheer@@ 29
num@@ 29
sum@@ 29
pit 29
gentlem@@ 29
ey 29
min@@ 29
sci@@ 29
vers 29
eu@@ 29
ral 29
fil@@ 29
festival 29
windo@@ 29
char@@ 29
sig@@ 29
march@@ 29
im@@ 29
kayak 28
amu@@ 28
jean 28
ass@@ 28
arr@@ 28
chal@@ 28
bran@@ 28
vis@@ 28
ag@@ 28
lies 28
type 28
spla@@ 28
grou@@ 28
quat@@ 28
tow@@ 28
pur@@ 28
ble@@ 28
golden 28
robes 28
grin@@ 28
list@@ 28
san@@ 28
cer@@ 28
2@@ 28
teenag@@ 28
sale 27
son@@ 27
cour@@ 27
scar@@ 27
camer@@ 27
try 27
shop@@ 27
ones 27
ful 27
loo@@ 27
saxophone 27
lau@@ 27
ul@@ 27
oppos@@ 27
uring 27
thro@@ 27
spi@@ 27
suspen@@ 27
pol@@ 27
podium 27
pav@@ 27
piano 27
side@@ 27
ily 27
mas 27
glo@@ 27
ligh@@ 26
bik@@ 26
anim@@ 26
drum@@ 26
discu@@ 26
long@@ 26
off@@ 26
backp@@ 26
ages 26
laugh@@ 26
fabri@@ 26
skateboar@@ 26
camouflage 26
skir@@ 26
image 26
color@@ 26
bandan@@ 26
fu@@ 26
use 26
polo 26
pipe 26
hula 26
hol@@ 26
rugby 26
ou 25
colo@@ 25
mem@@ 25
our 25
pli@@ 25
la 25
ty@@ 25
ance 25
ot 25
5 25
bub@@ 25
tar@@ 25
vic@@ 25
bal@@ 25
gen@@ 25
ool 25
ctions 25
musici@@ 25
compe@@ 25
ion 25
ange 25
vac@@ 25
pet@@ 25
scre@@ 25
york 25
orn@@ 25
lam@@ 25
fans 25
u 25
sport 25
ail 25
sup@@ 24
hou@@ 24
surf 24
prin@@ 24
tail 24
ms 24
acou@@ 24
ba 24
tube 24
sof@@ 24
ka 24
pun@@ 24
au@@ 24
lines 24
ards 24
plan@@ 24
jerse@@ 24
lon@@ 24
micro@@ 24
1 24
of@@ 23
super@@ 23
magazine 23
enti@@ 23
direction 23
escalator 23
ations 23
flow@@ 23
fan@@ 23
ff 23
dou@@ 23
surf@@ 23
ave 23
casi@@ 23
self 23
lit@@ 23
assi@@ 23
conver@@ 22
0 22
obstacle 22
vehic@@ 22
gging 22
ems 22
ises 22
attemp@@ 22
action 22
individu@@ 22
ssion 22
! 22
chers 22
orche@@ 22
ot@@ 22
desc@@ 22
dding 22
bmx 22
barbecue 21
foot@@ 21
some@@ 21
ath 21
sweat@@ 21
bles 21
zer 21
irs 21
ori@@ 21
( 21
vision 21
whe@@ 21
cell@@ 21
ples 21
sub@@ 21
studio 21
sentation 21
shor@@ 21
t-shirts 21
wagon 21
bul@@ 21
cross@@ 21
nent 21
exerc@@ 21
surroun@@ 21
fet@@ 21
sy@@ 20
bill@@ 20
tal@@ 20
hall 20
pull 20
mob@@ 20
snowboard 20
garage 20
but 20
clu@@ 20
sle@@ 20
fruits 20
tom@@ 20
nat@@ 20
) 20
sandwich 20
motocross 20
chan@@ 20
figure 20
jungle 20
stache 20
eth@@ 20
patio 20
rough 20
arti@@ 20
ir 20
uniform@@ 19
tru@@ 19
woo@@ 19
intersection 19
discussion 19
baskets 19
rier 19
gle 19
circu@@ 19
observe 19
tiv@@ 19
ghtly 19
parti@@ 19
pra@@ 19
dune 19
bon@@ 19
mounta@@ 19
ption 19
ctron@@ 19
pati@@ 19
cricket 19
ur 19
baller@@ 19
aqu@@ 19
met@@ 19
mil@@ 19
produ@@ 19
para@@ 19
ram@@ 19
mea@@ 18
ther@@ 18
bon 18
cri@@ 18
pins 18
nets 18
silhou@@ 18
pizz@@ 18
condu@@ 18
pie@@ 18
sal@@ 18
fal@@ 18
cow@@ 18
position 18
cket 18
lean@@ 18
ants 18
tem@@ 18
ley 17
ball@@ 17
ets 17
balance 17
bam@@ 17
nu@@ 17
derby 17
dreadlocks 17
kil@@ 17
lap@@ 17
fle@@ 17
ssy 17
buil@@ 17
employ@@ 17
da 17
mini@@ 17
sou@@ 17
ze 17
afri@@ 17
ton@@ 17
vege@@ 17
tan@@ 17
plu@@ 17
yo@@ 17
ree 17
cloth@@ 17
sculp@@ 17
cel@@ 17
nic 17
moment 17
dom@@ 17
tat@@ 17
crow@@ 17
stand@@ 17
quet 17
embra@@ 17
jockey 17
sand@@ 17
cou@@ 17
iture 17
slo@@ 16
comm@@ 16
chefs 16
ands 16
cli@@ 16
parents 16
icyc@@ 16
&a@@ 16
stat@@ 16
ature 16
gymna@@ 16
compu@@ 16
cas@@ 16
mix@@ 16
sit@@ 16
blan@@ 16
chin@@ 16
qui@@ 16
ess@@ 16
stom@@ 16
gym@@ 16
moder@@ 16
pigeons 16
swe@@ 16
ne 16
obje@@ 16
news@@ 16
passer@@ 16
&apos;@@ 16
scou@@ 16
ites 16
sty@@ 16
thou@@ 15
3@@ 15
ob@@ 15
yel@@ 15
figh@@ 15
ray@@ 15
gri@@ 15
taxi 15
terrain 15
sor@@ 15
ture 15
proje@@ 15
aved 15
aut@@ 15
engag@@ 15
aller 15
americ@@ 15
aged 15
photos 15
cit@@ 15
as@@ 15
cyc@@ 15
ggles 15
sent 15
.@@ 15
village 15
offic@@ 15
able 15
indi@@ 15
band@@ 15
perform@@ 15
gli@@ 14
sau@@ 14
custom@@ 14
mit@@ 14
cher@@ 14
gol@@ 14
sion 14
cade 14
attra@@ 14
ple@@ 14
trun@@ 14
uns 14
cycle 14
colli@@ 14
cture 14
gla@@ 14
wat@@ 14
cray@@ 14
men@@ 14
id@@ 14
kit@@ 14
point 14
mir@@ 14
mou@@ 13
arri@@ 13
four@@ 13
val 13
let 13
ette 13
less 13
stance 13
cs 13
portra@@ 13
que@@ 13
compet@@ 13
inc@@ 13
aud@@ 13
pass@@ 13
form 13
ator 13
af@@ 13
run@@ 13
tage 13
swee@@ 13
visi@@ 13
ut@@ 13
8 13
ument 13
accom@@ 13
que 13
shir@@ 13
sse 13
scoot@@ 12
ere 12
bicyc@@ 12
cers 12
ym@@ 12
fri@@ 12
ron@@ 12
un 12
poin@@ 12
den 12
umin@@ 12
parachu@@ 12
en-@@ 12
let@@ 12
quo@@ 12
sar@@ 12
olym@@ 12
tape 12
6 12
5@@ 12
ork 11
magaz@@ 11
mid@@ 11
constru@@ 11
ka@@ 11
suspend@@ 11
rapi@@ 11
jet 11
j 11
ren@@ 11
vit@@ 11
contra@@ 11
parachute 11
cano@@ 11
foo@@ 11
are@@ 11
our@@ 11
salon 11
viol@@ 11
dor@@ 11
roun@@ 11
tures 11
reli@@ 11
dress@@ 11
olympi@@ 11
bers 11
cti@@ 11
prepar@@ 11
todd@@ 10
thing 10
ong 10
bre@@ 10
appar@@ 10
sons 10
ners 10
vari@@ 10
ening 10
stac@@ 10
ato@@ 10
jack@@ 10
dar@@ 10
gue 10
lem@@ 10
nel 10
pin 10
entr@@ 10
va@@ 10
gy@@ 10
pier@@ 10
le-@@ 10
cin@@ 10
mul@@ 10
dies 10
laborat@@ 10
oranges 10
floo@@ 10
9@@ 10
ima@@ 10
# 10
ban 10
ili@@ 10
ari@@ 10
bes 9
tel@@ 9
apr@@ 9
section 9
cab@@ 9
s-@@ 9
flan@@ 9
fs 9
spir@@ 9
hind 9
tourn@@ 9
ouse 9
diti@@ 9
z 9
mag@@ 9
pain 9
moto@@ 9
sprin@@ 9
termin@@ 9
4@@ 9
tun@@ 9
ore@@ 9
vo@@ 9
bare@@ 8
lin 8
gon 8
ues 8
hau@@ 8
stun@@ 8
dio 8
yer 8
vir@@ 8
dium 8
vel 8
ket 8
sti@@ 8
ounta@@ 8
gir@@ 8
identi@@ 8
ettes 8
sa 8
ide 8
rock@@ 8
sil@@ 8
mb@@ 8
pt 8
pel@@ 8
grand 8
dal@@ 8
shou@@ 8
non 8
commercial 8
figures 8
tal 8
acrobati@@ 8
tour 8
som@@ 8
py@@ 8
- 8
graff@@ 8
tro 7
main 7
tique 7
barbe@@ 7
trot@@ 7
ition 7
with@@ 7
9 7
divers 7
zone 7
rollers 7
inging 7
ole 7
dir@@ 7
die 7
ends 7
inst@@ 7
pige@@ 7
busin@@ 7
gal@@ 7
cigar@@ 7
electri@@ 7
ments 7
ste 7
examine 7
trans@@ 7
? 7
spect@@ 7
ser 7
exp@@ 7
occu@@ 7
chil@@ 7
fron@@ 7
festi@@ 7
sac@@ 7
ales 7
bikin@@ 7
pou@@ 7
dess@@ 7
7 7
8@@ 7
dre@@ 7
6@@ 7
cover@@ 7
pul@@ 6
walk@@ 6
autom@@ 6
labor@@ 6
fam@@ 6
stati@@ 6
inf@@ 6
tons 6
gues 6
sy 6
personn@@ 6
profe@@ 6
sno@@ 6
tor 6
cent@@ 6
tau@@ 6
magni@@ 6
sleep 6
dos 6
quad 6
re-@@ 6
scope 6
inclu@@ 6
util@@ 6
lun@@ 6
cial 6
portable 6
fit 6
anci@@ 6
ami 6
wit@@ 6
cham@@ 6
chu@@ 6
near@@ 6
ach@@ 6
pom@@ 6
sage 5
oth 5
re 5
rem@@ 5
make@@ 5
unes 5
cent 5
youn@@ 5
pau@@ 5
combat 5
mirro@@ 5
ici@@ 5
cav@@ 5
ffe@@ 5
mail@@ 5
read@@ 5
chat 5
mic@@ 5
marches 5
pai@@ 5
bee 5
cir@@ 5
pedestri@@ 5
ron 5
basket@@ 5
iles 5
saxoph@@ 5
attendant 5
tend 5
strum@@ 5
rer 5
tamb@@ 5
pied 5
rist@@ 5
acro@@ 5
gent 5
prom@@ 5
une 5
them@@ 5
emp@@ 5
grim@@ 5
trou@@ 5
va 5
chant 5
pagne 5
middle-@@ 5
bol 5
ird 4
gam@@ 4
kar@@ 4
q 4
plat@@ 4
trom@@ 4
iller 4
kitch@@ 4
fig@@ 4
pant 4
moti@@ 4
partici@@ 4
nique 4
bear@@ 4
nant 4
jam@@ 4
ements 4
jun@@ 4
ental 4
restau@@ 4
cles 4
peop@@ 4
guitari@@ 4
long-@@ 4
equip@@ 4
fic 4
roses 4
descend 4
prof@@ 4
lation 4
dau@@ 4
ier 4
dings 4
fru@@ 4
caf@@ 4
tax@@ 4
las 4
dor 4
sque 4
sent@@ 4
enf@@ 4
mani@@ 4
proxim@@ 4
sant 4
ign@@ 4
und 4
ebr@@ 4
parasol 4
chem@@ 4
yant 3
vent 3
route 3
chev@@ 3
flot@@ 3
tting 3
ro 3
los 3
adul@@ 3
allow 3
oran@@ 3
mom@@ 3
aves 3
adolescent 3
iff@@ 3
onloo@@ 3
attend 3
tant 3
graffit@@ 3
abo@@ 3
tiss@@ 3
specta@@ 3
mb 3
audi@@ 3
vide 3
: 3
tout 3
quel@@ 3
tball 3
iser 3
eld 3
ambu@@ 3
lance 3
appla@@ 3
spen@@ 3
door@@ 3
du 3
bit@@ 3
gages 3
bm@@ 3
aga@@ 3
mets 3
doc@@ 3
lad@@ 3
tend@@ 3
rap@@ 3
pause 3
tt 3
mari@@ 3
bout 3
beauti@@ 3
ots 3
diver@@ 3
lev@@ 3
blonds 3
regar@@ 2
iers 2
plan 2
align@@ 2
vin 2
bonnet 2
aff@@ 2
diff@@ 2
class@@ 2
fris@@ 2
lent 2
tre 2
dame 2
trav@@ 2
ux 2
erie 2
traverse 2
ques 2
con 2
gon@@ 2
teet@@ 2
met 2
mal 2
ret 2
tte 2
joy@@ 2
pris 2
portant 2
stuff@@ 2
ath@@ 2
aux 2
pour 2
cle 2
pays 2
tabl@@ 2
journal 2
sweat 2
,@@ 2
rine 2
participant 2
jou@@ 2
shoul@@ 2
rose 2
veral 2
barb@@ 2
oce@@ 2
iss@@ 2
comb@@ 2
ph 2
ensemble 2
blond-@@ 2
isc@@ 2
lons 2
val@@ 2
chur@@ 2
mot@@ 2
dread@@ 2
entre@@ 2
% 2
violet 2
-po@@ 2
ell@@ 2
ordin@@ 2
ful@@ 2
locks 2
ai 2
gent@@ 2
lac 2
photo@@ 2
ouv@@ 2
cue 2
plom@@ 2
ang 2
escal@@ 2
ale 2
spec@@ 1
lage 1
appr@@ 1
ticu@@ 1
courts 1
rying 1
combin@@ 1
isi@@ 1
mains 1
bas 1
etting 1
teen@@ 1
spectat@@ 1
adolesc@@ 1
ghter 1
imm@@ 1
ille 1
hors 1
vres 1
footbal@@ 1
che 1
au 1
accordi@@ 1
peu@@ 1
public@@ 1
stes 1
urs 1
toboggan 1
brand@@ 1
res 1
sax@@ 1
sous 1
deo 1
sav@@ 1
casque 1
oire 1
ballons 1
outf@@ 1
nu 1
twe@@ 1
esp@@ 1
volley 1
gars 1
again@@ 1
pian@@ 1
crav@@ 1
passage 1
ferm@@ 1
kaki 1
skate@@ 1
centre 1
ffect@@ 1
ope 1
loy@@ 1
mout@@ 1
pho@@ 1
ix 1
bask@@ 1
q@@ 1
oking 1
eur 1
milit@@ 1
rand@@ 1
eurs 1
shirt@@ 1
performan@@ 1
comp@@ 1
roll@@ 1
grav@@ 1
enou@@ 1
enta@@ 1
nage 1
chemise 1
pap@@ 1
fai@@ 1
coupe 1
7@@ 1
concre@@ 1
te-@@ 1
$ 1
brun@@ 1
bras 1
traver@@ 1
vert 1
dit 1
pay@@ 1
oph@@ 1
nis 1
esc@@ 1
volle@@ 1
sole@@ 1
loin 1
fou@@ 1
jer@@ 1
esse 1
musi@@ 1
ait 1
exer@@ 1
fon@@ 1
din 1
smil@@ 1
protection 1
fume 1
sac 1
onne 1
gne 1
fum@@ 1
journ@@ 1
arro@@ 1
par 1
yc@@ 1
adolescents 1
quette 1
sch@@ 1
differ@@ 1
coin 1
tram@@ 1
midd@@ 1
asse 1
obstac@@ 1
seu@@ 1
concer@@ 1
tron@@ 1
leur 1
cuisine 1
= 1
sembl@@ 1
