a 49287
. 27633
in 15005
the 10959
on 8123
man 7838
is 7557
and 7387
of 6867
with 6179
woman 3976
, 3963
two 3877
are 3730
to 3135
people 3121
at 2966
an 2962
wearing 2623
young 2280
white 2223
shirt 2132
black 2003
his 1969
while 1947
blue 1871
men 1786
red 1751
sitting 1743
girl 1733
boy 1689
dog 1681
standing 1614
playing 1584
group 1552
street 1445
down 1391
walking 1378
front 1276
her 1264
holding 1237
one 1097
water 1061
three 1055
by 1052
women 988
up 932
green 924
little 915
for 906
looking 895
child 894
as 878
outside 871
large 841
through 813
yellow 781
children 768
brown 766
person 753
ball 735
hat 728
from 728
their 725
into 711
small 671
next 664
other 660
out 653
dressed 642
some 625
over 614
building 603
riding 584
running 581
near 571
jacket 566
around 562
another 562
field 536
sidewalk 534
orange 524
crowd 521
beach 520
stands 498
sits 493
pink 493
jumping 491
table 491
behind 489
grass 468
background 460
snow 459
stand 451
bike 449
city 446
&apos;s 444
girls 441
air 439
player 429
top 427
looks 423
asian 421
wall 417
dogs 413
several 404
that 404
older 401
four 400
dress 396
off 393
camera 393
park 389
talking 382
lady 380
something 380
soccer 375
walks 371
along 370
guitar 367
working 365
food 364
boys 364
hair 364
play 363
together 361
smiling 353
gray 343
game 340
picture 340
has 339
it 339
plays 331
car 329
hand 327
holds 322
glasses 317
-@@ 316
pants 315
bench 314
road 314
him 312
sit 311
side 311
old 304
shorts 304
stage 303
walk 302
carrying 300
couple 299
baby 299
them 290
bicycle 287
race 286
face 281
&quot; 280
male 279
tree 279
pool 278
taking 275
a@@ 274
rock 273
each 272
head 269
doing 267
boat 266
s 262
watching 261
across 261
guy 260
jeans 259
dirt 259
there 259
area 258
ground 254
room 253
blond 252
day 251
jumps 250
back 248
hands 248
female 245
suit 244
performing 241
baseball 238
who 237
eating 236
coat 233
band 233
being 233
striped 232
es 229
using 229
football 229
kids 225
its 225
or 225
watch 225
under 224
many 223
re@@ 223
store 222
horse 222
mouth 221
purple 221
he 221
sign 219
long 218
this 216
look 214
sand 213
runs 212
tennis 212
reading 210
players 209
ed 208
sunglasses 208
construction 208
clothing 203
e@@ 202
microphone 202
be 201
mountain 200
toy 198
ocean 198
dark 198
basketball 198
during 197
workers 197
middle 194
watches 194
climbing 193
t-shirt 193
uniform 192
past 191
elderly 190
work 190
ts 190
restaurant 188
ds 188
helmet 187
against 187
train 185
team 185
ers 184
window 183
dancing 183
in@@ 182
rides 181
g@@ 179
they 178
posing 178
all 178
chair 178
about 177
ing 177
covered 175
i@@ 174
trees 174
wooden 173
li@@ 173
five 173
having 173
waiting 173
outdoor 173
t 172
bag 172
line 172
very 170
er 169
swimming 169
getting 168
light 166
floor 166
trying 165
shirts 164
ice 164
skateboard 163
colorful 163
hill 161
busy 160
singing 159
fence 159
jump 157
market 156
e 155
cart 154
ride 151
book 151
laying 150
inside 150
hats 149
high 148
truck 148
tan 147
bright 147
others 145
kitchen 145
cap 145
cellphone 144
body 144
path 144
grassy 144
big 143
someone 143
making 142
c@@ 141
bus 141
clothes 141
ma@@ 140
takes 140
motorcycle 140
f@@ 139
t@@ 139
umbrella 139
night 138
towards 138
full 138
outfit 138
w@@ 137
board 137
track 137
y 137
enjoying 137
brick 137
colored 135
metal 135
river 134
d 134
swing 134
piece 133
paper 133
ready 133
she 131
tank 129
ca@@ 128
shop 128
house 127
phone 127
de@@ 127
open 126
p 126
worker 126
sweater 126
trick 125
painting 124
o@@ 124
above 124
stick 124
ra@@ 124
ting 123
lake 123
adults 122
going 122
music 121
hard 120
vest 120
snowy 120
run 120
set 120
dance 120
surrounded 119
ps 119
g 119
wave 119
shopping 119
se@@ 118
stone 118
y@@ 118
p@@ 118
uniforms 118
onto 118
outdoors 117
crowded 117
fire 116
photo 116
k 116
do@@ 115
backpack 115
beside 115
led 115
smiles 115
gear 115
con@@ 115
kid 114
s@@ 114
ding 113
d@@ 113
ri@@ 113
en@@ 113
co@@ 113
pole 113
ly 112
pa@@ 112
hockey 112
subway 112
african 112
po@@ 112
drinking 112
to@@ 111
family 111
u@@ 111
pe@@ 111
ted 111
bridge 110
be@@ 110
american 110
flowers 110
lo@@ 110
toddler 109
an@@ 109
guys 108
rope 108
arms 108
at@@ 108
lot 108
gathered 108
event 108
police 107
hanging 107
catch 106
away 106
preparing 105
beautiful 105
ti@@ 105
sh 105
un@@ 104
like 103
object 103
steps 103
sleeping 103
costume 103
leaning 103
after 102
fishing 102
ling 101
al 101
machine 101
der 101
la@@ 100
fountain 100
plaid 100
bar 100
ta@@ 99
shirtless 99
di@@ 99
ar@@ 99
stairs 99
wood 98
sa@@ 98
take 98
chairs 98
arm 97
adult 97
o 96
rocks 96
shoes 96
so@@ 95
bu@@ 95
selling 94
m 94
sunny 94
les 94
sh@@ 94
graffiti 94
k@@ 93
st 93
does 93
glass 93
forest 93
setting 92
pose 92
parade 92
racing 92
tall 91
b@@ 91
ro@@ 91
le@@ 91
putting 90
se 90
l 90
both 90
corner 90
volleyball 90
pushing 89
ex@@ 89
r 89
throwing 89
frisbee 89
2 89
view 89
have 88
slide 88
ladies 88
drink 88
between 88
public 87
ins 87
bed 87
laughing 87
m@@ 87
short 87
ns 87
computer 87
instruments 86
flag 86
equipment 86
c 86
fish 85
couch 85
where 85
ter 85
pictures 85
bikes 85
way 84
plastic 84
cowboy 84
ramp 84
yard 84
party 84
which 83
playground 83
works 83
sweatshirt 83
poses 83
l@@ 83
trail 83
woods 83
reads 83
sun 82
skirt 82
concrete 82
statue 82
beard 82
dock 81
me@@ 81
midair 81
winter 81
number 80
n 80
just 80
ck 80
ba@@ 79
seated 79
ru@@ 79
vi@@ 79
mo@@ 79
ch 78
distance 78
lined 78
attire 77
toward 77
get 77
what 77
si@@ 77
bags 77
beer 76
car@@ 76
six 76
cooking 76
ho@@ 76
school 76
right 75
ch@@ 75
vests 75
cutting 75
blond-hair 75
time 75
filled 75
rider 75
i 74
buildings 74
cross 74
shore 74
left 74
pulling 74
tent 74
mother 73
cream 73
middle-aged 73
station 72
w 72
st@@ 72
sky 72
al@@ 72
skateboarder 72
ls 72
crossing 72
cliff 72
friends 72
net 72
mar@@ 72
appears 72
ve 72
edge 71
showing 71
art 71
instrument 71
spectators 71
mountains 71
few 71
bearded 70
horses 70
sp@@ 70
bathing 70
ss 70
jersey 70
show 70
cars 70
er@@ 70
nearby 69
sc@@ 69
scarf 69
suits 69
performs 69
dresses 69
make 69
court 69
driving 68
grill 68
concert 68
bowling 68
tu@@ 68
carries 68
apron 68
perform 68
box 68
snowboarder 68
fruit 67
arts 67
king 67
bo@@ 67
leaves 67
uses 67
painted 66
structure 66
coffee 66
son 66
parked 66
vendor 66
flower 66
ches 66
various 66
ble 66
cigarette 66
ping 66
boots 66
n@@ 66
students 66
cake 65
cup 65
vehicle 65
gentleman 65
le 65
no 65
goggles 65
younger 65
smile 65
shot 65
surfer 65
mu@@ 64
bottle 64
ks 64
flying 64
door 64
lit 64
martial 64
drums 64
talks 64
smoking 64
cking 63
new 63
cu@@ 63
kicking 63
flags 63
home 63
eyes 63
hit 63
am@@ 63
th@@ 63
go 63
lying 63
su@@ 62
waves 62
safety 62
rocky 62
paint 62
swinging 62
coming 62
newspaper 62
jackets 62
rodeo 62
prepares 62
rain 62
tra@@ 61
conversation 61
gather 61
different 61
parking 61
bucket 61
b 61
practicing 61
costumes 61
gloves 61
indian 61
no@@ 61
ladder 60
cleaning 60
bunch 60
scene 60
competition 60
pre@@ 60
roof 60
de 60
listening 60
hold 60
cement 60
bull 60
wait 59
tie 59
wet 59
blanket 59
skier 59
items 59
onlookers 59
sing 59
ne@@ 59
skateboarding 59
ci@@ 59
ses 59
staring 59
balloon 58
meal 58
pile 58
bikini 58
can@@ 58
ce 58
lawn 58
railing 58
audience 58
bicycles 58
giving 58
can 58
empty 58
3 58
desk 58
leaps 57
pro@@ 57
ring 57
happy 57
sk@@ 57
te 57
te@@ 57
drinks 57
military 57
gets 57
hot 57
sliding 56
gathering 56
bird 56
display 56
over@@ 56
mi@@ 56
sports 56
stri@@ 56
vegetables 56
pointing 56
class 55
cre@@ 55
wedding 55
made 55
bowl 55
facing 55
sha@@ 55
stop 55
go@@ 55
feet 55
streets 55
chasing 55
sort 55
biker 55
before 55
competing 55
hole 54
fla@@ 54
platform 54
sto@@ 54
ated 54
huge 54
ded 54
helmets 54
speaking 54
mask 54
basket 54
cks 53
silver 53
bride 53
tries 53
gs 53
lights 53
cra@@ 53
pass 53
match 53
surfing 53
classroom 53
teams 53
purse 52
qu@@ 52
climbs 52
father 52
seen 52
alley 52
on@@ 52
traditional 52
sta@@ 52
par@@ 52
same 52
dra@@ 52
ski 52
waits 52
sings 52
ge@@ 52
surfboard 52
place 52
marathon 52
fighting 51
tri@@ 51
rail 51
ely 51
kissing 51
spe@@ 51
counter 51
screen 51
he@@ 51
gold 51
animal 51
musicians 51
pan@@ 50
stroller 50
break 50
hand@@ 50
id 50
skating 50
females 50
walkway 49
do 49
site 49
na@@ 49
shoulder 49
country 49
lap 49
kneeling 49
per@@ 49
diving 49
ders 49
low 49
sunset 49
throw 49
runner 49
writing 49
skiing 49
ment 49
da@@ 49
talk 48
waving 48
blowing 48
scooter 48
sun@@ 48
v@@ 48
bald 48
it@@ 48
for@@ 48
christmas 48
gu@@ 48
ni@@ 48
fe@@ 48
business 48
attempting 48
ine 48
violin 48
ons 48
tables 47
overlooking 47
ating 47
ying 47
course 47
row 47
et 47
ching 47
outfits 47
end 47
wa@@ 47
signs 47
blond-haired 46
urban 46
pping 46
bubbles 46
snow@@ 46
says 46
x 46
water@@ 46
tes 46
artist 46
r@@ 46
officer 46
mirror 46
ws 46
giant 45
van 45
leans 45
balloons 45
squ@@ 45
fixing 45
cked 45
chinese 45
or@@ 45
ous 45
ic@@ 45
man@@ 45
base 45
life 45
close 45
alone 44
h@@ 44
ation 44
swim 44
wi@@ 44
faces 44
teenage 44
brunette 44
res 44
helping 44
el@@ 44
wheel 44
cafe 44
plate 44
leg 44
collar 44
foreground 44
har@@ 44
gym 44
leather 44
umbrellas 44
skate 44
we@@ 43
electric 43
tre@@ 43
mud 43
asleep 43
enjoy 43
sticks 43
clown 43
legs 43
brightly 43
meat 43
dancers 43
headphones 43
washing 42
sandals 42
golf 42
among 42
back@@ 42
swings 42
balls 42
makes 42
officers 42
sts 42
office 42
falling 42
stadium 42
d-@@ 42
ver@@ 42
bat 42
passing 42
ves 42
ct 42
wears 42
multicolored 41
dri@@ 41
goal 41
ings 41
dark-haired 41
ke 41
ten@@ 41
held 41
cting 41
dirty 41
church 41
friend 41
toys 41
sed 41
ies 41
gra@@ 41
; 41
barefoot 41
ces 41
hiking 41
musical 41
heads 41
z@@ 41
photographer 41
doorway 41
males 40
ler 40
singer 40
reaching 40
ped 40
ched 40
cor@@ 40
drawing 40
video 40
flip 40
leash 40
com@@ 40
bar@@ 40
shed 40
up@@ 40
laptop 40
accordion 40
ar 40
throws 40
canoe 40
picking 40
traffic 40
cloth 40
below 39
hose 39
bro@@ 39
ned 39
tro@@ 39
hi@@ 39
move 39
shallow 39
members 39
relaxing 39
ning 39
ate 39
daughter 39
ster 39
ac@@ 39
performance 39
digging 39
well 39
ve@@ 38
catching 38
tunnel 38
moving 38
hugging 38
atop 38
shovel 38
catches 38
il@@ 38
il 38
gives 38
pic@@ 38
cat 38
microscope 38
square 38
ion 38
passes 38
foot 38
ry 38
pu@@ 38
bicyclist 38
ck@@ 38
gate 37
tattoo 37
sweeping 37
resting 37
prepare 37
sleeps 37
ap@@ 37
turn 37
ny 37
kick 37
cur@@ 37
bri@@ 37
ce@@ 37
shows 37
sled 37
garden 37
ters 37
climb 37
wed 37
lone 37
paved 37
fun 37
deep 37
bat@@ 37
chef 37
drum 37
leaping 37
stunt 37
flies 37
here 37
jo@@ 37
ki@@ 37
bun@@ 36
pond 36
sculpture 36
tly 36
individuals 36
ge 36
rolling 36
ant 36
trunks 36
desert 36
karate 36
ger 36
pi@@ 36
wear 36
lots 36
&apos; 36
che@@ 36
beige 36
hoodie 36
splashing 36
upside 36
cold 36
conversing 36
im@@ 36
teeth 36
tire 36
us 36
coats 36
lea@@ 36
photograph 36
jogging 35
ja@@ 35
how 35
wrestling 35
customers 35
these 35
pier 35
sw@@ 35
telescope 35
closed 35
town 35
round 35
tion 35
formal 35
wh@@ 35
gun 35
points 35
underneath 35
dle 35
block 35
plants 35
local 34
e-@@ 34
mat 34
cane 34
star@@ 34
land 34
blo@@ 34
cyclist 34
opposing 34
ming 34
themselves 34
try 34
project 34
roller 34
without 34
shoulders 34
ms 34
carnival 34
cut 34
dances 34
fa@@ 34
hiker 34
ging 34
waters 34
eat 34
including 34
mer@@ 34
ys 34
shoe 34
circle 33
ker 33
flo@@ 33
wing 33
lab 33
crosswalk 33
seat 33
straw 33
crying 33
ved 33
pulled 33
hammer 33
cted 33
infant 33
wooded 33
mural 33
lar 33
ats 33
dinner 33
fight 33
tricks 33
trampoline 33
tur@@ 33
makeup 33
matching 33
racket 33
taken 33
produce 33
runners 33
stuffed 32
bi@@ 32
driver 32
picnic 32
gymnast 32
booth 32
cro@@ 32
ou@@ 32
rest 32
sewing 32
ban@@ 32
books 32
nose 32
ear@@ 32
bicyclists 32
athlete 32
bra@@ 32
trash 32
opening 32
4 32
attempts 32
lan@@ 32
performer 32
surface 32
lays 31
boxes 31
blouse 31
himself 31
skis 31
hikers 31
sandy 31
softball 31
chases 31
cow 31
cam@@ 31
comple@@ 31
sea@@ 31
lift 31
pla@@ 31
goes 31
center 31
lies 31
stra@@ 31
fo@@ 31
slope 31
balcony 31
ea@@ 31
teenagers 31
th 31
pushes 31
lunch 31
help 31
sting 31
pedestrians 31
clo@@ 31
style 31
third 31
oriental 31
cheerleaders 31
pitcher 31
not 30
staircase 30
puts 30
log 30
seven 30
covering 30
ary 30
ans 30
tub 30
indoor 30
head@@ 30
device 30
ele@@ 30
pes 30
brush 30
bent 30
club 30
min@@ 30
pulls 30
wer 30
me 30
neck 30
ked 30
en 30
deck 30
ste@@ 30
chi@@ 30
the@@ 30
speaks 30
kind 30
overalls 29
per 29
evening 29
boats 29
ges 29
ol@@ 29
wetsuit 29
heavy 29
pit 29
gentlemen 29
ser@@ 29
tan@@ 29
ally 29
enjoys 29
mon@@ 29
see 29
swims 29
hoop 29
win@@ 29
drives 29
els 29
shaking 29
pur@@ 29
ad@@ 29
festival 29
cha@@ 29
por@@ 29
robe 29
grocery 29
fallen 29
marching 29
use 29
dancer 29
sheet 28
pouring 28
wn 28
kayak 28
nice 28
jean 28
kicks 28
ship 28
red-haired 28
pped 28
porch 28
lers 28
brown-haired 28
puddle 28
du@@ 28
pot 28
protective 28
tw@@ 28
cial 28
type 28
stream 28
inter@@ 28
tracks 28
khaki 28
garb 28
fingers 28
waterfall 28
let 28
wrapped 28
cloudy 28
zing 28
fair 28
sso@@ 28
hangs 28
ty 28
golden 28
shaving 28
robes 28
foreign 28
steep 28
native 28
sses 28
clear 28
laundry 28
med 28
teenager 28
poles 27
sale 27
ledge 27
war@@ 27
paddling 27
shoveling 27
sco@@ 27
reaches 27
bread 27
luggage 27
moves 27
lu@@ 27
eye 27
blocks 27
red-hair 27
ful 27
ear 27
pin@@ 27
saxophone 27
birds 27
chase 27
checking 27
opposite 27
pea@@ 27
attached 27
palm 27
backyard 27
sea 27
put 27
arena 27
va@@ 27
shooting 27
podium 27
soldiers 27
skirts 27
gi@@ 27
piano 27
colors 27
boun@@ 27
airplane 27
rs 27
ju@@ 26
sla@@ 26
part 26
goalie 26
inflatable 26
sted 26
nic@@ 26
ery 26
mound 26
clean 26
bur@@ 26
denim 26
curb 26
gg@@ 26
nu@@ 26
medi@@ 26
tops 26
pri@@ 26
ke@@ 26
wine 26
f 26
ir@@ 26
ctor 26
ction 26
tongue 26
dly 26
string 26
wheelchair 26
soldier 26
laugh 26
ad 26
balancing 26
windows 26
cones 26
um 26
kiss 26
camouflage 26
poster 26
age 26
pavement 26
image 26
sli@@ 26
br@@ 26
vely 26
polo 26
pipe 26
hula 26
rugby 26
ates 26
tractor 25
happily 25
courtyard 25
eats 25
dire@@ 25
shade 25
bikers 25
frame 25
raised 25
swimsuit 25
pen@@ 25
tools 25
railroad 25
5 25
fall 25
walls 25
keyboard 25
student 25
juggling 25
gri@@ 25
tered 25
ham@@ 25
stool 25
floating 25
musician 25
tin@@ 25
buying 25
step 25
ff@@ 25
york 25
fi@@ 25
curly 25
laughs 25
fresh 25
ll 25
fast 25
fabric 25
raft 25
fans 25
ered 25
motorcycles 25
married 25
ing@@ 25
bottom 25
ic 25
flight 25
fu@@ 25
professional 25
riders 25
sport 25
sell 25
mb@@ 25
skates 25
cyclists 25
you 24
backwards 24
live 24
ple 24
plane 24
guard 24
t-@@ 24
scaffolding 24
fil@@ 24
cla@@ 24
carriage 24
stru@@ 24
surf 24
cheering 24
ka@@ 24
sized 24
plant 24
multiple 24
bubble 24
el 24
ha@@ 24
floral 24
closeup 24
lls 24
shel@@ 24
living 24
either 24
ff 24
stu@@ 24
acoustic 24
garbage 24
bucking 24
sna@@ 24
tle 24
pair 24
marketplace 24
tube 24
groom 24
appear 24
hurdle 24
socks 24
touching 24
ss@@ 24
nap 24
spray 24
suspended 24
knee 24
ber@@ 24
pe 24
pun@@ 24
ged 24
shown 24
ssi@@ 24
bandanna 24
goods 24
ill 24
top@@ 24
santa 24
pajamas 24
jerseys 24
stove 23
plaza 23
sup@@ 23
advertisement 23
kneels 23
sky@@ 23
most 23
magazine 23
col@@ 23
fenced 23
dining 23
underwater 23
hood 23
direction 23
escalator 23
climber 23
ical 23
animals 23
bank 23
hooded 23
sur@@ 23
welding 23
caught 23
als 23
long-haired 23
japanese 23
backpacks 23
dro@@ 23
serving 23
airport 23
des 23
dry 23
py 23
zed 23
aring 23
sheep 23
german 23
dr@@ 23
gre@@ 23
paints 23
hay 23
landscape 23
towel 23
ors 23
fully 23
ears 23
chain 23
sporting 23
au@@ 23
operating 22
neon 22
read 22
grilling 22
scra@@ 22
lit@@ 22
things 22
shes 22
pan 22
obstacle 22
vehicles 22
summer 22
um@@ 22
mom 22
brushing 22
money 22
ton 22
candy 22
gravel 22
but@@ 22
seems 22
ent 22
ze 22
boards 22
cal@@ 22
participating 22
amusement 22
bending 22
individual 22
post 22
shaped 22
checkered 22
thrown 22
! 22
orchestra 22
teacher 22
roller@@ 22
lines 22
stre@@ 22
referee 22
caucasian 22
decorated 22
athletic 22
bow 22
str@@ 22
examining 22
bmx 22
defen@@ 22
der@@ 21
ropes 21
ur@@ 21
han@@ 21
ars 21
barbecue 21
atv 21
brea@@ 21
map 21
lling 21
crouches 21
some@@ 21
tal@@ 21
sweat@@ 21
ure 21
firefighters 21
stic 21
et@@ 21
mobile 21
print 21
passengers 21
( 21
amp 21
rowing 21
spo@@ 21
ments 21
benches 21
peace 21
sks 21
cing 21
mini@@ 21
ter@@ 21
ite 21
harness 21
bea@@ 21
compete 21
attempt 21
scuba 21
hitting 21
rests 21
turning 21
slee@@ 21
cone 21
feeding 21
ard 21
good 21
out@@ 21
pen 21
heels 21
hun@@ 21
muddy 21
button 21
hallway 21
san@@ 21
only 21
ture 21
dering 21
beg@@ 21
practice 21
tourists 21
chest 21
hu@@ 21
haircut 21
studio 21
presentation 21
ssing 21
photographs 21
sharing 21
sticking 21
t-shirts 21
wagon 21
sets 21
ght 21
opponent 21
0@@ 21
fet@@ 21
racer 21
also 20
machinery 20
j@@ 20
she@@ 20
wal@@ 20
dish 20
mas@@ 20
hall 20
gas 20
pull 20
fro@@ 20
snowboard 20
come 20
garage 20
but 20
loading 20
dge 20
cleans 20
fruits 20
) 20
eight 20
tile 20
sandwich 20
jumpsuit 20
eds 20
ering 20
ggy 20
carpet 20
motocross 20
ver 20
ft 20
groups 20
stones 20
figure 20
jungle 20
action 20
mustache 20
motorcyclist 20
navy 20
we 20
gged 20
snowboarding 20
stan@@ 20
long-sleeved 20
op@@ 20
ssion 20
wire 20
ner 20
craft 20
cup@@ 20
bars 20
patio 20
racetrack 20
ma 20
rough 20
skateboards 20
fly 20
tool 20
sink 20
mid 20
wide 20
policeman 20
headscarf 20
vo@@ 20
drummer 20
speech 20
ssed 20
bathroom 20
turns 20
her@@ 20
guitars 20
viewing 20
start 20
je@@ 20
boxing 20
model 20
bushes 19
beam 19
gers 19
color 19
dles 19
member 19
spon@@ 19
snow-covered 19
wo@@ 19
lane 19
spar@@ 19
ions 19
fea@@ 19
intersection 19
boardwalk 19
discussion 19
work@@ 19
case 19
stro@@ 19
ceiling 19
baskets 19
swimmer 19
routine 19
lin@@ 19
wor@@ 19
fancy 19
sion 19
museum 19
vie@@ 19
observe 19
beverage 19
loo@@ 19
stopped 19
narrow 19
atten@@ 19
coach 19
bath 19
ity 19
half 19
petting 19
tag 19
great 19
indoors 19
shoot 19
dune 19
tents 19
cat@@ 19
hillside 19
kes 19
len@@ 19
dark-skinned 19
slides 19
x@@ 19
ahead 19
eastern 19
mat@@ 19
college 19
neighborhood 19
sho@@ 19
arti@@ 19
oc@@ 19
puck 19
crouching 19
first 19
tattooed 19
possibly 19
leaving 19
herself 19
smoke 19
cricket 19
assi@@ 19
trumpet 19
oun@@ 19
medical 19
vendors 19
hel@@ 19
ab@@ 19
horseback 19
thers 19
sells 19
entrance 18
saw 18
ined 18
rubber 18
mea@@ 18
song 18
rail@@ 18
fore@@ 18
commu@@ 18
mixing 18
fire@@ 18
mall 18
folding 18
-like 18
sl@@ 18
ven@@ 18
tor@@ 18
card 18
helps 18
hospital 18
cli@@ 18
hang 18
container 18
buy 18
fencing 18
tran@@ 18
clay 18
wheels 18
vil 18
bb@@ 18
gh@@ 18
cru@@ 18
celebrating 18
birthday 18
sou@@ 18
squatting 18
ced 18
nets 18
run@@ 18
excited 18
cen@@ 18
ist@@ 18
less 18
ornate 18
youth 18
uniformed 18
cardboard 18
condu@@ 18
pieces 18
outstretched 18
apple 18
protest 18
lay 18
shepherd 18
bs 18
bottles 18
plu@@ 18
puppy 18
guitarist 18
hoops 18
co 18
cts 18
hugs 18
position 18
army 18
spi@@ 18
ils 18
choir 18
funny 18
dishes 18
-up 18
seats 18
buckets 18
bel@@ 18
air@@ 18
maroon 18
mostly 18
sel 18
swe@@ 18
tem@@ 18
ops 18
wns 18
microphones 18
dre@@ 18
shing 18
dun@@ 18
see@@ 17
reflective 17
am 17
balance 17
thou@@ 17
gro@@ 17
dis@@ 17
gar@@ 17
smo@@ 17
sword 17
flipping 17
ben@@ 17
doctor 17
ven 17
tic@@ 17
stack 17
tures 17
dor@@ 17
ribbon 17
handstand 17
cuts 17
derby 17
wel@@ 17
h 17
dreadlocks 17
cri@@ 17
leading 17
apartment 17
colle@@ 17
fle@@ 17
act 17
sleeveless 17
demonstra@@ 17
backs 17
rec@@ 17
mit@@ 17
fisherman 17
bal@@ 17
pad@@ 17
gle 17
space 17
stat@@ 17
coun@@ 17
wait@@ 17
stroll 17
stretching 17
doors 17
formation 17
rink 17
pick 17
bear 17
rural 17
blows 17
bin 17
spraying 17
dled 17
vegetable 17
firetruck 17
is@@ 17
bowls 17
pine 17
more 17
sculp@@ 17
polka 17
belt 17
pat@@ 17
item 17
grinding 17
sig@@ 17
ethnic 17
moment 17
tattoos 17
conference 17
float 17
sol@@ 17
mohawk 17
stripes 17
stares 17
den@@ 17
library 17
kick@@ 17
got 17
bles 17
inspecting 17
para@@ 17
comfor@@ 17
ty@@ 17
fol@@ 17
tain 17
finish 17
calf 17
broom 17
coloring 17
tory 17
men@@ 17
smokes 17
heart 17
spinning 17
finger 17
jockey 17
ied 17
scenery 17
furniture 17
hair@@ 17
storefront 17
skaters 17
slo@@ 16
ence 16
pow@@ 16
tied 16
broken 16
factory 16
candles 16
gh 16
duck 16
approaching 16
down@@ 16
0 16
intently 16
batter 16
lou@@ 16
chefs 16
chalk 16
farm 16
spread 16
kne@@ 16
coa@@ 16
ten 16
sm@@ 16
shi@@ 16
crane 16
flip-flops 16
castle 16
ining 16
parents 16
ties 16
pet 16
discussing 16
&amp; 16
crew 16
emergency 16
labora@@ 16
motorbike 16
barrel 16
mil@@ 16
houses 16
raises 16
fluffy 16
ian 16
my 16
sau@@ 16
horn 16
warm 16
hotel 16
gui@@ 16
folded 16
balding 16
snack 16
banner 16
starting 16
bass 16
computers 16
pizza 16
lamp 16
eling 16
balances 16
mix@@ 16
nam@@ 16
ines 16
free 16
ive 16
fix 16
nighttime 16
television 16
jewelry 16
explo@@ 16
nel 16
instru@@ 16
kite 16
vel 16
lid@@ 16
are@@ 16
post@@ 16
lie 16
stairway 16
overhead 16
plates 16
dead 16
following 16
bow@@ 16
reach 16
sil@@ 16
ward 16
turned 16
gymnasium 16
rainy 16
carving 16
pitch 16
hal@@ 16
sides 16
-down 16
pigeons 16
sofa 16
london 16
lifting 16
objects 16
clad 16
pou@@ 16
tourist 16
nat@@ 16
surrounding 16
races 16
naked 16
colum@@ 16
speed 16
vic@@ 16
listens 16
war 16
1 16
moped 16
sty@@ 16
dy 15
sprink@@ 15
super@@ 15
shovels 15
ths 15
hits 15
3@@ 15
training 15
security 15
trucks 15
oper@@ 15
wea@@ 15
hea@@ 15
wood@@ 15
engine 15
que 15
elephant 15
hou@@ 15
odd 15
clut@@ 15
numerous 15
roun@@ 15
flowered 15
sive 15
unicycle 15
coo@@ 15
lounging 15
directions 15
ature 15
amongst 15
od@@ 15
swimmers 15
cap@@ 15
yel@@ 15
control 15
attra@@ 15
redheaded 15
called 15
name 15
protesting 15
sters 15
ne 15
ang@@ 15
participate 15
sub@@ 15
catcher 15
ents 15
1@@ 15
pon@@ 15
taxi 15
wife 15
branch 15
pottery 15
raising 15
dal 15
mountain@@ 15
terrain 15
repair 15
prote@@ 15
ren@@ 15
wrestle 15
proje@@ 15
shaved 15
necklace 15
downtown 15
teammate 15
partially 15
keep 15
theater 15
engaged 15
headband 15
observing 15
ral 15
forward 15
material 15
smaller 15
thin 15
blow 15
go-@@ 15
cheerlea@@ 15
barber 15
key 15
tex@@ 15
follows 15
newborn 15
photos 15
uni@@ 15
electronic 15
congre@@ 15
cit@@ 15
patient 15
fan 15
cameras 15
rol@@ 15
ballerina 15
present 15
fireman 15
.@@ 15
village 15
tho@@ 15
sca@@ 15
liquid 15
&apos;t 15
eri@@ 15
advertising 15
crosses 15
relax 15
indi@@ 15
wings 15
io@@ 15
papers 15
corn 15
beneath 15
fiel@@ 15
shades 15
rainbow 14
converse 14
shakes 14
whilst 14
binoculars 14
billboard 14
black@@ 14
mou@@ 14
steel 14
rubs 14
biking 14
thered 14
donkey 14
silly 14
skiers 14
la 14
mates 14
motor@@ 14
repairs 14
caps 14
story 14
job 14
din@@ 14
cook 14
athletes 14
fake 14
push 14
shining 14
shops 14
cans 14
carry 14
teaching 14
book@@ 14
trailer 14
rou@@ 14
rea@@ 14
ney 14
angel 14
weaving 14
ctive 14
scarves 14
camp@@ 14
mmed 14
cape 14
casual 14
share 14
tower 14
cobblestone 14
trunk 14
firemen 14
wading 14
conven@@ 14
calm 14
falls 14
ving 14
splashes 14
interacting 14
guns 14
straight 14
gift 14
cards 14
machines 14
pack@@ 14
upon 14
ble@@ 14
pit@@ 14
receiving 14
expre@@ 14
ist 14
peering 14
slightly 14
rows 14
sno@@ 14
hug 14
star 14
crafts 14
loa@@ 14
let@@ 14
dges 14
lounge 14
airborne 14
pretty 14
guards 14
cray@@ 14
pillow 14
cool 14
sprinkler 14
ga@@ 14
passenger 14
photographed 14
day@@ 14
glove 14
tou@@ 14
mes 14
ily 14
hud@@ 14
leads 14
dan@@ 14
aisle 14
camel 14
rings 14
rollerblades 14
tack@@ 14
bath@@ 14
wil@@ 14
desig@@ 14
world 14
charac@@ 14
point 14
homeless 14
performers 14
grand@@ 14
fra@@ 14
admiring 14
observes 13
spotted 13
studying 13
kno@@ 13
foot@@ 13
tropical 13
red@@ 13
eye@@ 13
paddles 13
tending 13
dusk 13
oping 13
ron@@ 13
hy 13
knit 13
chainsaw 13
check 13
laptops 13
prin@@ 13
customer 13
messy 13
carts 13
tar@@ 13
wheelbarrow 13
bly 13
nature 13
tail 13
gging 13
landing 13
cot@@ 13
ind 13
spoon 13
waterway 13
ther 13
cle@@ 13
tires 13
science 13
spla@@ 13
order 13
oven 13
stret@@ 13
high-@@ 13
burgundy 13
range 13
coaster 13
examines 13
craw@@ 13
debris 13
farmer 13
shine 13
eggs 13
shado@@ 13
praying 13
bit@@ 13
stance 13
rod 13
dough 13
skater 13
umb@@ 13
sack 13
been 13
tech@@ 13
surf@@ 13
under@@ 13
flips 13
off@@ 13
attention 13
sure 13
competit@@ 13
autumn 13
sail@@ 13
drill 13
was 13
flute 13
if 13
tist 13
deli@@ 13
stomach 13
form 13
adv@@ 13
filling 13
plan@@ 13
places 13
target 13
dad 13
bystanders 13
consisting 13
scu@@ 13
test 13
modern 13
carri@@ 13
gla@@ 13
base@@ 13
care 13
cups 13
checks 13
entering 13
groceries 13
greyhound 13
ly@@ 13
tage 13
photograph@@ 13
lanter@@ 13
cker 13
barre@@ 13
spik@@ 13
lifted 13
floo@@ 13
telephone 13
fli@@ 13
oms 13
2@@ 13
barrier 13
waterfront 13
official 13
comes 13
ceremony 13
meeting 13
open@@ 13
similar 13
paddle 13
dimly 13
ously 13
cheer 13
bleachers 13
8 13
enter@@ 13
overweight 13
tea 13
ounds 13
sailing 13
kit@@ 13
keys 13
browsing 13
headed 13
bare 13
vers 13
sneakers 13
lead 13
gestures 13
lacrosse 13
ballet 12
us@@ 12
wild 12
wards 12
bamboo 12
bricks 12
pigtails 12
dark@@ 12
scooters 12
teen 12
paperwork 12
sage 12
mid@@ 12
iron 12
val 12
camer@@ 12
ef@@ 12
hur@@ 12
chicken 12
load 12
fre@@ 12
give 12
boulder 12
stea@@ 12
doll 12
presenting 12
wires 12
ills 12
rickshaw 12
thumbs 12
clapping 12
cello 12
ere 12
exhibit 12
off-@@ 12
waterme@@ 12
teal 12
mic 12
ani@@ 12
heading 12
puppies 12
diver 12
wra@@ 12
exam@@ 12
gymnastics 12
barri@@ 12
toma@@ 12
tee 12
dum@@ 12
shadows 12
ate@@ 12
tical 12
tired 12
screaming 12
cooks 12
merchandise 12
ages 12
show@@ 12
countryside 12
dy@@ 12
blankets 12
texas 12
sse@@ 12
ry@@ 12
newly 12
seem 12
touches 12
games 12
green@@ 12
highway 12
dling 12
flu@@ 12
char@@ 12
pack 12
cloth@@ 12
beanie 12
cowboys 12
poin@@ 12
bite 12
dust 12
iting 12
shoppers 12
repairing 12
tted 12
vin@@ 12
placing 12
tray 12
bagpipes 12
our 12
wares 12
alleyway 12
organi@@ 12
handing 12
visiting 12
patterned 12
port 12
domin@@ 12
tv 12
cause 12
mon 12
knife 12
spanish 12
entertain@@ 12
stare 12
ctions 12
listen 12
drive 12
lons 12
serves 12
ness 12
aged 12
wrap 12
still 12
ya@@ 12
pillows 12
rollerblading 12
inspects 12
stops 12
descen@@ 12
suitcase 12
lov@@ 12
long-sleeve 12
banan@@ 12
ti 12
venue 12
sar@@ 12
ali@@ 12
sweeps 12
newspapers 12
sele@@ 12
complete 12
tossing 12
forehead 12
hol@@ 12
so 12
cep@@ 12
of@@ 12
tackle 12
visible 12
olympics 12
atta@@ 12
movie 12
rece@@ 12
street@@ 12
lecture 12
exercise 12
ran@@ 12
knees 12
attending 12
monument 12
craf@@ 12
list 12
biting 12
bull@@ 12
tape 12
blur@@ 12
beverages 12
accompan@@ 12
wheelie 12
6 12
applying 12
umpire 12
bla@@ 12
juice 12
g-@@ 12
tun@@ 12
shirted 12
yoga 12
odle 12
5@@ 12
wrestler 12
kayaks 12
snowboar@@ 12
snowsuit 12
play@@ 11
ets 11
artwork 11
wind@@ 11
patch 11
camping 11
trip 11
picks 11
lighted 11
kie 11
magazines 11
vel@@ 11
assemb@@ 11
four@@ 11
iling 11
constru@@ 11
fashioned 11
writ@@ 11
cheek 11
hut 11
suspenders 11
learning 11
sle@@ 11
pilot 11
home@@ 11
shoreline 11
wning 11
dusty 11
ount 11
ams 11
soda 11
ok@@ 11
mock 11
unusu@@ 11
traveling 11
underwear 11
placed 11
tting 11
ick 11
covers 11
son@@ 11
bble 11
burning 11
injured 11
arcade 11
ids 11
adjusting 11
patro@@ 11
maneu@@ 11
arran@@ 11
ways 11
banjo 11
african-american 11
rapids 11
ples 11
ponytail 11
bor@@ 11
larger 11
firefighter 11
arch 11
logs 11
own 11
chatting 11
carefully 11
jet 11
grap@@ 11
far 11
chess 11
dj 11
tors 11
dar@@ 11
washer 11
yer 11
far@@ 11
kayaking 11
china 11
teens 11
emer@@ 11
tiny 11
blin@@ 11
ly-@@ 11
printed 11
rollerskating 11
backdrop 11
swimsuits 11
strange 11
tery 11
separ@@ 11
played 11
tricycle 11
laundromat 11
hum@@ 11
gen@@ 11
creek 11
auditorium 11
location 11
tat@@ 11
sunlight 11
loom 11
speak 11
record 11
pil@@ 11
department 11
mid-@@ 11
pira@@ 11
rice 11
sam@@ 11
posed 11
gathers 11
poor 11
khakis 11
weather 11
ie 11
floats 11
presen@@ 11
vat@@ 11
dit@@ 11
raz@@ 11
leaf 11
finished 11
parachute 11
weigh@@ 11
cano@@ 11
bra 11
yarn 11
cycling 11
motorcyclists 11
practices 11
ile 11
cal 11
grin@@ 11
watched 11
retrie@@ 11
turquoise 11
descent 11
fer@@ 11
dives 11
opens 11
black-haired 11
company 11
sty 11
acti@@ 11
aqu@@ 11
ens 11
scape 11
planting 11
lon@@ 11
passersby 11
crouched 11
mug 11
scouts 11
glo@@ 11
asians 11
salon 11
sin@@ 11
tow@@ 11
tights 11
snowshoes 11
bron@@ 11
lifts 11
spot@@ 11
cage 11
low@@ 11
playfully 11
mp@@ 11
mower 11
enthusia@@ 11
tackling 11
es@@ 11
involved 11
dot 11
fish@@ 11
ger@@ 11
graffit@@ 11
rally 11
nail 11
excite@@ 11
ctors 11
kers 11
meet 11
done 11
acrobat@@ 11
quar@@ 11
motorized 11
crossed 11
couples 11
celebration 11
surgery 11
trolley 11
supplies 11
fashion 11
navig@@ 11
closely 11
drawn 11
prepar@@ 11
focused 11
torch 11
2012 11
toddlers 10
bare@@ 10
scen@@ 10
rooftop 10
frozen 10
march 10
thing 10
tribal 10
pr@@ 10
shar@@ 10
nurses 10
zens 10
part@@ 10
helicopter 10
rying 10
ski@@ 10
handrail 10
arri@@ 10
mexican 10
thumb 10
ky 10
bre@@ 10
maintenance 10
shoe@@ 10
gr@@ 10
trashcan 10
branches 10
washes 10
appar@@ 10
leap 10
stilts 10
late 10
monitor 10
belts 10
stall 10
pins 10
walked 10
adju@@ 10
creating 10
quickly 10
stepping 10
ners 10
chopping 10
circu@@ 10
chan@@ 10
john 10
vari@@ 10
travel@@ 10
experiment 10
od 10
lon 10
wake@@ 10
located 10
asia 10
serve 10
racers 10
morning 10
vacuum@@ 10
kil@@ 10
jack@@ 10
silhouette 10
earphones 10
sprayed 10
roadside 10
furry 10
hiding 10
brother 10
goat 10
mop 10
mming 10
leaf@@ 10
lens 10
pots 10
o-@@ 10
driveway 10
cs 10
rafting 10
lad@@ 10
displays 10
pin 10
quarterback 10
gaze 10
twir@@ 10
scaffold 10
chalkboard 10
portrait 10
whom 10
storm 10
ef 10
blood 10
cel@@ 10
tr@@ 10
sti@@ 10
involving 10
pads 10
gy@@ 10
ards 10
cyc@@ 10
speaker 10
cop 10
decorative 10
stroke 10
transportation 10
canvas 10
wn@@ 10
laden 10
america 10
activity 10
ried 10
wl 10
contraption 10
thin@@ 10
facility 10
upward 10
seagu@@ 10
na 10
shape 10
workshop 10
workout 10
cho@@ 10
ob@@ 10
leotard 10
juggles 10
arch@@ 10
hotdog 10
link 10
discu@@ 10
fur 10
body@@ 10
lobby 10
vest@@ 10
inged 10
peeking 10
fair@@ 10
finishing 10
emb@@ 10
mul@@ 10
headdress 10
gazes 10
casually 10
apart 10
laun@@ 10
cer@@ 10
bridesma@@ 10
ag@@ 10
oranges 10
9@@ 10
cher 10
process 10
single 10
bouquet 10
eu@@ 10
incline 10
ick@@ 10
zes 10
viol@@ 10
row@@ 10
gallery 10
collared 10
gray-haired 10
# 10
eding 10
form@@ 10
displaying 10
dou@@ 10
approaches 10
scre@@ 10
nur@@ 10
wrest@@ 10
after@@ 10
cute 10
qui@@ 10
hike 10
hard@@ 10
leggings 10
amidst 10
valley 10
touch 10
pol@@ 10
will 10
seni@@ 10
sideways 10
embracing 10
cheese 10
fel@@ 10
numbers 10
surfs 10
inten@@ 10
celebrate 10
cti@@ 10
lining 10
products 10
sking 10
scien@@ 10
lighting 10
blazer 10
fix@@ 10
second 10
mov@@ 10
gar 9
road@@ 9
gazing 9
shiel@@ 9
footed 9
river@@ 9
dive 9
ened 9
classic 9
regi@@ 9
stoop 9
sen@@ 9
wheeler 9
cast 9
dig@@ 9
types 9
edo 9
strolls 9
decorations 9
kilt 9
jogs 9
tel@@ 9
pale 9
operates 9
elmo 9
hills 9
employees 9
apro@@ 9
da 9
fen@@ 9
mers 9
service 9
highchair 9
ip@@ 9
vices 9
labe@@ 9
camp 9
ound 9
booths 9
farmers 9
cident 9
section 9
reflection 9
task 9
boarding 9
foliage 9
bicycling 9
pathway 9
gardening 9
tends 9
ol 9
painter 9
one@@ 9
hawai@@ 9
horizon 9
clouds 9
sniffing 9
joy 9
tiled 9
pper 9
breakdancing 9
sparring 9
swor@@ 9
spa@@ 9
upset 9
scar@@ 9
plo@@ 9
raincoat 9
video@@ 9
white-@@ 9
fier 9
french 9
ggling 9
gradu@@ 9
fri@@ 9
brass 9
synchroni@@ 9
strapped 9
ple@@ 9
squee@@ 9
af@@ 9
s-@@ 9
league 9
cakes 9
tags 9
track@@ 9
grabbing 9
relax@@ 9
suit@@ 9
design 9
containing 9
hor@@ 9
handle 9
cher@@ 9
cab 9
cellphones 9
nes 9
jeep 9
pinata 9
flan@@ 9
concentra@@ 9
mes@@ 9
sorting 9
mark 9
fin@@ 9
draw 9
bouncing 9
brushes 9
pumpkin 9
wind 9
tripod 9
shiny 9
scenic 9
pencil 9
cola 9
vol@@ 9
lay@@ 9
chocolate 9
color@@ 9
pers 9
checkers 9
fishes 9
featuring 9
sawing 9
hy@@ 9
even 9
odles 9
handed 9
hind 9
butterfly 9
gras@@ 9
tournament 9
cket 9
gesturing 9
really 9
crowds 9
treat 9
trea@@ 9
dragging 9
scho@@ 9
moun@@ 9
dumpster 9
illumin@@ 9
fell 9
buff@@ 9
interesting 9
motion 9
built 9
z 9
peer 9
crates 9
iden@@ 9
ant@@ 9
chewing 9
east 9
blue-@@ 9
ption 9
rela@@ 9
soap 9
than 9
ica 9
displayed 9
sledding 9
kee@@ 9
chopsticks 9
new@@ 9
news 9
monkey 9
mag@@ 9
relea@@ 9
menu 9
dding 9
spra@@ 9
euro@@ 9
jumped 9
diner 9
ticket 9
est 9
icy 9
images 9
exerci@@ 9
short-haired 9
scent 9
sad 9
vit@@ 9
hap@@ 9
writes 9
stump 9
featu@@ 9
thro@@ 9
known 9
curly-haired 9
circular 9
turban 9
cloud 9
potato 9
designs 9
pattern 9
spani@@ 9
two-@@ 9
ducks 9
muzzle 9
noon 9
xi@@ 9
grabs 9
establi@@ 9
shment 9
motor 9
doned 9
tight 9
tux@@ 9
longings 9
produ@@ 9
sal@@ 9
tooth@@ 9
termin@@ 9
trench 9
love 9
4@@ 9
mering 9
stacked 9
button@@ 9
bed@@ 9
blu@@ 9
ever@@ 9
parasailing 9
ility 9
fic@@ 9
cleaner 9
muzzled 9
well-@@ 9
religi@@ 9
olympic 9
protesters 9
boxer 9
unique 9
heavily 9
jumper 9
des@@ 9
wig 9
score 9
riot 9
rifle 9
eg@@ 9
recording 9
power 9
sum@@ 9
sidel@@ 9
digital 9
cover 9
canadian 9
decora@@ 9
polit@@ 9
obser@@ 9
focu@@ 9
sy@@ 8
stem 8
posit@@ 8
mbo@@ 8
anti@@ 8
ister 8
spat@@ 8
free@@ 8
team@@ 8
fun@@ 8
paint@@ 8
surg@@ 8
pitch@@ 8
had 8
bor 8
buil@@ 8
terri@@ 8
drag@@ 8
pup@@ 8
bin@@ 8
compan@@ 8
cy 8
ton@@ 8
ddy 8
ok 8
hydrant 8
ca 8
stun@@ 8
police@@ 8
skin@@ 8
casin@@ 8
chee@@ 8
sit@@ 8
inning 8
ox@@ 8
boar@@ 8
challen@@ 8
ety 8
roo@@ 8
sku@@ 8
ker@@ 8
shy 8
ket 8
won@@ 8
fs 8
moti@@ 8
fran@@ 8
times 8
flow@@ 8
nit@@ 8
whee@@ 8
halloween 8
zy 8
ounta@@ 8
grou@@ 8
fort 8
ional 8
shor@@ 8
adverti@@ 8
side@@ 8
fit@@ 8
ara@@ 8
bul@@ 8
tor 8
babi@@ 8
walmar@@ 8
monopoly 8
mal@@ 8
tal 8
rist@@ 8
dm@@ 8
industri@@ 8
ir 8
pain@@ 8
spring 8
akers 8
raf@@ 8
ron 8
notebook 8
monit@@ 8
grand 8
silhouet@@ 8
del@@ 8
za@@ 8
fan@@ 8
rin@@ 8
shou@@ 8
ut@@ 8
ld 8
ese 8
state 8
sprin@@ 8
white@@ 8
pra@@ 8
non 8
foods 8
speci@@ 8
gest@@ 8
11 8
employ@@ 8
ee 8
alle@@ 8
deer 8
figu@@ 8
wan@@ 8
break@@ 8
chu@@ 8
os@@ 8
crow@@ 8
tic 8
rit@@ 8
stin@@ 8
- 8
mod@@ 8
follo@@ 8
deser@@ 8
cke@@ 8
rky 8
check@@ 8
xylo@@ 8
histori@@ 8
ko@@ 8
cover@@ 8
fing@@ 8
series 8
ford 8
ley 7
mcdonald 7
hot@@ 7
climb@@ 7
tru@@ 7
erman 7
sly 7
barbecu@@ 7
ols 7
musli@@ 7
ig@@ 7
bot@@ 7
sor 7
bud@@ 7
irs 7
golf@@ 7
pee@@ 7
bon@@ 7
ham 7
exhi@@ 7
ena@@ 7
with@@ 7
ingredi@@ 7
radio 7
9 7
pie 7
wheel@@ 7
rav@@ 7
refle@@ 7
div@@ 7
jenga 7
past@@ 7
slu@@ 7
berry 7
ame 7
pad 7
ance 7
vacu@@ 7
ka 7
pier@@ 7
bongo 7
dir@@ 7
rai@@ 7
contro@@ 7
gal@@ 7
mic@@ 7
gir@@ 7
sociali@@ 7
mati@@ 7
parachu@@ 7
bby 7
zi@@ 7
pige@@ 7
busine@@ 7
bit 7
acting 7
cigaret@@ 7
usa 7
box@@ 7
face@@ 7
pum@@ 7
electri@@ 7
aman 7
conver@@ 7
liqu@@ 7
cros@@ 7
gy 7
lly 7
barely 7
land@@ 7
leop@@ 7
tment 7
lat@@ 7
ado@@ 7
dal@@ 7
moo@@ 7
chun@@ 7
quet 7
repor@@ 7
dinosau@@ 7
recei@@ 7
hip@@ 7
teri@@ 7
greyh@@ 7
tutu 7
shoo@@ 7
get@@ 7
? 7
lar@@ 7
cou@@ 7
equ@@ 7
jump@@ 7
opy 7
chil@@ 7
bucks 7
british 7
tails 7
fron@@ 7
festi@@ 7
mi 7
bikin@@ 7
poli@@ 7
ultimate 7
pyra@@ 7
neckla@@ 7
7 7
univer@@ 7
8@@ 7
den 7
6@@ 7
professi@@ 7
sso 7
patri@@ 7
ik@@ 7
sity 7
ze@@ 7
pul@@ 6
spec@@ 6
ath 6
ligh@@ 6
auto@@ 6
gap 6
hambur@@ 6
walk@@ 6
cop@@ 6
drum@@ 6
re 6
maj@@ 6
pot@@ 6
perso@@ 6
vy@@ 6
talent 6
fam@@ 6
ku@@ 6
pipes 6
red-@@ 6
paci@@ 6
ner@@ 6
gol@@ 6
stretched 6
infla@@ 6
lp@@ 6
strol@@ 6
kets 6
wash@@ 6
night@@ 6
inging 6
partici@@ 6
ov@@ 6
proce@@ 6
mouse 6
recor@@ 6
hen@@ 6
profe@@ 6
instal@@ 6
chut@@ 6
pres@@ 6
ps@@ 6
jam@@ 6
any 6
mach@@ 6
ban 6
amp@@ 6
ler@@ 6
haired 6
bag@@ 6
cer 6
appro@@ 6
lars 6
kni@@ 6
appe@@ 6
ckets 6
ffe@@ 6
sleep 6
ling@@ 6
micro@@ 6
stern 6
sooners 6
afri@@ 6
seattle 6
dle@@ 6
cade 6
ceremoni@@ 6
aker 6
as@@ 6
ha 6
scope 6
ffy 6
inclu@@ 6
sand@@ 6
stal@@ 6
skateboar@@ 6
puzz@@ 6
ise 6
popcorn 6
boogie 6
provi@@ 6
celebra@@ 6
fit 6
whe@@ 6
10 6
clu@@ 6
nal 6
yed 6
mas 6
sci@@ 6
ght@@ 6
miami 6
horse@@ 6
prou@@ 6
mono@@ 6
refer@@ 6
ggles 6
wet@@ 6
dor 6
weight 6
im 6
tea@@ 6
wit@@ 6
cow@@ 6
sor@@ 6
pod 6
figh@@ 6
dozer 6
near@@ 6
wr@@ 6
ioned 6
badmin@@ 6
metro 5
contain@@ 5
plies 5
approa@@ 5
ppers 5
zer 5
oth 5
jewel@@ 5
zoo 5
make@@ 5
zen 5
guitar@@ 5
cheer@@ 5
ody 5
multicolo@@ 5
ori@@ 5
isl@@ 5
formed 5
youn@@ 5
sat@@ 5
kar@@ 5
pho@@ 5
bot 5
toa@@ 5
mirro@@ 5
-covered 5
spider@@ 5
key@@ 5
ington 5
hit@@ 5
dying 5
reg@@ 5
ot@@ 5
balan@@ 5
care@@ 5
ro 5
geo@@ 5
ite@@ 5
musta@@ 5
high@@ 5
mly 5
ep 5
spectat@@ 5
eng@@ 5
bou@@ 5
adole@@ 5
ref@@ 5
cho 5
xt 5
bee 5
cir@@ 5
rain@@ 5
rist 5
pedestri@@ 5
disc@@ 5
basket@@ 5
saxopho@@ 5
ak@@ 5
tigh@@ 5
passer@@ 5
long@@ 5
-haired 5
uli@@ 5
trans@@ 5
mp 5
americ@@ 5
fe 5
bir@@ 5
tifi@@ 5
rac@@ 5
mechan@@ 5
sy 5
don@@ 5
consi@@ 5
lean@@ 5
chers 5
larinet 5
zo@@ 5
nike 5
store@@ 5
ore@@ 5
surroun@@ 5
intere@@ 5
lo 5
stry 5
pro 5
gent 5
ram@@ 5
multi@@ 5
husky 5
stle 5
ami@@ 5
oba@@ 5
unic@@ 5
dlers 5
frien@@ 5
ue 5
ial 5
s. 5
elephan@@ 5
mcdonal@@ 5
ket@@ 5
fash@@ 5
enga@@ 5
les@@ 5
grima@@ 5
tuni@@ 5
trou@@ 5
ampa@@ 5
oppon@@ 5
bil@@ 5
mate 5
stic@@ 5
swim@@ 5
middle-@@ 5
tit@@ 5
posta@@ 5
symbol 5
chin@@ 5
var@@ 5
ird 4
gam@@ 4
villa@@ 4
phones 4
tice 4
volkswagen 4
onal 4
ight 4
chop@@ 4
ske@@ 4
ot 4
nar@@ 4
q 4
ater 4
experi@@ 4
taining 4
ghtly 4
stor@@ 4
stati@@ 4
bru@@ 4
mega@@ 4
kitch@@ 4
ul@@ 4
bloo@@ 4
uring 4
stal 4
hula-@@ 4
exc@@ 4
siting 4
tation 4
sniff@@ 4
too@@ 4
garden@@ 4
lear@@ 4
sk 4
veter@@ 4
bear@@ 4
dals 4
interi@@ 4
ken 4
clean@@ 4
st. 4
self 4
em 4
enger 4
di 4
fur@@ 4
mounta@@ 4
hik@@ 4
photograp@@ 4
jun@@ 4
fal@@ 4
studi@@ 4
p-@@ 4
chick@@ 4
ssy 4
restaur@@ 4
eting 4
spor@@ 4
peop@@ 4
long-@@ 4
jaz@@ 4
outh 4
coca@@ 4
equip@@ 4
ei@@ 4
org@@ 4
nor@@ 4
pati@@ 4
mr@@ 4
gage 4
oklaho@@ 4
lap@@ 4
fic 4
inspec@@ 4
drop 4
latin@@ 4
art@@ 4
pop@@ 4
cky 4
blan@@ 4
daugh@@ 4
compe@@ 4
cob@@ 4
participat@@ 4
lun@@ 4
coca 4
pony@@ 4
amu@@ 4
stair@@ 4
boo@@ 4
dio 4
dings 4
soa@@ 4
boul@@ 4
dramat@@ 4
enjo@@ 4
20@@ 4
medit@@ 4
bran@@ 4
ina 4
pl@@ 4
rollerblad@@ 4
auti@@ 4
promo@@ 4
fru@@ 4
bic@@ 4
muzz@@ 4
tax@@ 4
ish 4
las 4
ire 4
don 4
electro@@ 4
spen@@ 4
vy 4
mo 4
baller@@ 4
fir@@ 4
hawk 4
gie 4
peri@@ 4
brow@@ 4
gymna@@ 4
disk 4
-skinned 4
short-@@ 4
suv 4
vio@@ 4
op 4
list@@ 4
ta 4
mor@@ 4
ther@@ 4
metro@@ 4
rous 4
scoo@@ 4
ber 3
dler 3
crou@@ 3
loun@@ 3
cour@@ 3
trumpe@@ 3
nob@@ 3
kara@@ 3
12 3
tiv@@ 3
rest@@ 3
pumpk@@ 3
kle@@ 3
ym@@ 3
inf@@ 3
sym@@ 3
eth@@ 3
olo@@ 3
plat@@ 3
mer 3
rubb@@ 3
asi@@ 3
hula-hoop 3
jo 3
u 3
sle 3
kel@@ 3
pti@@ 3
pas@@ 3
figur@@ 3
adul@@ 3
oran@@ 3
wat@@ 3
sta 3
ign 3
mik@@ 3
py@@ 3
tle@@ 3
ggage 3
onloo@@ 3
vou@@ 3
lides 3
cy@@ 3
mustach@@ 3
fou@@ 3
pies 3
numb@@ 3
moder@@ 3
labo@@ 3
portra@@ 3
windo@@ 3
pierc@@ 3
sed@@ 3
mb 3
zombie 3
l-@@ 3
horizon@@ 3
haw@@ 3
tain@@ 3
mexic@@ 3
timate 3
leot@@ 3
ired 3
scream@@ 3
lows 3
: 3
backpa@@ 3
chy 3
ster@@ 3
bicyc@@ 3
cran@@ 3
note@@ 3
ek 3
neck@@ 3
nament 3
door@@ 3
mel@@ 3
labra@@ 3
set@@ 3
du 3
obli@@ 3
sv@@ 3
bm@@ 3
aga@@ 3
sof@@ 3
rists 3
sme@@ 3
lem 3
mets 3
itch@@ 3
va 3
nov@@ 3
erti@@ 3
ill@@ 3
sten@@ 3
emp@@ 3
nan@@ 3
val@@ 3
smi@@ 3
ba 3
emo@@ 3
stop@@ 3
beauti@@ 3
sel@@ 3
hood@@ 3
cross@@ 3
tial 3
pa 3
joh@@ 3
cycle 3
lin 3
zomb@@ 3
enthusi@@ 3
blon@@ 3
suspen@@ 3
inc@@ 3
ees 3
tren@@ 2
dob@@ 2
mob@@ 2
platform@@ 2
neighbor@@ 2
van@@ 2
class@@ 2
fris@@ 2
possi@@ 2
dul@@ 2
ska 2
dic@@ 2
psy 2
ange@@ 2
ply@@ 2
by@@ 2
pig@@ 2
dle-@@ 2
cture 2
sod@@ 2
foo@@ 2
hle@@ 2
adi@@ 2
ga 2
secon@@ 2
auty 2
mal 2
blading 2
tos 2
syn@@ 2
audit@@ 2
tici@@ 2
cil 2
stuff@@ 2
secur@@ 2
stori@@ 2
lam@@ 2
strun@@ 2
xing 2
irts 2
vement 2
bott@@ 2
routin@@ 2
centra@@ 2
scaffol@@ 2
piz@@ 2
ura 2
ai@@ 2
cle 2
holi@@ 2
om 2
ilts 2
stran@@ 2
spr@@ 2
wag@@ 2
tty 2
pud@@ 2
bei@@ 2
close@@ 2
two@@ 2
,@@ 2
ima@@ 2
oz@@ 2
rif@@ 2
repair@@ 2
bod@@ 2
skinned 2
paper@@ 2
roof@@ 2
alo 2
shoul@@ 2
li 2
shir@@ 2
blea@@ 2
vo 2
jim 2
news@@ 2
cers 2
lavi@@ 2
even@@ 2
kemp@@ 2
born 2
iler 2
tin 2
volle@@ 2
oce@@ 2
sne@@ 2
bask@@ 2
invol@@ 2
classi@@ 2
ey@@ 2
namen@@ 2
vat 2
blond-@@ 2
spre@@ 2
foli@@ 2
my@@ 2
chu 2
chur@@ 2
jum@@ 2
navi@@ 2
tele@@ 2
fac@@ 2
allow 2
% 2
podi@@ 2
xy@@ 2
neu@@ 2
si 2
mpo@@ 2
amon@@ 2
moto@@ 2
slun@@ 2
locks 2
gray@@ 2
acro@@ 2
offic@@ 2
yc@@ 2
cele@@ 2
illu@@ 2
kimo@@ 2
v 2
bandan@@ 2
reli@@ 2
vr@@ 2
pomer@@ 2
partment 2
tick@@ 2
olympi@@ 2
herd 2
gun@@ 2
pass@@ 2
sch@@ 2
escala@@ 2
tech 2
bystan@@ 2
zz@@ 2
slou@@ 2
fini@@ 2
ale 2
hoke@@ 2
rod@@ 2
larin@@ 1
uniform@@ 1
nod@@ 1
irt 1
tak 1
fig@@ 1
vro@@ 1
stures 1
fabri@@ 1
clou@@ 1
ci 1
oter 1
zat@@ 1
ening 1
wel 1
bus@@ 1
hl 1
lux@@ 1
conversat@@ 1
sema@@ 1
hill@@ 1
igh@@ 1
teen@@ 1
contra@@ 1
polo@@ 1
aty 1
dem 1
ugh@@ 1
hula@@ 1
yar@@ 1
alie 1
&apos;@@ 1
trol@@ 1
phan@@ 1
chal@@ 1
ou 1
attemp@@ 1
soon@@ 1
ath@@ 1
country@@ 1
doden@@ 1
ech 1
lou 1
bal 1
quo@@ 1
pis@@ 1
lamp@@ 1
accor@@ 1
gue 1
bbing 1
publi@@ 1
parti@@ 1
pos@@ 1
sa 1
shro@@ 1
indu@@ 1
spou@@ 1
teet@@ 1
materi@@ 1
bik@@ 1
kou@@ 1
sax@@ 1
memb@@ 1
pano@@ 1
plast@@ 1
butter@@ 1
laugh@@ 1
thumb@@ 1
grafitti 1
blad@@ 1
mu 1
kla@@ 1
turi@@ 1
deo 1
yh@@ 1
kor@@ 1
outf@@ 1
nu 1
twe@@ 1
ree 1
swee@@ 1
kan@@ 1
prac@@ 1
ode@@ 1
pisto@@ 1
colo@@ 1
ena 1
cigar@@ 1
lared 1
rov@@ 1
baru 1
again@@ 1
liv@@ 1
feat@@ 1
dwalk 1
nic 1
prep@@ 1
ong@@ 1
sque@@ 1
skate@@ 1
auto 1
zd@@ 1
pole@@ 1
mobi@@ 1
rou 1
oby@@ 1
flops 1
eli 1
dresse@@ 1
q@@ 1
dread@@ 1
kra@@ 1
milit@@ 1
hosp@@ 1
vice 1
perform@@ 1
shep@@ 1
ec 1
borne 1
dump@@ 1
visi@@ 1
ista 1
riz@@ 1
custo@@ 1
vity 1
del 1
locat@@ 1
bene@@ 1
ricksha@@ 1
ornat@@ 1
ind@@ 1
squat@@ 1
7@@ 1
tem 1
brown@@ 1
tom@@ 1
dent 1
bub@@ 1
concre@@ 1
$ 1
brun@@ 1
repa@@ 1
mobil@@ 1
ji 1
cemen@@ 1
enth@@ 1
try@@ 1
ffee 1
cauc@@ 1
ho 1
vot@@ 1
ffer@@ 1
dit 1
ji@@ 1
prost@@ 1
handra@@ 1
tradit@@ 1
hla@@ 1
hr@@ 1
roni@@ 1
ory 1
vi 1
bill@@ 1
lif@@ 1
transpar@@ 1
nis 1
gran@@ 1
tod@@ 1
asse@@ 1
jer@@ 1
mc@@ 1
deta@@ 1
dv@@ 1
musi@@ 1
stup@@ 1
symbo@@ 1
chalk@@ 1
anie 1
exer@@ 1
fon@@ 1
wheelbar@@ 1
nik@@ 1
plying 1
gency 1
hic@@ 1
zu 1
harmo@@ 1
binocu@@ 1
race@@ 1
quarter@@ 1
za 1
pal@@ 1
donal@@ 1
excit@@ 1
medic@@ 1
-american 1
fia@@ 1
una@@ 1
differ@@ 1
ump@@ 1
kaz@@ 1
dice 1
transpor@@ 1
inju@@ 1
obsta@@ 1
ruce 1
yor@@ 1
cau@@ 1
brit@@ 1
athle@@ 1
colu@@ 1
yo@@ 1
pics 1
tograp@@ 1
= 1
