a 49475
. 27642
in 15099
the 10959
on 8306
man 7880
is 7612
and 7429
of 6867
with 6179
woman 3976
, 3963
two 3877
are 3819
to 3135
at 3128
an 3122
people 3121
wearing 2623
young 2280
white 2223
shirt 2132
black 2003
his 1969
while 1947
blue 1871
men 1829
red 1774
sitting 1743
girl 1733
dog 1691
boy 1689
standing 1614
playing 1594
group 1552
street 1445
down 1407
walking 1378
front 1306
her 1264
holding 1237
by 1097
one 1097
water 1084
three 1055
women 988
up 974
as 925
green 924
s 920
little 915
for 906
looking 895
child 894
e@@ 884
outside 871
large 841
through 813
yellow 781
g@@ 780
children 768
ball 766
brown 766
person 753
es 729
hat 728
from 728
t 725
their 725
e 715
into 711
out 697
a@@ 687
f@@ 682
small 671
next 664
i@@ 661
other 660
er 654
ing 652
dressed 642
d 641
ts 638
c@@ 628
some 625
over 623
ed 610
building 603
-@@ 603
in@@ 602
ers 600
s@@ 591
riding 584
running 581
near 571
jacket 566
around 562
another 562
p@@ 540
field 536
se@@ 534
sidewalk 534
table 534
orange 524
y 522
crowd 521
beach 520
t@@ 509
stands 498
sits 493
pink 493
jumping 491
behind 489
d@@ 478
w@@ 470
stand 468
grass 468
re@@ 466
bike 465
background 460
snow 459
ding 447
city 446
&apos;s 444
asian 443
girls 441
air 439
o@@ 438
top 437
lo@@ 432
y@@ 431
player 429
looks 423
st 419
wall 417
dogs 413
ri@@ 411
de@@ 409
dress 406
b@@ 405
several 404
that 404
k 403
older 401
four 400
pa@@ 399
off 393
camera 393
hair 391
park 389
side 388
n 387
talking 382
lady 380
something 380
ting 380
po@@ 378
p 377
ds 377
boys 376
soccer 375
ra@@ 373
walks 371
ti@@ 370
along 370
it 368
guitar 367
ar@@ 366
working 365
food 364
play 363
together 361
li@@ 358
la@@ 358
ma@@ 358
walk 355
smiling 353
st@@ 352
gray 343
plays 341
con@@ 340
game 340
picture 340
has 339
road 339
o 337
do@@ 336
th@@ 334
ly 330
suit 330
l@@ 330
car 329
m@@ 329
hand 327
holds 322
mo@@ 321
glasses 317
head 316
pants 315
bench 314
face 313
sh@@ 312
him 312
sit 311
at@@ 310
ta@@ 306
ro@@ 304
al 304
old 304
shorts 304
ch@@ 304
stage 303
co@@ 301
carrying 300
couple 299
baby 299
se 298
k@@ 297
room 297
ck 292
them 290
ge 290
bicycle 287
ch 287
race 286
op@@ 283
&quot; 280
male 279
di@@ 279
tree 279
pool 278
ca@@ 278
tra@@ 277
en@@ 277
back 277
ne@@ 276
me@@ 276
w 275
taking 275
rock 273
each 272
pi@@ 271
day 269
sk@@ 267
doing 267
ho@@ 266
boat 266
sh 266
le@@ 264
ps 264
bu@@ 263
cks 263
l 262
watching 261
h@@ 261
across 261
ls 260
guy 260
its 260
jeans 259
dirt 259
there 259
area 258
it@@ 258
be 254
ground 254
blond 252
m 251
be@@ 250
jumps 250
n@@ 249
u@@ 249
band 248
hands 248
ted 247
or 246
sa@@ 245
female 245
un@@ 243
coat 242
b 241
performing 241
to@@ 239
car@@ 239
g 238
baseball 238
bo@@ 237
ching 237
who 237
sha@@ 237
eating 236
si@@ 236
il@@ 234
being 233
striped 232
so@@ 231
using 229
football 229
sign 228
mu@@ 227
er@@ 226
line 226
sho@@ 226
kids 225
ks 225
che@@ 225
watch 225
te 225
board 224
under 224
many 223
store 222
horse 222
mouth 221
purple 221
he 221
ve 218
long 218
les 217
this 216
ling 214
look 214
sand 213
work 213
chair 213
ba@@ 213
le 212
posing 212
runs 212
tennis 212
f 211
reading 210
an@@ 210
pe@@ 209
players 209
sunglasses 208
all 208
construction 208
ex@@ 208
ches 205
c 205
clothing 203
light 202
microphone 202
mountain 200
lea@@ 200
fa@@ 199
go@@ 199
covered 199
ce 198
toy 198
ocean 198
led 198
dark 198
basketball 198
during 197
workers 197
mar@@ 195
middle 194
watches 194
climbing 193
t-shirt 193
dancing 192
uniform 192
past 191
gu@@ 191
ws 191
elderly 190
cu@@ 189
restaurant 188
helmet 187
against 187
z@@ 186
shirts 185
pu@@ 185
train 185
wa@@ 185
team 185
ck@@ 184
window 183
sto@@ 182
rides 181
qu@@ 180
r@@ 180
te@@ 180
pe 179
they 178
bar@@ 178
ci@@ 178
way 177
we@@ 177
about 177
ving 177
ice 176
sp@@ 176
ss 175
am@@ 174
r 174
trees 174
wooden 173
five 173
having 173
waiting 173
outdoor 173
ter@@ 173
ar 172
bag 172
for@@ 171
very 170
swimming 169
getting 168
fi@@ 167
floor 166
trying 165
truck 165
skateboard 163
colorful 163
ders 163
ter 162
ping 161
hill 161
sta@@ 161
busy 160
can@@ 160
singing 159
fence 159
book 159
jump 157
track 157
market 156
gs 156
ves 155
cart 154
par@@ 154
vi@@ 154
sing 154
ys 152
al@@ 152
ats 152
king 152
no@@ 151
ride 151
laying 150
inside 150
ment 150
hats 149
ru@@ 149
high 148
ir@@ 147
tan 147
bright 147
tur@@ 147
others 145
kitchen 145
cap 145
cellphone 144
body 144
path 144
grassy 144
ou@@ 143
big 143
someone 143
making 142
up@@ 142
bus 141
mi@@ 141
clothes 141
wing 140
phone 140
takes 140
motorcycle 140
bro@@ 139
tu@@ 139
ic@@ 139
umbrella 139
dy 138
night 138
towards 138
full 138
outfit 138
ces 138
shop 138
dri@@ 137
enjoying 137
brick 137
tri@@ 136
colored 135
metal 135
cra@@ 135
river 134
jo@@ 134
swing 134
ying 133
piece 133
paper 133
na@@ 133
ready 133
ni@@ 133
shes 132
stone 132
cat@@ 132
ses 132
um@@ 132
ans 131
she 131
ded 131
han@@ 129
arm 129
en 129
tank 129
set 129
ning 128
ent 128
house 127
cro@@ 127
flo@@ 127
open 126
der 126
worker 126
sweater 126
du@@ 125
v@@ 125
trick 125
ns 125
painting 124
pic@@ 124
above 124
stick 124
cha@@ 123
sed 123
lake 123
mer 123
ke@@ 123
gra@@ 123
su@@ 122
de 122
adults 122
american 122
going 122
music 121
like 121
back@@ 121
pro@@ 121
hard 120
vest 120
snowy 120
oun@@ 120
ban@@ 120
run 120
dance 120
surrounded 119
com@@ 119
ons 119
wave 119
lot 119
shopping 119
ned 118
uniforms 118
onto 118
et 117
outdoors 117
el@@ 117
crowded 117
ep 117
stri@@ 117
lan@@ 116
fire 116
ved 116
photo 116
backpack 115
beside 115
smiles 115
gear 115
cking 114
hi@@ 114
over@@ 114
ap@@ 114
kid 114
cur@@ 114
the@@ 114
ched 113
blo@@ 113
ce@@ 113
ble 113
ion 113
pole 113
hockey 112
fla@@ 112
subway 112
african 112
ll 112
drinking 112
water@@ 112
sc@@ 111
family 111
sur@@ 111
yard 111
bridge 110
sca@@ 110
gg@@ 110
ft 110
flowers 110
toddler 109
tro@@ 109
pre@@ 109
dle 109
ge@@ 109
guys 108
rope 108
arms 108
snow@@ 108
h 108
gathered 108
event 108
police 107
ste@@ 107
slee@@ 107
shoes 107
hanging 107
ser@@ 107
ju@@ 106
catch 106
ler 106
away 106
ben@@ 106
ped 106
ssi@@ 106
ction 106
tou@@ 106
preparing 105
beautiful 105
pan@@ 105
wn 105
cam@@ 105
col@@ 105
spe@@ 105
ating 104
ss@@ 104
stra@@ 104
swim@@ 104
dra@@ 104
x@@ 104
list 104
ry 104
tion 104
ff@@ 103
object 103
steps 103
od@@ 103
sleeping 103
costume 103
hu@@ 103
2 103
clo@@ 103
dan@@ 103
leaning 103
spo@@ 102
ring 102
san@@ 102
gar@@ 102
after 102
fishing 102
racing 102
ad@@ 101
ant 101
machine 101
lu@@ 101
wi@@ 100
fountain 100
plaid 100
bar 100
ine 99
shirtless 99
he@@ 99
ga@@ 99
um 99
stairs 99
wood 98
ver@@ 98
take 98
age 98
chairs 98
ve@@ 97
adult 97
ings 96
fli@@ 96
fire@@ 96
rocks 96
et@@ 96
gre@@ 96
bal@@ 95
pes 95
ha@@ 95
gh@@ 95
selling 94
cross 94
sunny 94
door 94
graffiti 94
or@@ 94
hea@@ 93
ct 93
does 93
glass 93
ir 93
forest 93
setting 92
cre@@ 92
pon@@ 92
pose 92
ja@@ 92
parade 92
els 91
tall 91
time 91
da@@ 91
she@@ 90
i 90
pla@@ 90
ea@@ 90
putting 90
get 90
both 90
corner 90
volleyball 90
pushing 89
je@@ 89
throwing 89
frisbee 89
scarf 89
ral 89
view 89
ne 89
art 88
have 88
slide 88
ladies 88
drink 88
between 88
fe@@ 88
public 87
ins 87
bed 87
laughing 87
cle@@ 87
star@@ 87
per@@ 87
cor@@ 87
short 87
computer 87
instruments 86
flag 86
ure 86
ters 86
equipment 86
din@@ 86
-haired 86
shing 86
cing 86
ght 86
ac@@ 86
stu@@ 85
fish 85
bri@@ 85
pping 85
couch 85
where 85
prote@@ 85
pictures 85
bikes 85
plastic 84
ke 84
cowboy 84
ramp 84
mer@@ 84
party 84
which 83
playground 83
works 83
bat@@ 83
il 83
sweatshirt 83
res 83
poses 83
trail 83
woods 83
reads 83
on@@ 83
sun 82
skirt 82
concrete 82
ten@@ 82
under@@ 82
ger 82
statue 82
beard 82
bicyc@@ 82
air@@ 82
fo@@ 81
win@@ 81
cla@@ 81
dock 81
gi@@ 81
ani@@ 81
midair 81
winter 81
j@@ 80
ard 80
ining 80
cyc@@ 80
number 80
suits 80
just 80
hik@@ 79
ty@@ 79
seated 79
inter@@ 79
row 79
sting 79
ran@@ 78
distance 78
low 78
lined 78
ur@@ 77
sky 77
attire 77
toward 77
por@@ 77
x 77
what 77
bags 77
rain 77
ate 76
beer 76
site 76
ki@@ 76
six 76
den@@ 76
nat@@ 76
cooking 76
har@@ 76
place 76
ing@@ 76
school 76
kne@@ 75
right 75
vests 75
me 75
val 75
head@@ 75
cutting 75
blond-hair 75
filled 75
rider 75
br@@ 75
ery 74
buildings 74
shore 74
left 74
squ@@ 74
pulling 74
tent 74
tatto@@ 73
mother 73
cream 73
middle-aged 73
long@@ 73
station 72
skateboarder 72
el 72
fen@@ 72
crossing 72
cliff 72
friends 72
net 72
wrest@@ 72
lin@@ 72
appears 72
fu@@ 72
edge 71
showing 71
instrument 71
spectators 71
mountains 71
few 71
bearded 70
wn@@ 70
pad@@ 70
horses 70
bathing 70
mat@@ 70
wel@@ 70
jersey 70
go 70
show 70
str@@ 70
cars 70
pul@@ 69
nearby 69
ms 69
performs 69
ner 69
dresses 69
make 69
court 69
driving 68
ctor 68
grill 68
concert 68
bowling 68
ny 68
carries 68
apron 68
hel@@ 68
can 68
perform 68
mers 68
mon@@ 68
ol 68
lists 68
cal@@ 68
box 68
snowboarder 68
pat@@ 67
fruit 67
hand@@ 67
arts 67
leaves 67
uses 67
painted 66
structure 66
coffee 66
wh@@ 66
ple 66
bb@@ 66
son 66
parked 66
vendor 66
flower 66
rea@@ 66
min@@ 66
various 66
cigarette 66
boots 66
students 66
cake 65
cup 65
vehicle 65
nic 65
msel@@ 65
gentleman 65
brea@@ 65
kic@@ 65
pped 65
no 65
goggles 65
bru@@ 65
younger 65
boo@@ 65
id 65
smile 65
shot 65
ag@@ 65
med 65
surfer 65
der@@ 64
ars 64
ver 64
gymna@@ 64
balan@@ 64
ity 64
bottle 64
flying 64
ham@@ 64
ick@@ 64
lit 64
martial 64
drums 64
bor@@ 64
talks 64
hal@@ 64
smoking 64
new 63
kicking 63
flags 63
dire@@ 63
wal@@ 63
home 63
eyes 63
rai@@ 63
hit 63
dru@@ 63
pin@@ 63
ally 63
spla@@ 63
lying 63
roller@@ 63
waves 62
safety 62
rocky 62
ges 62
mb@@ 62
paint 62
swinging 62
ered 62
hood@@ 62
ies 62
coming 62
newspaper 62
alley 62
jackets 62
but@@ 62
stre@@ 62
ie 62
rodeo 62
prepares 62
case 61
rest@@ 61
bla@@ 61
conversation 61
ol@@ 61
red-@@ 61
gather 61
different 61
parking 61
bucket 61
tin@@ 61
practicing 61
costumes 61
gloves 61
au@@ 61
ster 61
skating 61
indian 61
cket 61
poin@@ 61
ladder 60
cleaning 60
bunch 60
scene 60
ards 60
competition 60
roof 60
ates 60
listening 60
hold 60
cen@@ 60
cement 60
rt 60
spra@@ 60
bull 60
wait 59
ctive 59
tie 59
wet 59
blanket 59
als 59
wor@@ 59
skier 59
sun@@ 59
rou@@ 59
items 59
cau@@ 59
onlookers 59
skateboarding 59
ors 59
her@@ 59
staring 59
plan@@ 59
balloon 58
do 58
individu@@ 58
fore@@ 58
meal 58
t-@@ 58
ely 58
pile 58
vel@@ 58
bikini 58
boar@@ 58
lawn 58
railing 58
audience 58
bicycles 58
zed 58
giving 58
ther 58
empty 58
cti@@ 58
3 58
desk 58
cir@@ 57
cle 57
conver@@ 57
leaps 57
ture 57
gging 57
coo@@ 57
sit@@ 57
happy 57
ight 57
sle@@ 57
; 57
drinks 57
military 57
gets 57
hot 57
obser@@ 56
ak@@ 56
ven 56
ath 56
sliding 56
bur@@ 56
gathering 56
bird 56
display 56
ked 56
man@@ 56
motorcyc@@ 56
sports 56
vegetables 56
pointing 56
signs 56
cer 56
class 55
lar@@ 55
gh 55
wedding 55
lie 55
made 55
bowl 55
facing 55
stop 55
sse@@ 55
ob@@ 55
cli@@ 55
pet 55
tes 55
lar 55
cut 55
athle@@ 55
feet 55
streets 55
chasing 55
sort 55
biker 55
before 55
competing 55
bi@@ 54
us@@ 54
crou@@ 54
hole 54
ines 54
platform 54
sion 54
ated 54
huge 54
ad 54
cked 54
helmets 54
stret@@ 54
attemp@@ 54
va@@ 54
des 54
uni@@ 54
speaking 54
mask 54
basket 54
ov@@ 53
ken 53
gaz@@ 53
silver 53
bride 53
shi@@ 53
sculp@@ 53
smo@@ 53
pers 53
whe@@ 53
tries 53
vy 53
lights 53
fall 53
pass 53
cou@@ 53
run@@ 53
match 53
rin@@ 53
surfing 53
soldi@@ 53
classroom 53
pol@@ 53
color@@ 53
teams 53
purse 52
climbs 52
gri@@ 52
father 52
tly 52
tre@@ 52
seen 52
ced 52
ile 52
iling 52
sticks 52
bot@@ 52
ind 52
traditional 52
same 52
wra@@ 52
ski 52
waits 52
sings 52
surfboard 52
produ@@ 52
marathon 52
fighting 51
plane 51
kaya@@ 51
rail 51
op 51
kissing 51
tor@@ 51
counter 51
clu@@ 51
screen 51
shed 51
dry 51
gold 51
animal 51
musicians 51
stair@@ 50
swee@@ 50
stroller 50
dis@@ 50
trun@@ 50
break 50
ele@@ 50
decora@@ 50
bir@@ 50
hor@@ 50
tele@@ 50
wer 50
town 50
females 50
walkway 49
sup@@ 49
shoulder 49
country 49
lap 49
la 49
hou@@ 49
kneeling 49
proje@@ 49
mov@@ 49
custo@@ 49
less 49
diving 49
ging 49
ere 49
sunset 49
ite 49
throw 49
runner 49
writing 49
sin@@ 49
skiing 49
alle@@ 49
laun@@ 49
dles 48
talk 48
scen@@ 48
ily 48
waving 48
ound 48
sil@@ 48
wood@@ 48
eng@@ 48
blowing 48
scooter 48
coa@@ 48
bald 48
pain@@ 48
christmas 48
ton 48
pea@@ 48
wat@@ 48
business 48
attempting 48
ops 48
violin 48
photograph@@ 48
slo@@ 47
box@@ 47
tables 47
per 47
ary 47
dge 47
overlooking 47
erman 47
lies 47
course 47
sli@@ 47
wear 47
wheel@@ 47
jum@@ 47
outfits 47
gle 47
end 47
clou@@ 47
exam@@ 47
cher 47
sty@@ 47
perform@@ 47
oper@@ 46
ence 46
adverti@@ 46
blond-haired 46
urban 46
bubbles 46
says 46
stro@@ 46
mal@@ 46
artist 46
officer 46
mirror 46
ty 46
tat@@ 46
cheerlea@@ 46
ill 46
rs 46
giant 45
am 45
van 45
leans 45
sement 45
cal 45
balloons 45
stic 45
fixing 45
prin@@ 45
fre@@ 45
bel@@ 45
chinese 45
celebra@@ 45
ous 45
fol@@ 45
fully 45
stun@@ 45
base 45
kes 45
life 45
sel@@ 45
close 45
alone 44
pou@@ 44
ation 44
swim 44
faces 44
teenage 44
deser@@ 44
ven@@ 44
ming 44
repa@@ 44
brunette 44
helping 44
presen@@ 44
wheel 44
cafe 44
cy 44
plate 44
leg 44
bra@@ 44
collar 44
loo@@ 44
scu@@ 44
atten@@ 44
foreground 44
gym 44
leather 44
aring 44
ive 44
cts 44
umbrellas 44
skate 44
para@@ 44
mod@@ 44
lling 43
rail@@ 43
electric 43
e-@@ 43
mud 43
asleep 43
rying 43
haired 43
enjoy 43
comple@@ 43
clown 43
legs 43
brightly 43
meat 43
ners 43
guit@@ 43
1@@ 43
ton@@ 43
dancers 43
teen@@ 43
headphones 43
sses 43
play@@ 42
tr@@ 42
shovel@@ 42
washing 42
ey@@ 42
folding 42
sandals 42
hood 42
golf 42
among 42
ear@@ 42
swings 42
balls 42
makes 42
officers 42
sts 42
office 42
tea@@ 42
moto@@ 42
falling 42
stadium 42
d-@@ 42
bat 42
passing 42
grocer@@ 42
post@@ 42
wears 42
em 41
multicolored 41
goal 41
dark-haired 41
phones 41
bs 41
held 41
cting 41
dirty 41
nu@@ 41
church 41
sea@@ 41
with@@ 41
friend 41
pl@@ 41
toys 41
barefoot 41
ese 41
flu@@ 41
hiking 41
musical 41
heads 41
participat@@ 41
gol@@ 41
py 41
scope 41
photographer 41
doorway 41
spea@@ 41
ward 41
lif@@ 41
males 40
let 40
mach@@ 40
za 40
bea@@ 40
singer 40
reaching 40
xing 40
wea@@ 40
drawing 40
disc@@ 40
video 40
vice 40
flip 40
leash 40
mb 40
laptop 40
accordion 40
sna@@ 40
throws 40
canoe 40
picking 40
inclu@@ 40
traffic 40
cloth 40
photograp@@ 40
fini@@ 40
see@@ 39
v 39
below 39
hose 39
spec@@ 39
war@@ 39
dling 39
fra@@ 39
work@@ 39
pitch@@ 39
tops 39
move 39
mul@@ 39
high@@ 39
vie@@ 39
shallow 39
members 39
out@@ 39
check@@ 39
pati@@ 39
atta@@ 39
relaxing 39
lad@@ 39
daughter 39
ged 39
tal 39
performance 39
follo@@ 39
digging 39
lon@@ 39
well 39
read 38
cover@@ 38
ill@@ 38
prep@@ 38
figh@@ 38
wo@@ 38
key 38
tain@@ 38
tunnel 38
moving 38
hugging 38
ig@@ 38
shovel 38
suspen@@ 38
tw@@ 38
pup@@ 38
vel 38
gives 38
microscope 38
bei@@ 38
square 38
dro@@ 38
passes 38
stic@@ 38
foot 38
lid@@ 38
ern 38
enter@@ 38
spor@@ 38
hair@@ 38
profe@@ 38
ens 38
sprin@@ 37
oth 37
fil@@ 37
carri@@ 37
garden 37
lone 37
dun@@ 37
len@@ 37
mal 37
cho@@ 37
ima@@ 37
pil@@ 37
bun@@ 36
inten@@ 36
rolling 36
vol@@ 36
chal@@ 36
sco@@ 36
karate 36
hur@@ 36
dre@@ 36
shoul@@ 36
ney 36
&apos; 36
im@@ 36
ire 36
festi@@ 36
new@@ 36
tire 36
us 36
0@@ 36
ance 35
nal 35
tran@@ 35
sw@@ 35
stan@@ 35
lun@@ 35
round 35
den 35
ler@@ 35
hap@@ 34
im 34
pen@@ 34
try 34
roller 34
my 34
cit@@ 34
na 34
refle@@ 33
tory 33
ker 33
far@@ 33
enjo@@ 33
trampo@@ 33
makeup 33
ening 33
sax@@ 33
ite@@ 33
rela@@ 33
bow@@ 33
ly@@ 33
rece@@ 33
ref@@ 33
ssing 33
io@@ 32
nose 32
ot 32
re 32
ze 32
hoop 32
snowboar@@ 32
4 32
fe 32
rist@@ 32
list@@ 32
blou@@ 31
soft@@ 31
lit@@ 31
even@@ 31
dark@@ 31
tor 31
kni@@ 31
bou@@ 31
sum@@ 31
od 31
dr@@ 31
th 31
thro@@ 31
ber@@ 31
sig@@ 31
orien@@ 31
ets 30
climb@@ 30
fro@@ 30
motor@@ 30
pud@@ 30
tting 30
coun@@ 30
tle 30
appe@@ 30
nam@@ 30
pit@@ 30
thers 30
blu@@ 30
mas 30
spar@@ 29
tic@@ 29
cheer@@ 29
bran@@ 29
pit 29
gentle@@ 29
ycle 29
tan@@ 29
stat@@ 29
nes 29
ket@@ 29
pur@@ 29
windo@@ 29
podi@@ 29
cer@@ 29
cour@@ 28
nice 28
let@@ 28
gen@@ 28
grou@@ 28
khaki 28
police@@ 28
ble@@ 28
pal@@ 28
ena 28
rob@@ 28
dit@@ 28
fer@@ 28
ta 28
2@@ 28
teenager 28
ligh@@ 27
tal@@ 27
camer@@ 27
apar@@ 27
fan@@ 27
ful 27
tex@@ 27
pian@@ 27
men@@ 27
sla@@ 26
nic@@ 26
bik@@ 26
ist@@ 26
wr@@ 26
umb@@ 26
spa@@ 26
dly 26
backpa@@ 26
laugh@@ 26
skateboar@@ 26
fin@@ 26
chu@@ 26
ik@@ 26
rugby 26
ou 25
ek 25
5 25
bub@@ 25
vic@@ 25
studen@@ 25
off@@ 25
musici@@ 25
compe@@ 25
plo@@ 25
scre@@ 25
york 25
tow@@ 25
iny 25
nit@@ 25
tom 25
studi@@ 25
of@@ 24
ski@@ 24
mob@@ 24
stru@@ 24
ka@@ 24
fru@@ 24
ff 24
asi@@ 24
ba 24
ren@@ 24
ka 24
iting 24
pun@@ 24
ckets 24
top@@ 24
jerse@@ 24
micro@@ 24
1 24
most 23
mid@@ 23
team@@ 23
sl@@ 23
flow@@ 23
nar@@ 23
scar@@ 23
surf@@ 23
teri@@ 23
olym@@ 23
tru@@ 22
0 22
vehic@@ 22
sty 22
trum@@ 22
ame 22
outh 22
uring 22
! 22
orche@@ 22
pos@@ 22
dic@@ 22
prac@@ 22
muz@@ 22
bmx 22
some@@ 21
sweat@@ 21
irs 21
bask@@ 21
( 21
ments 21
pot@@ 21
cell@@ 21
plat@@ 21
mini@@ 21
pra@@ 21
mp 21
pen 21
shor@@ 21
ech 21
surroun@@ 21
fet@@ 21
colo@@ 20
memb@@ 20
mas@@ 20
emp@@ 20
) 20
ich 20
pho@@ 20
ma 20
rough 20
vo@@ 20
sy@@ 19
sen@@ 19
af@@ 19
tax@@ 19
mounta@@ 19
arti@@ 19
ot@@ 19
elec@@ 19
ina 19
sof@@ 19
om 19
vendo@@ 19
des@@ 19
ab@@ 19
ther@@ 18
mall 18
ky 18
sou@@ 18
ghtly 18
pie@@ 18
fal@@ 18
co 18
raf@@ 18
cow@@ 18
lean@@ 18
side@@ 18
swe@@ 18
dding 18
lly 18
tem@@ 18
gro@@ 17
tures 17
dor@@ 17
lap@@ 17
ssy 17
buil@@ 17
demon@@ 17
amon@@ 17
afri@@ 17
vege@@ 17
ree 17
sol@@ 17
gest@@ 17
crow@@ 17
by@@ 17
sle 17
bles 17
ue 17
del@@ 17
ckey 17
lou@@ 16
ten 16
sm@@ 16
zo@@ 16
&@@ 16
labora@@ 16
mil@@ 16
ori@@ 16
tel 16
compu@@ 16
eling 16
blan@@ 16
chin@@ 16
televi@@ 16
nel 16
instru@@ 16
are@@ 16
ggles 16
obje@@ 16
&apos;@@ 16
dl@@ 15
3@@ 15
strol@@ 15
roun@@ 15
ath@@ 15
yel@@ 15
sub@@ 15
pod 15
americ@@ 15
rol@@ 15
ban 15
.@@ 15
offic@@ 15
indi@@ 15
os@@ 15
fiel@@ 15
fou@@ 14
sno@@ 14
cture 14
news@@ 14
hud@@ 14
mp@@ 14
shir@@ 14
mir@@ 14
nal@@ 13
foot@@ 13
hy 13
mo 13
bit@@ 13
stance 13
stran@@ 13
competit@@ 13
aut@@ 13
form 13
adv@@ 13
gla@@ 13
base@@ 13
ti 13
oran@@ 13
floo@@ 13
8 13
numb@@ 13
form@@ 12
cers 12
ate@@ 12
ym@@ 12
dy@@ 12
ry@@ 12
cloth@@ 12
vin@@ 12
u 12
aged 12
ya@@ 12
lov@@ 12
bod@@ 12
hol@@ 12
6 12
tun@@ 12
5@@ 12
tren@@ 11
tod@@ 11
constru@@ 11
ok@@ 11
j 11
dar@@ 11
roma@@ 11
sam@@ 11
khak@@ 11
vat@@ 11
raz@@ 11
cano@@ 11
practic@@ 11
graffit@@ 11
kers 11
prepar@@ 11
bare@@ 10
thing 10
pr@@ 10
zen@@ 10
vari@@ 10
o-@@ 10
cel@@ 10
sti@@ 10
gy@@ 10
vest@@ 10
9@@ 10
viol@@ 10
py@@ 10
# 10
apro@@ 9
da 9
ip@@ 9
fri@@ 9
ple@@ 9
ata 9
hind 9
scho@@ 9
z 9
stum@@ 9
tato 9
bli@@ 9
sal@@ 9
4@@ 9
kar@@ 8
ker@@ 8
ket 8
zy 8
ounta@@ 8
ional 8
za@@ 8
shou@@ 8
ut@@ 8
- 8
cke@@ 8
ko@@ 8
9 7
rav@@ 7
div@@ 7
slu@@ 7
dir@@ 7
mic@@ 7
gir@@ 7
mati@@ 7
zi@@ 7
busine@@ 7
cigaret@@ 7
electri@@ 7
lat@@ 7
dal@@ 7
tu 7
get@@ 7
? 7
equ@@ 7
chil@@ 7
fron@@ 7
mi 7
bikin@@ 7
poli@@ 7
7 7
8@@ 7
6@@ 7
ze@@ 7
auto@@ 6
walk@@ 6
vy@@ 6
fam@@ 6
ku@@ 6
lp@@ 6
inging 6
partici@@ 6
chut@@ 6
ps@@ 6
ffe@@ 6
sleep 6
ling@@ 6
dle@@ 6
ha 6
fit 6
ami 6
prou@@ 6
wit@@ 6
near@@ 6
metr@@ 5
make@@ 5
multicolo@@ 5
youn@@ 5
sat@@ 5
mirro@@ 5
spectat@@ 5
xt 5
bee 5
basket@@ 5
kla@@ 5
uli@@ 5
sy 5
lo 5
pro 5
frien@@ 5
les@@ 5
middle-@@ 5
tit@@ 5
var@@ 5
ske@@ 4
q 4
kitch@@ 4
bear@@ 4
dals 4
di 4
restaur@@ 4
peop@@ 4
jaz@@ 4
equip@@ 4
mr@@ 4
fic 4
cky 4
daugh@@ 4
dings 4
auti@@ 4
bic@@ 4
las 4
spen@@ 4
dler 3
tiv@@ 3
kle@@ 3
olo@@ 3
kel@@ 3
adul@@ 3
sta 3
mik@@ 3
tle@@ 3
onloo@@ 3
vou@@ 3
cy@@ 3
labo@@ 3
sed@@ 3
ired 3
: 3
chy 3
door@@ 3
du 3
obli@@ 3
sv@@ 3
bm@@ 3
aga@@ 3
lem 3
mets 3
itch@@ 3
va 3
nov@@ 3
erti@@ 3
nan@@ 3
val@@ 3
smi@@ 3
beauti@@ 3
tial 3
blon@@ 3
dob@@ 2
van@@ 2
class@@ 2
fris@@ 2
dul@@ 2
psy 2
ply@@ 2
dle-@@ 2
hle@@ 2
tici@@ 2
,@@ 2
li 2
vo 2
lavi@@ 2
tin 2
volle@@ 2
oce@@ 2
blond-@@ 2
my@@ 2
chu 2
chur@@ 2
allow 2
% 2
neu@@ 2
si 2
mpo@@ 2
slun@@ 2
yc@@ 2
cele@@ 2
vr@@ 2
tech 2
slou@@ 2
hoke@@ 2
uniform@@ 1
irt 1
ci 1
oter 1
zat@@ 1
conversat@@ 1
polo@@ 1
dem 1
ugh@@ 1
lou 1
accor@@ 1
publi@@ 1
shro@@ 1
spou@@ 1
kou@@ 1
plast@@ 1
mu 1
deo 1
kor@@ 1
outf@@ 1
nu 1
twe@@ 1
kan@@ 1
cigar@@ 1
rov@@ 1
baru 1
again@@ 1
ong@@ 1
skate@@ 1
auto 1
zd@@ 1
rou 1
eli 1
dresse@@ 1
q@@ 1
kra@@ 1
milit@@ 1
ec 1
ista 1
7@@ 1
tem 1
concre@@ 1
$ 1
brun@@ 1
mobil@@ 1
ji 1
ffee 1
ho 1
ffer@@ 1
tradit@@ 1
hla@@ 1
hr@@ 1
nis 1
jer@@ 1
dv@@ 1
musi@@ 1
stup@@ 1
fon@@ 1
hic@@ 1
zu 1
fia@@ 1
differ@@ 1
kaz@@ 1
ruce 1
yor@@ 1
tograp@@ 1
= 1
